[PAD]
[UNK]
[CLS]
[SEP]
[MASK]
!
"
#
$
%
&
'
(
)
*
+
,
-
.
/
0
1
2
3
4
5
6
7
8
9
:
;
<
=
>
?
@
A
B
C
D
E
F
G
H
I
J
K
L
M
N
O
P
Q
R
S
T
U
V
W
X
Y
Z
[
\
]
^
_
`
a
b
c
d
e
f
g
h
i
j
k
l
m
n
o
p
q
r
s
t
u
v
w
x
y
z
{
|
}
~
¤
©
°
²
³
´
·
À
×
à
è
é
ë
ì
ó
÷
Ā
ā
ě
ī
ǎ
ʒ
ˈ
˙
̄
̆
̈
̊
̌
μ
А
ᄒ
ᆞ
ᆢ
ᐃ
–
—
―
‘
’
“
”
•
․
‥
…
‧
″
‵
‶
※
⁃
₄
₊
₩
℃
™
⅓
Ⅰ
Ⅱ
Ⅲ
Ⅳ
Ⅴ
ⅰ
ⅱ
ⅲ
ⅳ
ⅴ
↑
→
↓
↔
⇒
∎
∘
∙
∣
∵
∼
≠
⊙
①
②
③
④
⑤
⑥
⑦
⑧
⑨
⑩
Ⓐ
Ⓑ
ⓒ
ⓝ
⓵
⓶
⓷
⓸
⓹
⓺
┗
█
■
□
▣
▲
△
▶
▷
▸
◀
◆
◇
◈
○
◎
●
◦
◯
★
☆
☎
☏
☞
☹
♠
♡
♣
♥
♦
♩
⚫
✊
❍
❏
❤
➀
➁
➂
➡
⟩
。
〃
〈
〉
《
》
「
」
『
』
【
】
〔
〕
〞
ア
イ
オ
カ
ス
タ
ト
メ
ラ
リ
ヶ
・
ー
ㄱ
ㄲ
ㄳ
ㄴ
ㄷ
ㄸ
ㄹ
ㅁ
ㅂ
ㅅ
ㅆ
ㅇ
ㅈ
ㅉ
ㅊ
ㅋ
ㅌ
ㅍ
ㅎ
ㅏ
ㅐ
ㅑ
ㅓ
ㅔ
ㅕ
ㅗ
ㅘ
ㅚ
ㅛ
ㅜ
ㅝ
ㅠ
ㅡ
ㅢ
ㅣ
ㆍ
㈜
㉰
㎍
㎛
㎜
㎝
㎞
㎠
㎡
㎢
㎥
一
七
三
上
下
不
且
世
丙
业
东
两
个
中
丹
为
主
之
乎
九
也
了
事
二
五
亚
些
亞
亡
亥
京
人
什
仁
今
介
从
仔
他
令
以
们
件
任
企
伊
会
但
位
低
佛
作
佳
使
來
例
供
俊
俗
保
俠
俸
個
倍
偏
做
停
債
僚
價
億
元
兄
先
入
內
全
兩
兪
公
共
关
兵
其
再
况
准
几
出
分
刑
利
到
制
前
力
加
助
劫
勇
動
務
勝
勢
勳
北
匪
千
华
協
卖
南
印
厚
原
去
又
及
友
反
发
取
受
口
古
只
叫
台
史
司
合
吉
同
名
向
君
吳
呆
告
周
命
和
員
哲
唯
唱
問
善
喜
喪
因
固
国
國
園
團
土
在
地
坤
城
域
基
堂
堆
報
場
士
备
外
多
大
天
太
失
奎
契
女
她
如
妇
妓
妻
姐
姓
委
姜
姬
威
嫖
子
存
孝
孫
學
宇
安
宋
完
宗
官
宙
客
宣
室
害
家
宿
富
察
實
寨
審
尊
對
小
少
就
尹
山
島
崔
嶺
川
州
工
己
已
市
希
帝
帶
平
年
并
幼
幽
庆
府
度
座
弊
引
張
強
强
当
形
影
役
很
律
後
徐
徒
得
德
心
志
忠
思
性
怨
恨
情
惠
惡
意
愚
愛
憂
憲
成
我
戒
或
戰
房
所
手
才
打
扮
承
把
投
抗
报
拜
择
持
指
按
描
搜
摩
據
收
改
政
故
敎
敗
敢
敬
数
敵
斂
文
斗
新
方
族
无
日
旬
时
昇
昊
昌
明
易
星
映
是
時
晤
普
景
暗
暴
曰
更
曾
月
有
服
望
期
木
本
札
朱
朴
李
来
東
板
林
柏
柱
柳
査
株
样
核
格
條
棒
植
業
榮
構
槿
樂
樹
樽
橋
機
檀
檢
權
次
欧
欺
歌
歐
止
正
此
歷
死
母
比
氏
民
氣
水
永
求
汚
江
没
治
法
注
泰
泳
洑
洗
洲
流
浣
浦
浴
海
淑
淚
淫
淸
港
湖
湾
源
滅
漢
澈
澳
濟
火
炅
炭
炳
烈
無
然
熙
營
燭
爲
牙
牛
物
犬
犯
状
狂
獄
獨
玄
玉
王
玟
现
玲
珍
珠
班
現
理
瑛
甚
生
田
申
电
男
界
畓
病
症
登
發
白
百
的
益
盜
盤
盧
盲
相
看
眞
眼
短
石
砲
硏
礎
示
神
祭
福
秀
私
秉
秋
种
称
稅
積
究
空
窦
立
競
笠
筆
等
算
簿
紀
約
級
累
終
給
統
經
維
線
縛
繼
續
经
绝
罪
罰
羅
羊
美
群
義
習
老
考
者
耽
聖
聲
職
肅
肉
肴
背
脊
脫
腦
膏
自
至
臺
與
航
般
良
苛
苦
英
营
萬
落
蒼
蓋
蓮
蔘
蔚
薛
蘇
蘭
虎
處
虛
虹
血
行
表
袋
被
裂
裔
補
褒
西
視
親
覺
覽
见
訊
記
設
許
訴
詐
試
話
誅
語
調
談
請
諸
證
警
議
護
讀
讹
设
话
说
豪
貞
財
販
費
資
賢
賣
質
贼
赚
赫
走
起
超
越
趾
踪
身
軍
載
轉
较
農
过
近
还
这
远
违
述
逆
选
透
逐
通
進
逸
運
遍
過
道
遠
適
邁
邊
部
都
鄭
鄰
酒
釋
里
重
野
量
金
針
銀
錢
鎔
错
長
開
閏
閔
閣
閥
问
间
闻
阿
附
陆
限
院
除
险
陳
隊
隐
雄
集
難
雨
需
霓
露
靈
靑
非
面
韓
韩
音
順
頗
領
頭
類
顯
風
风
飞
養
香
馬
马
體
高
魏
魚
麻
黄
黨
鼎
꙼
가
각
간
갇
갈
갉
감
갑
값
갓
갔
강
갖
갗
갘
같
갚
갛
개
객
갠
갤
갭
갯
갰
갱
갸
갹
걀
걍
걑
걔
걘
거
걱
건
걷
걸
검
겁
것
겄
겅
겆
겉
겊
게
겍
겐
겔
겜
겟
겠
겡
겧
겨
격
겪
견
결
겸
겹
겻
겼
경
곁
계
곗
곘
곙
고
곡
곤
곧
골
곪
곯
곰
곱
곳
공
곶
과
곽
관
괄
괌
광
괘
괜
괞
괭
괴
괵
괸
괼
굉
교
굣
구
국
군
굲
굳
굴
굵
굶
굻
굼
굽
굿
궁
궂
궄
궈
권
궐
궜
궤
귀
귁
귄
귈
귓
규
귝
균
귤
그
극
근
귾
글
긁
긇
금
급
긊
긋
긌
긍
긎
긕
긘
긧
기
긱
긴
길
김
깁
깃
깅
깆
깉
깊
깋
까
깍
깎
깐
깔
깜
깝
깟
깠
깡
깢
깥
깨
깬
깰
깹
깻
깼
깽
꺄
꺔
꺠
꺼
꺽
꺾
껀
껄
껌
껍
껏
껐
껑
께
껜
껭
껴
껵
꼇
꼈
꼐
꼬
꼭
꼰
꼴
꼼
꼽
꼿
꽁
꽂
꽃
꽅
꽈
꽉
꽐
꽝
꽤
꽥
꾀
꾄
꾐
꾜
꾸
꾹
꾼
꾾
꿀
꿇
꿈
꿉
꿋
꿍
꿎
꿏
꿔
꿘
꿧
꿨
꿩
꿰
꿴
뀌
뀐
뀔
뀜
뀝
뀠
끄
끈
끊
끌
끍
끓
끔
끗
끙
끚
끝
끼
끽
낀
낄
낌
낍
낑
나
낙
낚
난
낞
낟
날
낡
낧
남
납
낫
났
낭
낮
낯
낱
낳
내
낵
낸
낼
냄
냅
냇
냈
냉
냐
냔
냘
냥
냫
냬
너
넉
넋
넌
넎
널
넒
넓
넖
넘
넙
넚
넜
넝
넢
넣
네
넥
넨
넬
넴
넵
넷
넸
넹
녀
녁
년
념
녓
녔
녕
녘
녜
노
녹
논
놀
놁
놈
놉
놋
농
높
놓
놔
놧
놨
뇄
뇌
뇨
뇬
뇸
눂
누
눅
눈
눌
눔
눕
눗
눙
눟
눠
눤
눴
눼
뉘
뉜
뉠
뉴
늄
늉
늏
느
늑
는
늗
늘
늙
늠
늣
능
늦
늧
늪
늬
니
닉
닌
닏
닐
님
닙
닛
닜
닝
닠
다
닥
닦
단
닫
달
닭
닮
닯
닳
담
답
닷
당
닺
닼
닽
닾
닿
대
댁
댄
댈
댐
댑
댓
댔
댕
댖
댗
댜
댱
댸
더
덕
던
덛
덜
덞
덟
덤
덥
덧
덩
덪
덫
덭
덮
덯
데
덱
덴
델
뎁
뎃
뎄
뎅
뎆
뎌
뎐
뎟
뎠
뎨
도
독
돈
돋
돌
돔
돕
돗
동
돚
돛
돟
돠
돡
돤
돨
돵
돼
됀
됄
됌
됍
됏
됐
되
된
될
됨
됩
됫
됬
됭
됮
됯
됴
둉
두
둑
둔
둘
둠
둡
둣
둥
둬
둰
둴
둿
뒀
뒈
뒤
뒷
뒹
뒺
듀
듈
듐
드
득
든
듣
들
듦
듧
듬
듭
듯
듰
등
듲
듵
듸
듹
듼
딉
디
딕
딘
딛
딜
딤
딥
딧
딨
딩
딪
딫
따
딱
딴
딸
땀
땃
땄
땅
땋
때
땍
땐
땔
땜
땝
땟
땠
땡
땨
땰
떄
떈
떗
떠
떡
떤
떧
떨
떯
떱
떳
떴
떵
떻
떼
뗀
뗄
뗌
뗍
뗐
뗗
뗘
뗴
또
똑
똘
똠
똥
똫
뙇
뚜
뚝
뚞
뚤
뚦
뚫
뚯
뚱
뛰
뛴
뛸
뜁
뜨
뜩
뜬
뜯
뜰
뜸
뜹
뜻
뜾
띁
띄
띈
띌
띔
띕
띠
띡
띤
띨
띰
띱
띵
라
락
란
랃
랄
람
랍
랏
랐
랑
랖
랗
래
랙
랜
랠
램
랩
랫
랬
랭
랴
략
럄
럅
량
럐
러
럭
런
럲
럴
럻
럼
럽
럿
렀
렁
렇
레
렉
렌
렐
렘
렙
렛
렜
렝
려
력
렧
련
렬
렴
렵
렷
렸
령
렿
례
로
록
론
롤
롬
롭
롯
롱
롸
롼
뢀
뢰
룁
료
룍
룐
룔
룡
루
룩
룬
룰
룸
룹
룻
룽
뤄
뤗
뤘
류
륙
륜
률
륨
륭
르
륵
른
를
륿
름
릅
릇
릉
릎
릏
릐
릠
리
릭
린
릴
림
립
릿
링
맂
맇
마
막
만
많
맏
말
맑
맗
맘
맙
맛
망
맞
맟
맠
맡
맢
맣
매
맥
맨
맬
맴
맵
맷
맸
맹
맺
맻
먀
먄
먈
머
먹
먼
멀
멈
멉
멊
멋
멍
멎
멏
멓
메
멕
멘
멜
멤
멧
멩
멫
며
멱
면
멸
몀
몃
몄
명
몆
몇
몌
모
목
몪
몫
몬
몰
몱
몴
몸
몹
못
몽
몾
몿
뫈
뫼
묀
묘
묙
묜
무
묵
묶
문
묹
묻
물
뭄
뭅
뭇
뭉
뭍
뭏
뭐
뭔
뭘
뭠
뭡
뭣
뭤
뮈
뮌
뮙
뮤
뮥
뮬
뮴
뮹
므
믄
믇
믈
믐
믑
믓
믜
미
믹
민
믽
믾
믿
밀
밈
밉
밋
밌
밍
밎
및
밑
밓
바
박
밖
반
받
발
밝
밞
밟
밢
밣
밤
밥
밧
밨
방
밪
밬
밭
배
백
밴
밷
밸
뱀
뱁
뱃
뱄
뱅
뱉
뱌
뱓
뱔
버
벅
번
벋
벌
벍
벏
범
법
벗
벙
벚
벛
베
벡
벤
벨
벳
벵
벼
벽
변
별
볅
볍
볐
병
볓
볔
볕
볘
보
복
볶
본
볼
봄
봅
봇
봉
봐
봣
봤
뵁
뵈
뵌
뵐
뵙
뵤
뵹
부
북
분
붇
불
붉
붍
붐
붑
붓
붕
붙
뷔
뷰
뷴
뷸
브
븐
블
븰
비
빅
빆
빈
빋
빌
빔
빕
빗
빙
빚
빛
빠
빡
빢
빤
빨
빰
빱
빳
빴
빵
빻
빼
빽
뺀
뺄
뺌
뺍
뺏
뺐
뺑
뺒
뺠
뺨
뺴
뻇
뻐
뻑
뻔
뻗
뻘
뻟
뻣
뻤
뻥
뻩
뼈
뼘
뼛
뼝
뽀
뽁
뽄
뽐
뽑
뽕
뽝
뾰
뿌
뿍
뿐
뿔
뿜
뿝
쁘
쁜
쁠
쁨
쁩
삐
삑
삥
사
삭
삮
산
살
삶
삷
삻
삼
삽
삿
샀
상
샅
샆
새
색
샊
샌
샐
샘
샙
샛
생
샤
샥
샬
샴
샵
샷
샹
샾
섀
서
석
섞
선
섣
설
섥
섬
섭
섯
섰
성
세
섹
센
셀
셈
셉
셋
셌
셍
셔
션
셛
셜
셤
셧
셨
셰
소
속
솎
손
솓
솔
솜
솝
솟
송
솥
솨
솬
솰
쇄
쇠
쇳
쇼
쇽
숀
숍
숏
숑
숖
수
숙
순
숟
술
숨
숩
숫
숭
숯
숱
숲
숴
숼
쉐
쉘
쉬
쉰
쉴
쉼
쉽
쉿
슈
슉
슐
슘
슛
스
슥
슨
슬
슭
슴
습
슷
승
슺
슽
싑
시
식
신
싢
싣
실
싦
싫
심
십
싯
싰
싱
싶
싷
싸
싹
싼
쌀
쌈
쌉
쌋
쌌
쌍
쌓
쌔
쌘
쌜
쌤
쌧
쌩
쌯
쌰
썅
썜
썡
써
썩
썪
썬
썰
썸
썹
썻
썼
썽
쎄
쎅
쎈
쎌
쎤
쎴
쏘
쏙
쏜
쏟
쏠
쏩
쏫
쏴
쐇
쐈
쐐
쐬
쐴
쑈
쑤
쑥
쒀
쒸
쓔
쓰
쓱
쓴
쓸
씀
씁
씋
씌
씨
씩
씬
씯
씰
씸
씹
씻
씽
아
악
안
앉
않
앋
알
앎
앓
암
압
앖
앗
았
앙
앚
앝
앞
앟
애
액
앤
앨
앰
앱
앴
앵
야
약
앾
얀
얄
얇
얌
얍
얏
양
얕
얗
얘
얙
얩
어
억
얶
언
얹
얺
얻
얼
얽
엄
업
없
엇
었
엉
엊
엌
엎
엏
에
엑
엔
엘
엠
엡
엣
엥
여
역
엮
연
열
염
엽
엾
엿
였
영
옃
옄
옅
옆
옇
예
옌
옐
옘
옙
옛
옜
오
옥
온
올
옭
옮
옯
옰
옳
옴
옵
옶
옷
옸
옹
옻
와
왁
완
왈
왑
왓
왔
왕
왜
왠
외
왼
욋
요
욕
욗
욜
욤
욥
욧
용
욭
우
욱
운
울
욺
움
웁
웃
웅
웈
워
웍
원
월
웜
웝
웟
웠
웡
웨
웩
웬
웰
웹
위
윈
윌
윗
윘
윙
유
육
윤
율
윳
융
으
윽
윾
은
읃
을
읆
읊
읋
음
읍
읏
응
읗
의
읙
읜
읠
읨
이
익
읶
인
읹
읺
일
읽
잃
임
입
잆
잇
있
잉
잊
잋
잌
잍
잎
잏
자
작
잔
잖
잗
잘
잚
잠
잡
잢
잣
잤
장
잦
잨
재
잭
잰
잴
잼
잽
잿
쟁
쟂
쟈
쟌
쟎
쟙
쟝
쟤
저
적
전
젅
절
젊
젋
젏
점
접
젓
젔
정
젖
젘
제
젝
젠
젤
젬
젭
젯
젱
져
젹
젼
졉
졋
졌
졍
졓
졔
졘
조
족
졳
존
졸
좀
좁
좃
종
좆
좇
좋
좌
좍
좐
좔
좨
좽
죄
죅
죈
죕
죗
죠
죳
주
죽
준
줄
줌
줍
줏
중
줘
줫
줬
줴
쥐
쥔
쥘
쥣
쥤
쥬
쥴
즁
즈
즉
즌
즐
즘
즙
증
즣
즤
즥
즨
즬
즹
지
직
진
짇
질
짊
짋
짐
집
짒
짓
징
짖
짗
짙
짚
짜
짝
짠
짢
짤
짥
짦
짧
짪
짫
짬
짭
짰
짱
짲
째
짹
짼
쨀
쨉
쨋
쨌
쨍
쨓
쨰
쩃
쩌
쩍
쩐
쩔
쩜
쩝
쩡
쩧
쩨
쪄
쪘
쪼
쪽
쫄
쫌
쫍
쫏
쫑
쫒
쫓
쫗
쫙
쬐
쬬
쭈
쭉
쭐
쭘
쭙
쭝
쭞
쭤
쭸
쮸
쯔
쯤
쯧
찌
찍
찐
찔
찗
찜
찝
찟
찡
찢
찣
찧
차
착
찬
찮
찰
참
찹
찻
찼
창
찾
찿
채
책
챈
챌
챔
챗
챘
챙
챠
챡
챦
처
척
천
철
첧
첨
첩
첫
첬
청
첱
체
첵
첸
첼
쳇
쳉
쳐
쳑
쳔
쳘
쳣
쳤
쳥
쳬
초
촉
촌
촐
촘
촛
총
촞
촟
촣
촤
촬
최
쵸
추
축
춘
출
춣
춤
춥
춧
충
춰
췄
췌
취
췬
췼
츄
츠
측
츨
츰
층
츼
치
칙
친
칠
침
칩
칫
칭
칮
카
칵
칸
칼
캄
캅
캉
캐
캔
캘
캠
캡
캣
캥
캬
캭
컈
커
컥
컨
컫
컬
컴
컵
컷
컸
컹
케
켄
켈
켐
켑
켓
켔
켛
켜
켝
켠
켤
켯
켰
켷
켸
코
콕
콘
콜
콝
콤
콥
콧
콩
콱
쾅
쾌
쾰
쿄
쿠
쿡
쿤
쿨
쿰
쿵
쿼
쿽
퀀
퀄
퀘
퀴
퀵
퀸
퀼
큐
큘
크
큭
큰
클
큼
큽
킁
킝
키
킥
킨
킬
킴
킵
킷
킹
타
탁
탄
탈
탐
탑
탓
탔
탕
탚
태
택
탠
탤
탬
탭
탯
탰
탱
탸
탹
탼
터
턱
턴
털
텀
텁
텃
텅
텆
텋
테
텍
텐
텔
템
텝
텨
텻
텼
톄
톈
토
톡
톤
톨
톰
톱
톳
통
톼
퇴
툐
툥
투
툭
툰
툴
툻
툼
툽
퉁
퉈
퉜
퉤
튀
튄
튈
튕
튜
튤
트
특
튼
튿
틀
틈
틉
틋
틍
틑
틔
티
틱
틴
틸
팀
팁
팅
파
팍
팎
판
팔
팜
팝
팟
팠
팡
팥
팦
패
팩
팬
팰
팸
팻
팼
팽
퍄
퍈
퍠
퍡
퍤
퍼
퍽
펀
펄
펌
펍
펐
펑
페
펙
펜
펠
펨
펫
펭
펴
편
펼
폄
폅
폇
폈
평
폍
폐
폑
포
폭
폰
폴
폼
퐁
퐐
푀
표
푠
푯
푸
푹
푼
풀
품
풉
풋
풍
퓌
퓨
퓰
퓸
프
픈
플
픔
픕
피
픽
핀
필
핌
핍
핏
핑
하
학
한
핞
할
핡
핢
핥
핦
함
합
핫
핬
항
핮
해
핵
핸
핻
핼
햄
햅
햇
했
행
햊
햋
햍
햏
햐
햑
햔
햘
햝
햡
향
햬
햿
헀
허
헉
헌
헏
헐
험
헙
헛
헜
헝
헣
헤
헥
헨
헬
헷
헹
혀
혁
현
혅
혈
혐
협
혓
혔
형
혜
혤
호
혹
혼
홀
홇
홈
홉
홋
홍
홑
화
확
환
활
홥
홧
황
홯
홰
횃
회
획
횐
횟
횡
효
횽
후
훅
훈
훌
훑
훓
훔
훗
훙
훠
훤
훨
훼
휀
휄
휘
휙
휜
휠
휩
휴
휼
흄
흉
흐
흑
흔
흘
흙
흠
흡
흥
흩
흪
흫
희
흭
흰
히
힉
힌
힐
힘
힙
힝
車
金
落
浪
勞
爐
盧
露
祿
論
樂
北
不
沈
女
年
連
烈
怜
領
龍
利
李
離
立
️
！
＂
＃
％
（
）
＊
，
：
；
＜
＞
？
［
］
～
｢
｣
･
￦
🇰
🇵
🇷
🌏
🍀
🍁
🍌
🎈
🏓
🏻
🏼
🐕
🐱
🐶
👈
👉
👊
👍
👎
👹
👿
💚
💜
💥
🔥
🔴
🕯
🖕
😃
😄
😆
😉
😐
😖
😞
😠
😡
😣
😤
😩
😫
😭
😰
😵
🙂
🙄
🙏
🚨
🤧
🤬
##인
##리
##치
##료
##등
##려
##야
##직
##소
##사
##자
##여
##성
##술
##르
##신
##만
##둘
##웠
##그
##초
##라
##청
##장
##업
##영
##A
##T
##C
##H
##칭
##적
##래
##저
##되
##중
##기
##셔
##서
##분
##문
##도
##지
##6
##5
##트
##관
##규
##겨
##보
##블
##희
##선
##N
##l
##Q
##채
##금
##산
##형
##깨
##비
##재
##갛
##I
##F
##E
##w
##e
##d
##n
##랄
##총
##궁
##화
##다
##고
##요
##파
##손
##눌
##러
##까
##운
##데
##각
##마
##국
##개
##발
##연
##구
##원
##가
##칸
##둡
##니
##어
##오
##출
##로
##막
##힌
##격
##전
##학
##른
##찰
##법
##순
##함
##뛰
##항
##두
##무
##부
##불
##병
##1
##2
##0
##i
##s
##론
##였
##칫
##상
##히
##갈
##투
##한
##맹
##계
##힐
##뻔
##훈
##노
##당
##조
##아
##듬
##이
##퍼
##환
##천
##시
##해
##줄
##동
##품
##방
##쓸
##드
##주
##정
##혼
##물
##린
##나
##통
##명
##공
##택
##9
##3
##꽥
##창
##의
##t
##u
##딸
##솔
##올
##진
##으
##킨
##권
##릴
##져
##경
##워
##점
##결
##o
##h
##a
##m
##군
##바
##더
##률
##제
##범
##유
##역
##레
##스
##거
##7
##4
##c
##p
##잖
##째
##행
##랜
##밥
##일
##했
##냐
##맡
##길
##름
##움
##을
##v
##말
##둔
##실
##감
##력
##철
##대
##달
##하
##작
##들
##참
##난
##우
##증
##ㆍ
##먼
##디
##식
##먹
##r
##송
##즈
##빈
##족
##승
##현
##J
##용
##차
##임
##터
##심
##룹
##텨
##왔
##꾸
##위
##볼
##준
##세
##휴
##민
##션
##타
##날
##받
##은
##탄
##못
##쓰
##훨
##립
##할
##크
##속
##껏
##U
##y
##O
##설
##탈
##란
##g
##수
##Y
##풀
##게
##낼
##종
##버
##새
##백
##ㅡ
##는
##면
##삼
##미
##곳
##혔
##맞
##춤
##피
##셜
##왕
##반
##태
##며
##b
##브
##약
##매
##모
##호
##압
##안
##포
##R
##층
##헌
##루
##절
##맨
##때
##런
##k
##락
##8
##교
##쳐
##과
##G
##습
##익
##던
##온
##틀
##낙
##변
##처
##럽
##량
##놀
##외
##죄
##록
##메
##급
##복
##단
##애
##회
##젠
##많
##내
##윤
##섰
##후
##끼
##텐
##칠
##본
##건
##앙
##년
##질
##간
##첩
##람
##렸
##었
##취
##체
##판
##졌
##림
##쳤
##탁
##핀
##근
##악
##축
##령
##예
##표
##촌
##글
##벙
##케
##잉
##널
##입
##책
##색
##줍
##럼
##혀
##냈
##머
##돈
##덕
##네
##곡
##툼
##든
##담
##멸
##에
##편
##프
##몸
##f
##D
##X
##황
##큰
##토
##석
##것
##박
##낍
##값
##캐
##켜
##깁
##걸
##혈
##남
##액
##카
##딪
##힘
##광
##견
##득
##옴
##례
##께
##존
##렛
##완
##향
##언
##망
##생
##긴
##집
##킬
##룩
##풍
##쭐
##열
##숭
##코
##났
##합
##L
##테
##빛
##켰
##찬
##효
##틸
##허
##뻐
##씬
##z
##침
##번
##삭
##ᆢ
##울
##쑈
##징
##놨
##돌
##별
##흡
##양
##퇴
##답
##폴
##추
##평
##밴
##념
##납
##ㅋ
##j
##누
##P
##댁
##갑
##너
##큼
##잡
##랍
##벽
##꼬
##켓
##끈
##싱
##V
##죽
##티
##착
##뜨
##염
##봉
##랑
##헤
##련
##땐
##목
##꽃
##획
##커
##갔
##략
##극
##잎
##독
##럴
##녀
##췄
##B
##M
##늘
##꼈
##렬
##음
##벌
##쁩
##논
##와
##뒤
##님
##웅
##옥
##릭
##꼭
##섭
##W
##뿌
##S
##흔
##녕
##춰
##쿨
##링
##뼈
##살
##♥
##굼
##필
##ㅇ
##벅
##젓
##끌
##혜
##쥐
##엄
##플
##없
##묻
##류
##츠
##툭
##턴
##슬
##랐
##귄
##놓
##킵
##친
##둑
##궐
##찹
##q
##녁
##밟
##김
##키
##된
##골
##랙
##봐
##랫
##큘
##K
##줘
##깊
##검
##줬
##밀
##귀
##몰
##짐
##뤄
##확
##핍
##굴
##둥
##육
##겼
##강
##롱
##험
##x
##ě
##ì
##ā
##뜰
##척
##베
##셨
##배
##쁜
##룬
##컵
##뇨
##넘
##늠
##잔
##쳇
##푸
##월
##옹
##패
##따
##십
##욕
##덤
##팡
##알
##닥
##슈
##춘
##샤
##멍
##웨
##텍
##활
##맥
##씌
##쪽
##잘
##균
##북
##붙
##잇
##쌀
##촉
##빙
##걀
##닐
##팔
##옷
##칙
##접
##폭
##땅
##낄
##밍
##낭
##써
##흥
##깔
##눈
##뭇
##욱
##융
##괄
##땠
##응
##앗
##곤
##듭
##냥
##럭
##짝
##띠
##솥
##ㅠ
##콜
##댄
##ㄹ
##힙
##즙
##를
##숙
##칩
##쿄
##쟁
##굽
##훼
##싸
##능
##껴
##쩐
##텔
##얼
##좀
##섬
##벨
##웁
##객
##억
##끔
##핑
##암
##끄
##졸
##폰
##쩍
##낸
##또
##긋
##클
##렇
##렌
##렴
##릿
##곽
##폐
##펙
##꼽
##혹
##곱
##튼
##첨
##꾼
##잠
##옇
##냅
##핥
##팥
##앱
##딱
##쿠
##엇
##씨
##몽
##봄
##닝
##Z
##밭
##센
##홍
##떼
##엌
##특
##릉
##퉁
##윈
##쁘
##팀
##ㅜ
##홈
##쇼
##퓨
##탐
##겁
##컫
##룡
##페
##짜
##떡
##ㅈ
##😤
##🇰
##🇷
##흉
##놈
##겸
##렁
##렵
##탤
##틱
##읍
##엔
##깐
##쇄
##싼
##섞
##떠
##쭙
##딘
##컬
##쩌
##̈
##딩
##뉜
##꿔
##쩔
##뗘
##흑
##뜻
##눠
##웃
##펴
##꿎
##ㄴ
##ㅁ
##겹
##뱅
##🔥
##튀
##킹
##릅
##긍
##랗
##쉬
##엘
##즐
##꼿
##빠
##농
##뮬
##빼
##짓
##톰
##껌
##닌
##렀
##툰
##죠
##껄
##쎄
##꼴
##콘
##찜
##뷰
##찌
##뜩
##찼
##측
##쎈
##팽
##탕
##탱
##쌓
##슨
##몀
##맛
##넌
##빴
##픈
##둬
##딜
##섯
##덩
##헨
##셉
##몬
##충
##붓
##쾌
##털
##퉜
##쇠
##뀔
##귈
##홀
##탑
##델
##휘
##뇌
##릇
##협
##랬
##있
##느
##밤
##쯤
##륙
##덴
##덧
##☞
##짚
##쬬
##쁨
##듯
##롭
##큐
##꿀
##놔
##×
##몫
##최
##폼
##엠
##뻥
##눔
##찮
##녔
##렉
##끗
##뎌
##▣
##컹
##았
##젤
##퓰
##즘
##묵
##떨
##캔
##팬
##펑
##짱
##빵
##흐
##륨
##빗
##뉴
##ᆞ
##벡
##묘
##앞
##뚤
##엎
##슴
##뚜
##얀
##돚
##빌
##퉈
##잭
##넨
##좌
##핸
##넣
##똥
##😭
##돋
##맸
##닷
##앨
##멋
##쾅
##꽁
##왈
##꼐
##섹
##믹
##뮴
##뢰
##됍
##팸
##램
##ㅣ
##첼
##맘
##샵
##→
##눕
##칼
##율
##멩
##같
##뜯
##싹
##슘
##ㅉ
##랭
##롤
##멘
##😣
##👹
##숲
##셀
##곧
##훤
##곰
##윙
##셋
##겆
##짖
##뻤
##콤
##ー
##ス
##ト
##ラ
##リ
##ア
##팅
##닉
##혁
##켈
##므
##붕
##깥
##찍
##떵
##떤
##랠
##쨌
##닭
##🤬
##😡
##😠
##👿
##듈
##뀐
##끙
##퀘
##껍
##겠
##륜
##뚱
##픔
##랏
##낌
##템
##틴
##풋
##벼
##껑
##푹
##줌
##뎠
##톤
##핏
##둣
##볍
##봅
##숨
##깅
##벤
##숴
##닫
##뒀
##댜
##픕
##볕
##닙
##깃
##쭘
##쌉
##꿍
##컨
##🕯
##댕
##떻
##쌍
##샘
##탰
##덜
##쁠
##꺼
##헐
##앉
##랩
##될
##눴
##톨
##꿈
##룸
##뜬
##쫓
##넬
##혐
##튜
##잣
##♡
##왜
##씀
##픽
##캄
##썩
##콩
##뵙
##늄
##엽
##뛸
##흘
##앰
##멓
##듣
##댈
##탓
##쭈
##넜
##돼
##깡
##쉽
##삐
##쩡
##킷
##뀜
##렷
##쏙
##😃
##툴
##팍
##멧
##흙
##갓
##츄
##갱
##됴
##뿐
##엉
##씽
##쿡
##듀
##돔
##삿
##릎
##🐱
##컥
##끝
##뻘
##퐁
##킥
##옵
##띤
##꿇
##퍽
##높
##줏
##컴
##찐
##갖
##삽
##땀
##븐
##뭐
##★
##룰
##펀
##앤
##텅
##촘
##탠
##뿔
##톱
##빡
##몄
##ㅗ
##밋
##돗
##춧
##꿨
##퀴
##폈
##딴
##씹
##똘
##꾹
##밸
##볶
##엑
##ī
##ó
##쵸
##뱀
##뀌
##ㄱ
##틈
##ㅍ
##칵
##봇
##タ
##삑
##웰
##덮
##넉
##샹
##핵
##썹
##ㄳ
##뒹
##멀
##앵
##첫
##딛
##뽀
##떳
##찔
##괴
##뚝
##볓
##뜸
##렐
##빚
##뛴
##밌
##햐
##텼
##낀
##댔
##쿵
##숍
##쌰
##딤
##à
##펐
##밬
##ㅎ
##젯
##킴
##옆
##ㄷ
##빽
##쩝
##밈
##랴
##깎
##깟
##낮
##붐
##즌
##꽝
##쯔
##톡
##댓
##뮤
##쪼
##딕
##쥘
##넓
##녹
##싯
##씩
##낵
##ㅅ
##끽
##솟
##챙
##짢
##뚫
##엿
##궤
##샷
##얹
##믄
##숱
##펌
##츰
##몆
##♠
##뉘
##륭
##썬
##텀
##🙏
##뿍
##땡
##샬
##뽕
##뇬
##틉
##😩
##쩧
##쓴
##늑
##빅
##■
##メ
##カ
##꿉
##헉
##렜
##넴
##뱉
##륵
##춥
##빨
##쿼
##맷
##낑
##냔
##럿
##썽
##턱
##굿
##꾀
##덥
##🏼
##셧
##뭉
##챦
##콕
##넸
##탭
##봤
##쭤
##궈
##넥
##멈
##맺
##찝
##슥
##삶
##푼
##겔
##좁
##딧
##쪄
##둠
##밑
##겐
##꼼
##쨍
##벵
##즉
##펜
##윗
##갗
##ㅆ
##밖
##○
##렘
##넷
##👈
##👉
##얏
##뺑
##뤘
##뻣
##녘
##깽
##늬
##좋
##ㅂ
##퀄
##빳
##끊
##엣
##맣
##갚
##늦
##곁
##뽑
##젝
##얄
##앓
##팟
##팝
##삥
##롬
##🇵
##딥
##뺌
##쯧
##샅
##뻑
##쨋
##è
##걱
##됩
##댐
##◯
##룻
##닺
##숩
##롯
##쩜
##햇
##뀠
##깜
##늉
##쫙
##딨
##쏠
##및
##슷
##퉤
##닛
##흰
##헛
##듐
##읜
##쑤
##홉
##괘
##맙
##엾
##볐
##닿
##é
##튿
##좔
##귤
##굣
##벗
##씁
##윽
##췌
##뵈
##녜
##밉
##덟
##믈
##맵
##탬
##믿
##팠
##횡
##셈
##냄
##밧
##챈
##뭏
##끓
##팜
##낱
##컷
##읽
##샌
##펠
##쏘
##쌩
##팎
##챘
##뿜
##퀸
##맑
##땃
##흠
##꿋
##괭
##쑥
##뱃
##젊
##뒷
##똑
##🏻
##윳
##믓
##뀝
##헬
##캡
##찾
##랖
##쪘
##깝
##텝
##웹
##띔
##퓌
##뉠
##핌
##왑
##😖
##않
##슐
##휙
##썪
##쿤
##곯
##꺽
##웍
##빤
##깍
##깠
##훗
##낯
##ㅔ
##슭
##콧
##챌
##뭄
##ǎ
##궜
##띄
##뷴
##왓
##뼛
##◆
##눅
##맬
##짬
##쨉
##뷔
##벳
##🤧
##😰
##젭
##콥
##ë
##촛
##짤
##🍁
##썼
##켄
##씸
##찡
##덞
##ㅌ
##🚨
##덱
##굵
##탔
##틋
##ᄒ
##셌
##젼
##②
##냇
##횟
##얗
##몇
##겟
##뷸
##덯
##솜
##↓
##겊
##깆
##쉰
##펄
##갯
##욋
##짠
##냉
##욧
##됨
##젹
##☆
##as
##df
##asdf
##니다
##asdfasdf
습니다
##asdfasdfasdfasdf
으로
에서
합니다
fasdfasdfasdfasdf
fasdfasdfasdfasdfasdfasdf
입니다
국민
사람
20
는데
에게
생각
대한
한다
지만
다고
라고
나라
까지
##니까
201
세요
아니
우리
정부
##00
해야
라는
해서
면서
지금
문제
이런
대통
대통령
다는
으면
국가
위해
너무
시간
이상
도록
##민국
대한민국
그리
그런
청원
피해
이나
그리고
때문
는지
만들
10
민원
부터
필요
아이
경찰
2018
한국
사회
된다
세금
정책
경제
사건
다른
아닌
그러
내용
국회
모든
공무
정말
어서
##립니다
공무원
지원
행정
이유
현재
보다
어야
다시
사용
됩니다
사실
대해
상황
복지
그렇
많이
아무
라도
연금
경우
의원
정도
기업
##대로
지역
사업
문재
없이
여성
가지
문재인
처리
또한
네요
이렇
그래
소득
병원
교육
기관
지급
한다고
인데
저희
관리
12
관련
처벌
조사
드립니다
서울
처럼
생활
제도
범죄
보험
모르
하나
해결
회사
개인
정치
일자
##까요
모두
제발
가족
책임
거나
급여
인지
##가요
미세
근로
해도
아야
다면
부탁
수사
십시
##랍니다
습니까
바랍니다
가능
이용
어떻
##먼지
미세먼지
민주
그런데
여러
들어
##의원
답변
학교
국회의원
위한
시키
중국
잘못
지방
감사
나요
으며
청와
계속
사고
계약
##동산
부동산
이제
하루
대구
아파
청와대
11
얼마
생계
##다고
같이
일본
일자리
힘들
근무
아닙
이러
발생
다가
현실
정보
마음
대학
정신
자기
아파트
30
직원
전화
확인
신청
번호
따라
보호
피해자
시켜
학생
최저
나오
100
대표
아서
##아가
운영
신고
북한
서민
금액
바로
겁니다
기사
한다는
어려
자유
의무
장애
그냥
기간
해당
방법
이해
불법
당장
주택
노동
그래서
검찰
더라
정권
결과
##주의
부모
문화
제대로
동안
도와
기초
통해
기준
건강
자의
다니
억울
일반
개월
대출
뉴스
한테
인간
19
업무
시장
본인
자신
봅니다
진행
입니까
청년
미국
려고
누구
위해서
환경
일부
시민
가장
물론
이게
사기
아직
인해
관계
이번
검사
이것
고소
행위
시작
##다는
담당
요청
상태
가정
여자
라면
언론
업체
위원
께서
부분
또는
차량
어떤
발전
기에
어느
예산
01
그것
중구
이미
당시
외국
##어나
어린
의사
조치
권리
폐지
요구
동물
15
시행
해외
안녕
임금
아닙니다
ht
무슨
방송
그러나
재산
남성
대책
18
##세요
어요
이야
지난
여기
사이
으니
##다면
안전
개선
기본
반대
조금
부담
도움
000
인가
경기
고통
주민
2019
어디
판결
보이
이야기
대로
200
지요
직접
50
공정
투기
된다고
##혜원
혜택
치료
나가
가격
월급
손혜원
어도
비용
당연
공사
환자
십시요
강력
건설
남자
전혀
##어지
인권
당하
이후
보내
택시
대해서
인정
적용
십시오
니까
인상
활동
다음
동의
수도
무엇
대부
세계
요즘
의료
저의
##비스
미래
산업
공개
시기
##tp
서비스
http
말씀
세상
그만
가입
얼마나
적폐
민주당
지나
더군
더니
올라
취업
중요
결국
대부분
가해
자동
알려
재판
이루
강제
운동
포함
나이
대상
개발
올리
조차
증거
단체
함께
co
센터
고용
드리
한다면
##ew
소리
직장
##임금
오늘
비리
언제
차별
위하
폭행
자리
친구
투자
주장
최저임금
과정
수당
##기업
2017
마다
입장
거래
노력
어렵
누가
교사
보장
시설
연락
얘기
근로자
더군요
바라
사무
정의
수준
을까요
구속
더라도
먼저
열심
선수
는가
오히
심각
기술
오히려
너무나
당신
열심히
현장
사법
만큼
게시
운전
거짓
##없이
그럼
신의
##머니
지켜
평등
40
결정
등의
세대
진정
행동
교통
국내
설치
판사
대하
##부터
도시
보상
특히
이익
중소
카드
##드시
반드시
선거
##호사
등록
지지
니다
진짜
명의
임대
보여
25
분명
건물
의해
합니까
마련
법원
자체
고자
시험
자료
여야
처음
인의
헌법
이유로
##규직
거의
##버지
사항
13
부족
채용
들어가
없애
이건
폭력
장관
아주
변경
주세요
버리
목적
시대
엄청
은행
정당
권력
공공
자격
성폭
준비
실제
영업
평가
규제
접수
판단
통신
최근
게임
의견
자동차
상대
##으나
불구
은데
똑같
법률
노인
유지
해라
청소
가해자
최소
##거리
여러분
내려
능력
위험
14
올려
더욱
자금
추가
어려운
##시다
으나
담배
힘든
보도
정상
개혁
전문
으로서
규정
스럽
##er
프로
행복
인터
방식
건가요
군대
기회
소비
매우
모습
초등
회의
소송
시스
자식
계획
작성
제출
기다
중소기업
##id
절대
도대
복무
시스템
개정
수급
관심
전국
인한
인가요
도대체
수가
아버지
우선
거리
금융
수정
전부
##ews
자영
외국인
기자
박근
주변
아무런
건지
공부
인사
제공
조작
분양
마시
수술
시급
밖에
이전
관한
제한
각종
무시
국방
선택
행사
겁니까
결혼
과거
구조
유치
자영업
과연
는다
도로
##학교
걱정
17
서로
특별
어린이
존재
60
역사
진술
종교
혈세
빨리
토지
강화
원인
선생
조합
전기
려는
자녀
16
아들
com
제외
박근혜
그대로
부산
감독
경쟁
등등
버스
##저히
경찰서
셔서
금지
나와
이름
생명
자활
서류
고등
돌아
시청
희망
진실
형사
만약
바꾸
불편
만든
참여
##소리
로서
지키
##려고
이란
범죄자
살인
부의
키우
고발
살아가
아무리
구요
추진
새로
매일
엄마
고요
살아
가진
여행
인터넷
보고
퇴직
안정
가치
자연
직업
입주
공기
답답
줘야
23
아닙니까
군인
설명
따른
당연히
문의
바뀌
십니까
인하
아도
##동안
지정
신경
으면서
가져
24
2016
검토
지도
집행
위원회
21
그래도
news
조직
작년
조선
독립
만드
국의
이자
천만
공직
국제
이동
고도
검색
아닌가요
제안
올해
요금
자살
사과
조건
출산
단속
부당
원래
주차
을까
##in
신속
##조건
아래
00
더불
담당자
##학생
거부
쓰레
무조건
스스
강남
충분
사업자
고의
낭비
밝혀
기재
위반
스스로
영상
정액
민주주의
쓰레기
찾아
항공
집단
공장
부부
사랑
전세
절차
##어진
는데도
된다는
려면
판매
합의
듯이
유치원
물의
성장
체육
31
대체
허위
##000
혼자
소음
연수
의혹
그때
근데
저지
댓글
##이트
대의
평화
남편
실시
음주
돌려
머리
생기
장기
##운전
대법
일어나
연구
전환
##러운
보건
아요
이사
정확
주인
납부
넘어
위협
관광
스트
사유
신용
역시
항상
공급
고객
조두
전자
##전히
거기
지속
관리자
던지
벌금
확실
보수
올립니다
줄이
징역
발행
조정
보조
적극
기록
문자
요건
노동자
발표
오르
원의
포기
구입
효과
나왔
##가지
청소년
##라도
도입
안타
일어
보험료
명예
심지
광고
국정
대기
수많
와서
지하
부정
##레스
심지어
전체
그동안
나온
경기도
집값
##구요
중앙
협박
##스트
거주
공약
김정
어떠
##ti
보유
외교
사라
취지
성폭행
국당
계산
법인
세력
사진
##으며
청산
따라서
아동
차이
방안
아닐
의심
줄어
상승
생산
합리
그게
민간
변호사
위배
취소
평생
가까
증가
##ea
으시
인력
회장
돌아가
로부터
상당
상담
다르
성실
소유
손해
청구
스트레스
어찌
졸업
의미
지청
사망
실업
##시오
공단
탄핵
사례
검찰청
거짓말
방문
오래
목포
##ww
최소한
인식
입원
최대
##스크
70
www
사장
의회
인천
사이트
괴롭
당한
스포
제기
##사자
22
무기
##십시오
점점
듭니다
인구
축구
가짜
연봉
된다면
부디
공시
라며
민족
부과
정치인
흡연
스포츠
냐고
대비
기존
인원
한마
기대
##on
한마디
불안
는데요
한데
국토
수입
원장
전쟁
공동
https
수소
삼성
수수
양심
였으나
일정
처분
조두순
훈련
공제
영향
만나
선진
어머니
근거
느끼
마지
목숨
아침
의문
단순
예천
고소인
수십
##총리
약속
경력
달라
정규직
빠른
##워서
대신
첨부
동일
참고
촛불
창출
반복
준수
대응
학원
지구
##지만
새로운
고려
방해
분야
에선
명백
##너지
80
바람
법안
부서
비정
반영
인생
##에도
가구
시절
장의
아무것
발언
##려서
아닌가
바꿔
원전
시킨
여론
비정규직
마치
협의
##BS
간곡
건축
통장
읍니다
지시
혐의
##수록
국장
기타
누군
저런
확대
##av
얼굴
중심
##문고
기다리
마지막
김천
나쁜
다며
단지
마저
므로
##으면
2015
회신
반려
편의
예정
궁금
입학
온갖
어린이집
kr
떠나
소비자
간절
국채
요양
실제로
규모
상관
엄청난
갑니다
공유
대법원
28
사의
최종
침해
학대
##50
공인
구미
##자기
매년
현대
##해서
명확
갑자기
여부
기억
주도
26
그저
재정
통과
간의
걸로
이혼
이하
한지
##려야
이상의
나타
심사
허가
혹은
간호사
차원
만족
500
소속
해요
대학교
배우
양육
##요일
주거
알바
죽이
페미
감시
##입니다
노후
고등학교
마찬
수의
통화
알아
희생
공매
##어져
공항
신재
지인
폐기
##TX
마찬가지
면제
불가
직무
통합
활용
남북
수행
아빠
##이지
신체
이거
든지
사정
예전
가게
광역
노조
작업
주십시오
음주운전
간곡히
##aver
아프
진료
행태
법령
원칙
존경
납니다
삭제
특정
##하루
하루하루
010
물가
솔직
수익
이명
취해
300
줄여
고는
역할
병역
보증
무고
지자
내부
연장
위법
공직자
27
세월
언급
##다가
##릅니다
월세
으라
자세
naver
구성
먼지
지원금
구매
제시
방지
주의
고민
봐야
변화
개입
수석
연말
투표
대리
관계자
줄어들
누군가
는다고
출근
통보
퇴근
학년
다녀
실수
자치
라서
##20
경험
해고
당했
세입
실행
의식
공익
마을
발급
문화재
어쩔
주식
항공기
제주
연결
제일
##양이
시점
##듭니다
경찰관
자고
합시다
자본
하늘
화장
등급
만의
텐데
교수
군사
마스크
상식
##라리
##일보
산정
우려
운행
중단
가슴
구청
도의
업의
위치
파일
모아
으려
져야
차라리
공간
노예
순간
파악
휴대
감정
김경
목소리
선고
유기
항의
동생
봐도
성의
수수료
봉사
살려
약자
한국인
건데
논리
누리
분노
공매도
솔직히
아예
공평
다양
달리
사태
오염
태도
똑같이
김정은
보입니다
부가
느냐
불만
올바
유공
상의
식당
실정
주지
호소
##어도
충분히
05
그걸
늘리
아마
제품
사전
서의
정작
확보
##or
29
ㅋㅋ
경영
이젠
입금
##le
분명히
방향
으로부터
우편
입법
등이
못하
성폭력
여서
사법부
신재민
엔진
요원
계시
새벽
생리
동네
장사
적법
내리
면접
##랜드
남녀
##이드
어려움
강요
남용
사퇴
이기
표현
##매매
근본
대우
수단
애국
GTX
공산
교회
나중
단계
##다수
##23
게시판
비서
권한
동시
성과
셔야
의지
최고
##그램
##범죄
는지요
위원장
무서
빠져
신뢰
심하
##이버
선진국
됩니까
따르
면허
모른
증명
평균
나올
대다수
비판
시킬
예비
통일
##리아
##시아
유공자
문제점
저지르
방치
논란
상처
이곳
잖아
화물
선정
이랑
주휴
농단
대형
물건
배상
비롯
으신
##an
지자체
36
자는
네이버
에너지
질문
##집니다
시켜야
관의
성인
성매매
##므로
프로그램
넘어가
52
갈등
늘어나
후보
음식
이의
제재
철저히
통하
할지
수령
출신
현상
훨씬
고서
응급
집안
특검
매출
몰라
반성
비율
철저
는다는
보통
소중
자주
즉시
카풀
니깐
법의
불과
소방
후원
김경수
구하
귀하
끼리
마땅
살리
친절
##12
이용자
이명박
겨울
부끄
종합
통해서
버렸
신분
완전
을지
일단
제정
지불
해제
현금
더라구요
정산
##신문고
##생활
국민신문고
그럴
다만
매매
교체
비례
예상
허용
홈페
홈페이지
90
손실
일까요
투명
눈치
야당
저질
차례
##합니다
그래야
자원
199
입주자
무죄
반환
보안
성범죄
도둑
오토
의한
통지
1000
결론
는다면
어쩌
위기
경유
금리
내놓
허리
훼손
##으니
물질
시도
신규
싸움
할까요
##이터
고위
나머
아기
일방
##11
##아지
지하철
무리
불러
정리
대가
보육
으니까
집중
사무관
세입자
09
그나
뿌리
유정
이행
기부
달의
불량
성공
홍보
사무실
예천군
AA
다름
떨어지
비교
올린
외면
인도
가르
따로
장소
TV
도저히
드러
백만
시위
자가
취급
카카
여당
준다고
깨끗
그나마
식의
의도
인건
자들
적자
활성
2014
나머지
시술
어라
엄중
타당
현행
높이
대전
소상
오후
32
경남
소통
일으
면서도
계약서
발전소
미리
제목
협회
나영
상품
올라가
유정호
동원
소장
연예
인증
중학교
##벌이
고양이
이슈
친일
카페
한심
힘듭니다
광주
눈물
th
##교육
가요
사안
자꾸
직권
##어난
카카오
국은
대처
했었
안타까
걸리
법무
자국
회원
##en
전문가
기능
본다
지휘
##아들
인건비
나서
버린
전달
정해
형편
참으
후손
35
슈퍼
예방
움직
주기
이루어지
가난
실질
양승
저녁
적어도
##ou
잖아요
겨우
정지
법정
부지
여전히
진단
효율
공감
본사
분위
일상
필수
으로써
계층
나아가
두려
생겼
시달
신문
양성
평범
바란
스러운
심의
어제
합격
국방부
감소
김태
명목
수용
이래
##부모
서울시
아님
챙기
최순
하지만
ar
들여
비슷
시켰
취하
특혜
포상
한당
##ec
고속
공격
##iew
냄새
안내
영화
제의
건의
고시
내역
시의
제조
지출
화가
지지율
당사자
대중
박탈
부처
부총리
외부
지적
##바이
경비
장난
아닌지
책임자
양승태
감염
구역
정원
짜리
600
재의
지내
채무
##의자
민원인
간절히
휴대폰
45
대선
로써
매입
알리
이르
창업
혹시
비해
비싼
어르
에요
출소
비행
제보
취득
해소
올바른
감당
계신
고생
미군
분의
속도
아내
전용
오토바이
살펴
##라인
노동부
매장
미성
바이
범위
실망
지침
그건
대화
대안
번의
설계
차단
들어오
어르신
던데
모자
전액
횡포
내일
노무
무능
부르
임기
일반인
당선
매달
##BC
과학
조국
차리
핵심
##마트
어려워
조합원
가까운
가이드
구분
느껴
배려
세워
싸우
장치
미성년
라니
민정
밝히
본의
생존
수백
일제
절대로
##TV
##es
##튜브
하락
혁명
##디어
노출
생겨
입사
화재
국무
지경
##사고
##od
안타깝
검증
결제
도박
실현
집권
계약직
바란다
다운
신호
였으며
진심
초과
촉구
황당
경북
버티
용역
존중
느라
박원
악의
이어
일시
##30
가만
게끔
기획
모집
받아들
보좌
소식
위의
이내
자면
죽음
지사
합법
했으나
##석희
CC
방의
비상
원자
유튜브
휴가
어떻게
운전자
감옥
보훈
신설
##al
광역시
국세
육아
퇴직금
민의
이웃
가스
다리
방학
부자
불리
지식
충격
##복지
강력히
매연
수업
심판
회견
구나
던가
비하
악용
##운데
그린
둘째
메일
부작
안락
자랑
피의자
##화문
##권력
기소
당당
수치
심한
유도
징계
회생
##레이
2013
지난해
직장인
명령
으려고
중간
황교
알아보
연예인
참으로
가리
사형
외치
유리
인공
징병
토론
형태
경찰의
##다니
박원순
당의
등기
십니다
여도
유학
장비
조성
CCTV
간단
세우
승인
추구
형식
금의
숫자
에겐
조기
##10
황교안
괜찮
미안
부여
운용
정비
2000
독재
미루
미친
올림
올랐
친환
불쌍
시공
실패
어른
용기
현지
##ead
나타나
김송
배정
비난
설립
저출
형평
저출산
링크
무료
새해
특성
특수
자격증
부대
통계
퇴사
편하
##소연
##32
부작용
강원
바보
완전히
통제
광화문
완화
울산
교육청
화장실
65
떨어
발견
비자
여의
공원
성추
심정
정하
##경원
나와서
KT
커녕
##여금
##정부
아닌데
나무
유출
체계
퇴원
노무현
굳이
수처
영세
이럴
##주시
##반도
페미니
42
그분
주위
평소
할머니
향후
협상
형제
안락사
과세
압박
오로
임신
자라
질환
회계
공고
나쁘
보복
업계
일관
철도
추천
출입
간호
공권력
나경원
로운
상환
수원
어차
오른
의하
주일
찾아가
핸드
회복
##은이
어차피
그날
마세요
사립
수리
실태
우울
유일
##EC
##이스
##옵니다
그만큼
밝혔
이걸
투입
한두
##십니까
더라고
원자력
게다가
주말
이상한
수사관
성추행
권익
목사
문서
스러
스타
청정
##80
##벨트
대금
바닥
스마트
용산
용의
유명
재벌
정화
출동
협력
##테리아
150
the
경고
기득
담보
인재
정직
제거
즉각
핑계
하의
다는데
용인
이대로
포장
한반도
혁신
##구니
대상자
가운데
그랬
는대
명시
박테리아
엄벌
연기
와의
핸드폰
감액
기분
대변
따지
어떨
##퇴근
htm
바라보
가까이
66
기계
기울
몰랐
무섭
부천
어이
인근
시달리
친환경
공기업
구제
마트
오전
요인
이뤄
들어와
나갈
비밀
자산
##영상
##아먹
통신사
생리대
미성년자
비핵
성적
연령
출퇴근
##소득
##nd
비핵화
강아지
고쳐
공식
길거리
보냈
블랙
순위
시정
코치
02
ㅠㅠ
단위
모릅니다
무너
부풀
비싸
주소
준다는
채권
천안
피부
##지가
##빨리
08
33
미치
임시
혼란
공시지가
34
드렸
상속
식별
아르
종일
촬영
파괴
정말로
해결책
초등학생
대충
동영상
변란
빼앗
사상
수출
실장
앞서
##at
그만두
사라지
최대한
그린벨트
납득
늘려
주요
현역
##훼손
html
근처
논의
당해
올렸
조항
챙겨
출장
학부모
형성
보조금
명예훼손
read
가산
갈수록
거품
과장
돼지
음에도
이중
조재
차지
이렇게
양육비
국무총리
대단
돌봄
태양
확정
지나가
자본주의
KBS
id
심해
연합
제약
태어나
통한
가입자
김태우
오로지
가량
난리
남의
니까요
대답
양산
여름
찬성
택배
정확히
04
37
강조
금전
내지
장려
차관
체의
취직
폐쇄
##트남
##tic
공화
망하
미만
아픈
오직
표시
##구나
영업자
SBS
공문
권의
그랜드
맞추
부리
여유
임명
청약
##hn
친일파
가로
고작
대폭
도덕
벌써
상가
선량
예술
인물
전하
분위기
59
느낌
맞춰
빠지
전원
죄송
감찰
교도
교복
명분
부인
부양
조장
주가
지향
집니다
최초
교통사고
nhn
거지
단독
답니다
억지
이득
##가락
개편
과실
기여
본부
생긴
안보
집회
차선
2012
하루빨리
다를
베트남
왜냐
제작
폐업
##TE
##ed
##연히
##아이
강하
부도
설정
세출
시세
애기
줍니다
첫째
##자리
##조리
보호자
임대료
공산주의
보좌관
국고
국립
나옵니다
뇌물
다수
매번
선동
어처
조용
청탁
판정
조재범
결재
계의
맞벌이
민사
압류
그럼에도
보증금
과태
모의
부장
심리
용서
위안
전두
지연
클럽
해명
더라고요
강한
광장
나의
남기
배치
부적
소인
폭로
##은행
해야지
그곳
망신
배달
세무
임의
절반
추락
단순히
어처구니
km
고지
데리
물어
벗어나
수시
신다면
심석희
원비
입시
할까
훈장
##도로
##바이트
주차장
국세청
800
격차
계좌
골목
군의
물러
소개
질병
쳐먹
초래
상관없이
으라고
아르바이트
전두환
거쳐
바다
부실
부패
상상
수능
##90
##ar
##체류
제주도
cc
구체
더러
빌려
유통
전형
취약
##무리
##져야
불법체류
이미지
과태료
OEC
나아
돌리
될지
먹이
사찰
선출
세비
##et
어이없
OECD
가계
개념
버려
산의
신상
옵니다
이끌
주범
편의점
악화
접근
지능
해체
##여서
사무소
돌아오
43
관행
러시아
적절
제대
좌파
파산
##ch
경찰청
일어난
가만히
가질
고문
긴급
내년
보일
부채
분리
아시
점검
하시
##운동
##조사
경쟁력
살아갈
안타까운
관료
도서
드라
막대
목표
바른
보인
소외
수천
압력
책정
처우
체육계
가상
길이
김현
대회
뭔가
법조
분석
휴일
##il
돌려주
아닐까요
실업자
저질렀
07
SK
단어
데려
소용
시골
으므로
저소득
종료
준다
짜증
하청
##린다
저지른
AP
균형
다행
때리
멀쩡
수립
이어지
저렴
중지
중고
해석
##여행
##져서
##ing
400
롯데
부평
사생활
수고
화력
환수
휴게
##속히
찾아내
기만
기의
길래
보완
분이
소재
채우
이용해
##ticle
강북
관할
기도
떠들
리의
마무리
소년
아라
악질
진상
키워
##70
가의
공포
대사
드릴
모욕
빠르
식사
양극
왜곡
흔들
대학생
##tion
상당히
자국민
노선
도망
될까요
명절
모를
손님
식품
유럽
젊은이
터지
보건복지
확실히
보낸
분열
사원
소지
체제
통증
##it
사업장
99
강사
걸려
걸까요
나누
늘어
달려
리라
벌어지
언어
옛날
재단
저축
하이
합당
##주택
투기꾼
법무부
보건복지부
06
매월
어리
의의
이송
축소
특권
협조
호봉
군요
그거
도착
비대
상호
성명
저렇
종사자
팀장
날짜
남한
바뀐
사료
실력
에다
입대
체포
##퓨터
해외여행
보고서
어떨까
APT
걸쳐
우롱
은폐
인격
저감
전력
전면
항목
해지
회수
책임지
연락처
결코
나간
나눠
농사
벌이
범인
이리
종로
하소연
호텔
횡령
##창호
##버스
##갱이
계기
농민
별로
본질
이때
지났
컴퓨터
흘리
##아버지
##럼프
교육부
흡연자
article
여의도
더더
만행
배출
선임
순환
종결
트럼프
표준
함부
##가족
aid
mod
기각
실적
위로
임원
전한
##려면
올라오
민간인
개체
금연
떨어진
모순
소설
충전
향상
호흡
##18
##정희
##메라
강간
고정
고령
구축
떨어져
실천
여건
주사
직위
할려고
##ain
함부로
oid
갖추
단축
무상
발의
변명
안심
애초
영원
영어
으셨
재건
종사
흉기
##대문
언론사
39
sec
고리
기구
내세
농업
반면
불로
수요
순수
시가
절실
정한
중대
지점
청장
화폐
##og
##십니다
2020
행정부
고소장
가중
도심
동남
면담
빨갱이
운송
위탁
유죄
이민
주무
티비
혐오
환불
##산부
##나라
##말로
##ㅡㅡ
투자자
전기차
후원금
강원도
과도
기한
내사
몇몇
상실
써야
유사
유전
일삼
처방
투쟁
##공단
120
생활비
가정의
낮추
마리
벌어
사면
소액
언니
엄격
조절
환급
흘러
##러스
##이프
가져가
대법원장
응급실
교도소
간부
굉장
대행
도중
도우
만료
무단
총선
하위
회피
##지사
##어리
부끄럽
거절
곳곳
당할
동료
무지
생길
질서
##다운
##40
##행위
190
03
LG
개의
몰아
연동
자행
장학
전략
피하
호의
지켜보
괴롭히
55
끔찍
매도
선발
소위
연맹
유발
임차
##60
독립운동
일어날
mode
감안
고졸
기피
되게
석탄
앞장
욕심
이재
인척
전역
주한
중의
치매
허락
##택시
##바로
정신과
일으키
in
기금
너희
들리
오랜
이라도
점심
조심
질의
철회
항생
##SD
부담금
가동
내수
넘기
망치
매각
물리
민심
상습
시각
온라인
욕설
재난
전반
철수
청문
청의
##is
##tu
##미세
두려워
mid
감싸
거든
교실
박정희
보존
야간
연차
줄일
중개
지국
체험
초미세
프랑
##bs
##류장
우울증
기념
나름
님의
도리
막막
뻔뻔
시끄
업자
옮겨
운운
잠시
점수
진다
파탄
하도
##tv
보호법
일부러
재건축
38
근절
모양
신세
외유
위장
전수
출발
폭탄
##무니
드라마
농협
데이터
무주택
반응
법과
산재
손가락
실비
아십니까
업종
은지
진입
토요일
하고
##하면
112
조합장
더더욱
프랑스
CJ
경매
글로
며칠
분쟁
주로
주주
지옥
진보
채널
체결
측정
케어
특허
##ic
소득세
다면서
ㅋㅋㅋ
굉장히
글로벌
기아
날씨
다치
맡기
사교육
살해
아울
열악
일지
일당
##용차
119
스마트폰
고액
국적
기름
독일
방관
부추
불행
세종
일용
입찰
전직
친화
카메라
##ay
##수증
아이디어
환경부
조선일보
배우자
비서관
##ent
고속도로
태양광
위안부
항생제
sid
강도
검진
그룹
단의
랍니다
수신
신도
원이
임산부
주관
지위
테러
한계
##나다
##진다
##거운
사업주
치료비
화물차
모자라
페미니스트
청정기
남겨
도발
뛰어
미수
방위
사연
인당
정착
증상
터무니
##업자
가끔
나빠
모시
무분
번지
영구
인성
전철
증여
증권
진출
호주
왜냐하면
무분별
48
do
you
거대
과목
다자
단기
미사
바쁘
소의
쇼핑
의뢰
정황
창문
형량
확장
2010
EC
MBC
대국
모임
뭡니까
반납
불기
아픔
영장
이틀
적정
징수
편파
##터리
들어간
감수
규칙
당월
뭔지
아까
원합니다
윤리
적당
전해
조세
주체
중독
파렴
폭언
현직
##쳐서
##폭력
사회주의
인데도
동남아
파렴치
5000
기원
꾸준
노릇
당일
라인
무장
병무
상해
애견
어긋
연체
유투
유아
자율
조카
주행
지의
천억
캐나다
탁상
퇴출
회담
##저기
##13
##아치
##교통
##View
##뜨리
지역구
여기저기
불기소
go
객관
다닐
동기
민국
방사
올릴
응원
잔인
전공
중증
초계
큽니다
걸어
노래
농지
당사
방어
버젓
상공
새끼
설득
소문
수없이
우수
지검
창원
태어난
##25
##프라
##와서
1811
건설사
661
LTE
view
개헌
막말
물품
소수
실무
착취
철거
추적
몰라라
다자녀
LH
ㅇㅇ
간다
군복
꼬박
달러
범법
인과
인프라
입국
자발
조문
초기
최악
##습니다
##머리
고스
끌어
내내
드루
마포
불황
빙상
삭감
식물
양도
영국
예외
위주
주유
즐기
케이
파견
한쪽
2011
인데요
정신병
시켜서
독도
복잡
분당
실명
심신
약한
어마
업소
였을
인들
전통
정기
추정
출석
탈락
특례
횡단
힘드
##해야
##공사
그러므로
인해서
엄청나
무고죄
거든요
극단
미터
배당
어지
예요
외출
이념
일찍
입증
자분
전투
주제
참석
측근
##26
main
대검
몰려
법제
사각
실의
완료
적합
##직자
상대방
군데
급격
급한
꼼수
뒤집
마이
박종
상위
신년
신문고
씁니다
압수
인기
주년
##유예
2009
재판부
지구대
공화국
청문회
넥슨
당첨
로또
마감
보였
서명
소관
시선
식구
영리
요소
우대
우습
위조
육군
재직
정체
조원
진압
확률
지급액
2008
절차법
아닐까
무서운
움직이
아울러
IM
LSD
구형
내면
동참
못한
바꿀
바램
발달
배운
아깝
업주
이순
전이
주권
##체육
관리비
관련자
이루어져
더욱더
고등학생
요금제
방해죄
to
거듭
고치
고장
당국
동아
몰래
미약
산하
살수
선배
옹호
입력
장면
지킬
출연
프리
##지대
##흡연
교육비
지켜야
일어났
cctv
장학금
IMF
46
간접
말라
수년
양아치
여권
와중
정년
추운
##세지
##란히
괴롭힘
비행기
각하
경로
김영
내렸
메시
분류
비록
산다
서해
수차
승진
신혼
양주
역차
조상
종의
체력
폭락
행하
##무소
##무기
##ri
##XX
##페인
이용한
들어갔
라면서
대중교통
미사일
건가
과감
권고
급식
량의
레이
로그
반발
서영
서면
소원
약물
옮기
외의
유착
일까
조회
중계
추첨
치밀
한도
할아버지
어린아이
수준의
요양원
규명
김성
끌려
두렵
마라
맨날
민생
밀어
바탕
분담
붙이
정규
처지
청량
총리
대한체육
아마도
일용직
대한체육회
공소
공천
느낄
상기
성창호
소요
실내
정서
조속히
죄인
지배
청사
파업
편법
피싱
##no
모른다
도서관
역차별
개별
날리
더러운
될까
멈추
무력
성남
세탁
여지
와이프
유포
재발
재활
직전
##직원
##조합
##워야
보험금
증명서
초계기
사각지대
박종철
갈취
감히
되돌
물려
방탄
선의
승용차
써서
역대
영역
영양
예약
유산
일원
전의
전과
접하
크기
피우
학자
##인트
##리트
##보험
##머님
감사원
살아왔
외교부
수시로
가혹
넘쳐
리그
무려
법규
선언
쓸데
약하
연계
이른
장이
조제
하인
##리카
##공정
지도자
달라질
그랜드캐
메시지
가득
내린
놀라
단말
만만
매수
배제
보관
비닐
속이
연관
잡혀
절감
조그
어려울
판결문
상관없
으라는
부가세
저소득층
영원히
청량리
KB
가하
공중
귀족
동부
들이
매국
물류
보전
보단
성희
세수
임용
잠깐
치의
탄압
탈출
표기
현제
확신
##어요
##44
이나마
여성부
시켜라
조용히
임차인
병무청
주유소
서영교
성희롱
54
개판
걸린
구간
김대
나갔
대대
동결
별도
보급
원금
응시
일산
작전
제게
져서
한시
핵무기
확산
##NS
##다리
##개인
##27
##os
1812
보상금
예정일
대리점
으려는
가르치
MB
기가
깁니다
녀의
대강
메세지
실상
으세요
정식
중도
중학생
지장
최선
페이스
피고
현명
##라지
##찰청
근무자
198
youtu
대검찰청
44
똑똑
빠진
사죄
수학
쓰러
오류
이승
인수
증인
지분
출마
한편
헌신
##거나
##너무
라는데
살아온
살펴보
아시안
앞장서
단말기
41
75
83
감면
경상
공연
느꼈
늘려야
더구나
일요일
정수
정호
통행
##소년
##다보
##um
등록금
개통
개개인
견제
교대
기반
내의
발암
산림
아끼
앞두
엉뚱
연간
오죽
입맛
적발
전락
조롱
존의
처해
체크
##여야
##바닥
장애인
인터뷰
버젓이
수차례
고층
공지
군산
다친
대북
덩어리
매체
박물
세습
연료
잠재
진주
태극
텔레
한참
해산
##로운
##ap
다시피
고스란히
김대중
끊임
냐는
단식
돌보
라던
마약
모으
무자
무너지
반도
방과
봐라
부상
빈곤
성격
의대
장병
지수
##op
너무너무
들어온
가산점
63
as
건너
경계
공론
때려
마구
명칭
무릎
문체
변하
쉬운
시운전
실험
유가족
자부
종이
착각
통상
튜버
해양
##어마
그러니까
보이스
인정받
기다려
불량자
보인다
무주택자
어마어마
로그인
632
98
ph
가시
견디
공영
더럽
똑바로
미납
속히
수저
애인
역의
이메
정무
타인
할인
해군
후회
휴직
##보내
##마자
##풀이
##납니다
아프리카
이래서
idx
물러나
이메일
95
각각
건전
경위
과제
모금
미투
봉급
불신
설비
성별
억압
열차
원망
유능
이외
장점
체불
춘천
층간
현황
##라고
##라스
##부인
그랜드캐년
47
JT
OO
and
no
of
강의
만이
무식
비중
술집
승차
의학
이력
일의
자질
접대
줘서
토록
흐름
##대표
##민주
사회생활
110
국제선
올림픽
페이스북
반도체
강압
고향
관하
농산
돈벌이
드린
문건
배신
송파
약간
어째
옥상
유린
유입
준공
카톡
태의
테이
평택
폭등
한가
행의
후배
##연금
대학원
부산시
드러나
제보자
JTBC
간첩
게이트
교묘
금감
맞이
상하
앞뒤
언젠
였음
오해
오픈
월드
일한
전월
제압
중산
지체
필리
한정
허나
헤아
휴식
##om
##회사
성실히
저질러
받아들이
징병제
구의
그치
긍정
녹음
목록
몰라도
못해
무한
물량
불공정
사인
스런
시내
이모
재앙
전주
종류
중인
척결
쳐서
카시
하여금
학업
해준
##한다
##크로
##박스
대통령령
들어갈
번호판
501
소방관
박물관
카시트
623
간주
공모
극심
단돈
당과
독점
드려
모조리
봐서
부와
붙여
사채
선물
신입
아름
연애
영수증
용도
잣대
추방
편성
필기
항소
##ns
##17
##네요
##갑니다
##너스
##웨이
##픕니다
국민연금
이상택
교통부
##ong
폐기물
블랙박스
56
감축
권유
까요
느낀
동등
둘러
무관
묵인
버릴
병사
센타
승객
실거
용어
웃기
이듭
주부
차려
참모
홀로
##구역
##부림
##29
##시간
##45
##내리
2002
집행유예
찾아보
괴롭혔
053
054
증여세
꾸준히
필리핀
ㅎㅎ
관여
농촌
누릴
떳떳
모니
무소
방화
법관
보낼
복합
셋째
식용
아실
엉망
여사
위임
으론
일보
작정
지상
지표
##ac
##버리
##망이
가정폭력
250
으려면
보일러
tv
강탈
계십니다
계류장
공의
공휴
교환
난다
날아
낮춰
마냥
만연
명단
사직
살림
재개
착한
코스
탈세
트럭
편안
##리사
##답니다
아파서
살아남
예비군
51
강구
공짜
다녔
당해서
명심
부러
빈부
세기
소급
송도
심장
쓰이
자마자
주문
집사
통의
해임
했으니
후반
##시고
##99
##들이
사용자
기업인
가족의
입주민
건축물
##orea
365
pr
개방
계급
고사
난민
바쁜
빙자
셧다운
소멸
수상
식민
약사
저리
적립
전파
정시
종목
지법
충돌
편히
할당
훌륭
##커녕
개인택시
불법행위
재산세
감독원
바꿔야
불가피
자세히
으니까요
바이오
억지로
모니터
공휴일
3000
IT
가야
간청
공과
관공
교감
다루
동반
모은
모델
문정부
믿음
부에
분할
생의
순의
시요
악마
어릴
작용
짓거리
차주
청렴
충청
충당
치우
토대
피눈
학과
에게서
신고자
거래소
모아서
가르쳐
제조업
피눈물
700
가벼
거두
고충
교정
노령
다이
다닌
독과
마당
망가
부활
사후
소나
소모
수명
수험
어머님
원내
유승
장군
재생
접촉
증세
증언
출처
타령
##66
##부패
##버님
##be
어야지
180
기다렸
부정부패
구성원
수령자
대국민
idxno
가려
강대
거론
구멍
그림
날라
동구
미용
보살
수집
시일
양주시
여경
온몸
울리
원청
위대
유해
이분
이첩
인플
임무
자극
창조
채워
치과
큰소리
포인트
학비
##문화
##트리
##다나
##동생
##군요
##ㅠㅠ
그렇게
동의서
2523
무서워서
상속세
김현철
php
감기
감형
개성
고기
군청
기독
다소
덕분
도지사
동력
모여
발굴
방조
본성
비웃
스토
앞당
여학생
연대
유독
육성
적도
지가
참전
참조
축제
포털
피땀
해질
##야말로
국민은행
한다며
학교의
안전관
의료비
이루어진
거래세
바람직
태극기
pe
그간
내서
누굴
마디
바르
박응
뺑소
안경
오빠
으리
자제
재수
전시
진학
침체
턱없이
풍선
힘써
##규모
##회전
##0000
더군다나
나아갔
방탄소년
박응상
뺑소니
방탄소년단
SNS
경호
고집
그야말로
극복
담임
동상
목격
미지
박스
법치
복권
선처
소규모
송금
신축
아버님
양의
였으면
영웅
으러
의존
처사
청춘
추후
치명
후진
##리스트
##케팅
##꼬박
202
102
016
시행령
정의당
부추기
방사능
꼬박꼬박
금감원
49
EB
고급
골프
등장
묵살
복귀
부합
빌딩
시원
실효
유흥
육체
이라
정정
제제
죽여
직종
차장
창의
철폐
허덕
흔히
흘려
##겨나
##36
의해서
137
페미니즘
기울이
구급
논밭
농도
늘어난
발상
부착
소견
심합니다
십쇼
어깨
에다가
엘지
평일
한숨
해봐
향해
후의
휴무
##16
##방망이
##프트
기간제
011
사이비
중앙일보
명백히
부끄러
도우미
58
가담
강경
고가
교의
교과
구해
기밀
내주
논쟁
동대문
멀리
배워
변호
성향
송의
신중
신탁
아줌
약관
연루
예의
원가
의구
이주
임종
절박
주머니
출국
취재
캠프
파출
##순환
##19
##ear
양육자
아줌마
LP
ㅡㅡ
간다고
경조사
계정
과잉
광진
길고
단가
마주
변제
복직
수장
승리
안겨
어질
오만
용지
음란
주먹
줘라
짐승
편리
한번
행각
##리어
##보증
##텐츠
##잡이
운동장
바라지
돌아다니
관광객
성범죄자
진단서
두려움
물어야
articleView
파렴치한
길고양이
김포
내야
농장
대마
도구
되풀이
된지
멍청
미혼
변의
부조리
분산
비위
비흡연
살릴
상장
서초
소망
여태
열람
우월
위생
은퇴
입양
전담
정경
주시
중성
채움
천국
키울
태우
항일
##단지
##뉴스
정치가
017
018
국정원
자가용
카카오톡
youtube
의구심
비흡연자
74
개설
계실
구인
나랏
내몰
넘겨
노숙
는구나
다릅니다
대놓
디스크
맡겨
명세
문구
발령
생일
서슴
솜방망이
수면
악순환
안양
예측
오랫
인용
자문
저항
짓밟
타격
판례
편형
해방
##고기
##RE
##토록
##깁니다
교통비
특별법
나타났
줄여야
누리집
350
76
관점
급급
난무
농락
도장
따뜻
막혀
만한
방침
사설
산지
세의
소환
송치
수억
시비
양해
원도
위함
유족
음성
인류
일과
적시
주간
축사
충족
취한
취임
침략
침묵
카플
필터
학력
##무사
##34
019
219
나온다
김정숙
어쩌면
대사관
정신병자
이루어져야
관공서
강대국
67
겠죠
구경
남부
내신
놀이
놔두
누르
누락
담합
대량
데로
만기
먹여
면적
명이
무언
배송
복사
사다리
서구
속상
수법
아퍼
아웃
어울
외노
이날
저기
종시
중견
착용
참가
타이
한태
협정
##사무소
##news
##어야
##무지
##87
##카드
##쟁이
들어야
통신부
올려서
실시간
연구소
마땅히
부끄러운
갑작
거치
구타
권위
내기
동맹
동탄
막히
모바
복용
본능
사학
사단
숨기
실형
야근
역활
영토
을려고
자전
절도
절망
주치
줄줄
줘도
지르
한글
호칭
흐르
##ail
##행정
##칩니다
지금껏
만들어진
행정관
사이버
지나치
힘든데
다행히
시끄럽
수신료
이순신
언젠가
기독교
모바일
각자
곤란
공군
국비
납품
마비
마드
반의
발목
사육
선박
실체
완벽
원고
자존
전산
전상
절약
주실
지진
지대
출생
측면
패스
플라스
한의
했으며
환우
횟수
##사관
##TN
##15
##ir
##환자
##us
##ge
##봐야
신분증
플라스틱
or
sns
가을
가졌
기침
끼치
다섯
동조
따져
반박
복수
북미
분도
분배
소형
아픕니다
앞세
역적
완성
웃음
잡히
장인
조의
조례
첨단
침대
파면
한전
##보호
##어버
##바지
##디오
생활고
중국인
올라와
대법관
유기죄
빠져나
늘어날
방위비
탁상행정
학자금
미지급
오랫동안
YTN
개탄
계열
구직
구로
구할
난방
놀랐
대여
독거
때로
리자
매크로
면은
변질
부품
부딪
빌라
사소
숙박
승소
시중
쓸모
연속
이성
인종
재료
저장
전입
조폭
창피
친척
한강
##관계
##스럽
##OU
아이디
지원사
2004
내려오
작성자
전세금
재정부
무서워
스러워
들어와서
내세우
끊임없이
6000
국군
급하
꼬리
납입
대접
도전
모독
밀려
박사
붕괴
상한
스페인
우두
우린
일선
재미
충실
##em
##킵니다
##닙니다
대출금
출산율
혹시나
이뤄지
신도림
유승준
84
경과
계란
구호
군민
기기
녹지
누워
도배
동해
떠넘
부로
삽니다
어의
엉터리
오니
은가
일체
재고
저하
추위
티켓
틱톡
폐차
##어촌
##번에
근로복지
들어서
생계비
0000
2007
퇴직자
돌려받
연구원
공산당
정해진
도망가
중성화
근로복지공단
ㅜㅜ
가수
간섭
갈수
국익
귀찮
그릇
내성
냐며
녹취
누명
도무지
독감
마져
매물
면책
모범
법대
병들
보편
부문
사가
사명
사냥
송영
수여
수없
수렴
시경
아베
애완
야기
어선
엄연히
외상
월경
위축
의거
일명
임직원
저작
졌으면
주어
진지
참담
체감
초반
칼부림
탄원
택지
학기
할려면
헛소리
현의
효력
##고생
##는데
##살이
##센트
교육감
임대차
올려야
진술서
달라지
다녀야
올바르
성과급
포상금
시공사
떨어졌
블랙리스트
차관보
가벼운
허덕이
CD
가압
고갈
골절
동창
따위
미디어
범행
병실
보행
부위
분경
상인
수습
안일
어기
오리
원수
원활
이탈
자재
쟁의
점차
조서
차역
창구
축내
탄생
태어
합병
해온
허다
홍준
화성
##시효
##ur
##88
##DP
공사비
산업의
언제나
내려가
애국심
연합뉴스
고령화
매국노
으리라
85
is
강점
강수
격리
견인
고모
고교
과다
국외
놓여
대략
도청
두서
마취
막힌
민중
바뀔
벤투
설마
세뇌
심화
야외
연일
왕따
용돈
원에
이단
일치
자진
총기
추세
파열
평창
하수
향한
혈안
획기
##기금
##ol
##피스
##태우
##외과
라고요
그런지
계약금
노동조합
보건소
영향력
429
기득권
호흡기
어긋나
어째서
홍준표
96
강동
곳도
나마
다스
다복
루시
마십시오
백성
봅시다
분신
분통
사표
새롭
수록
악법
여겨
연도
원천
유류
음악
입구
장악
종전
중환자
지은
직의
차명
참사
학점
현저히
##라우
##무원
##조선
##75
##79
##일비
##현실
##게임
##북도
아이돌
들어왔
노동청
노동법
소유자
드러났
범법자
분담금
53
950
mri
가방
걸렸
계단
과기
기르
다닙니다
단절
당직
든다
막상
발주
배경
복구
부친
분식
분립
불의
사시
상징
선도
성립
싸인
아나
양보
유예
이수
재학
접속
줍시다
중립
증진
차기
차감
품질
해진
헬기
호구
##둘러
동물보호
선거법
지지자
임대인
사라졌
1998
부풀려
소용이
신세계
ㅉㅉ
고개
그쪽
난동
냐구요
노총
노약
대도
드림
만난
몰리
불평
브랜드
빈번
빌미
빨간
서부
소신
신다고
야구
양자
역량
요리
유저
유용
입소
전라
중재
태국
헌장
화학
##ER
##발전
##당초
##이나
##un
##oc
##피탈
##간다
단체장
라니요
세무서
하도급
김성태
우두머리
net
계셨
교섭
글자
금강
기조
꾸며
남양
돼서
둔갑
무역
무거운
묵묵
버립니다
병동
부주의
불명
비호
비일비
세제
신랑
쓰여
약대
원본
유인
유의
으실
일주
중순
지극
차등
커피
하급
한미
해택
##금리
##까봐
##무실
##ig
##통일
##거래
어려우
자유민주
나와야
음식점
고위직
대변인
공문서
레이더
무언가
자전거
비일비재
GDP
be
가속
감추
개조
개최
객의
걸러
경각
경악
공범
광복
근저
금품
기차
눌러
대왕
련의
모병
무의
무수
병합
보료
사와
산소
선호
시립
앵무
연의
예고
유효
일수
재배
쟁이
전후
제명
직렬
치열
타워
포스
폭발
해졌
##려는
##셔야
##로드
##28
##ul
##친절
##배상
근무지
올라갈
가져오
비서실
바이러스
자라나
양도세
였음에도
자유민주주의
근저당
XXX
가볍
강국
개소리
근대
금방
만일
만호
몰카
문통
미명
박수
보충
본래
삼촌
상자
생물
액수
위약
전북
좌절
채팅
처먹
철학
청주
최우
코드
터질
혈압
##문학
##상식
##약서
##남도
##베이터
신청인
종교인
찾아와
몰라서
MBN
식민지
모니터링
an
개미
결단
관이
구두
누나
당부
데이트
동성
먹거리
무인
무방
부를
빨아먹
상업
서서
손석희
아가
아우
와야
작가
작동
중복
칭찬
표의
피곤
학습
허술
혼인
환영
힘내
##14
##천지
##물며
##린다고
##권자
##af
##근무
##MA
관리법
보호사
운영비
기본급
기다려야
가치관
상당수
다름없
아닌지요
채무자
받아들여
##atch
부적절
부적합
독립운동가
프리미
극심한
지극히
앵무새
69
간병
간다면
거슬
고맙
국공
귀가
남이
내보내
높여
놓치
당원
당진
도급
매주
무사
무게
박소연
분기
비의
상권
수위
스티
아쉬
어떡
원리
원치
이만
인민
적응
종종
체류
추측
탐욕
페지
하물며
환기
##그릇
##셔서
##병대
##방위
##증명
민원실
계약자
한다는데
방송국
재판소
특별히
찾아오
대가리
박탈감
설계사
가상현실
균형발전
적당히
조그만
임종석
떠넘기
강점기
거친
걸릴
고마
그램
김용
깊이
꺼리
나전
나아지
노태우
농어촌
눈감
다던
듯한
디스
멈춰
문정
밀리
복원
봐요
분실
비로
빠짐
사비
세운
세부
수지
신기
신흥
아저
아껴
양천
에어
엘리
염려
유엔
응대
이바지
인턴
일회
장례
재해
재심
전가
전명
절벽
점유
중부
지목
차익
촉진
풀숲
플레이
형법
혹여
환산
##NG
##im
##낍니다
복지부
아무렇
기업체
한다면서
시청자
손해배상
인구수
알아주
수백만
주무관
중개사
피고인
이승만
원내대표
대마도
빠져나가
CDMA
모병제
국공립
아저씨
77
kt
watch
가옥
강행
건립
결탁
급행
대주
도주
떠오
빼지
사익
상급
석방
소집
심히
연방
열정
예민
재능
전제
주자
죽인
지우
천주
튼튼
틀리
파란
편지
펼쳐
포용
행보
##Id
##균등
##냅니다
어느덧
방송사
오늘날
내려야
내려놓
담배꽁
기회균등
170
001
여서는
1999
생겨나
##tions
##ㅡㅡㅡㅡ
유전자
이재명
터무니없
쓸데없
월드컵
가압류
경각심
위약금
서서히
57
건국
경성
공통
괴로
국력
군부
군수
기쁨
꺼내
낙인
느낍니다
동작
동호
몰수
미팅
바닷
방통
배웠
백수
변기
봉사자
비방
뻔한
사지
상세
설의
성형
소사
소각
수두
시티
악랄
악덕
와도
우체
유급
이윤
인대
지쳐
직급
차상
처한
총장
추태
충남
충북
취록
치부
펼치
프레
필자
합산
해의
흡수
##지역
##ly
##log
##두리
##제이
##하나
##빠진
##돼지
에서부터
아이템
보호구역
올라온
진정서
더욱이
160
여행사
당당히
전과자
MR
NA
○○
가깝
계장
기지
기견
기강
나날
널리
메디
미칠
밥그릇
비참
뻔히
사대
상임
생태
소화
소녀
순서
순진
시킵니다
심야
어두
오가
요약
위상
유물
유행
일개
적산
전남
좌석
주어지
진흥
집의
책상
천지
치안
침투
터전
파주
팔리
팔아먹
포항
피시
한꺼
한게임
혈액
활의
##영향
##연대
##오스
##두르
##계약서
##ve
##반기
##bc
##든지
##허가
한다니
내용증명
하나하나
근로계약서
대표자
20190
줄어든
누군가의
절실히
마이너스
공소시효
자부심
헤아려
앞당겨
명세서
프리미엄
전명규
한꺼번에
IC
결의
관해
구토
권장
깜짝
낙하
다툼
대졸
라구요
만세
맙시다
바치
벌어진
베이
분과
불친절
붙잡
싸이
아시아
연재
오피스
원서
원주
원룸
잃어버
입자
재인
저러
저해
전동
정답
직후
처장
총회
축하
침수
플러스
하신
현혹
형벌
황사
황제
흔적
##저리
##산업
##법인
##이팅
##39
##레인
##77
##밀히
하나님
올라왔
참여연대
으면서도
상담원
불안감
구청장
##ank
중고차
벌어졌
어지럽
동아일보
공과금
엘리베이터
가사
가관
가뜩
강성
개시
견의
괜히
교원
국산
균등
금고
급증
기증
나쁨
내국
는커녕
독제
뒤늦
렀습니다
리스트
메달
멤버
배기
불쾌
비도
빼먹
사모
상생
생사
생업
석유
수감
슬픔
신약
실에
연습
온통
우연히
운수
응답
이치
이낙
이딴
작품
잠수
장착
전전
출판
편철
하로
한단
합동
해운
헌데
현안
힘쓰
##래도
##로그
##oo
##48
##수색
##칠기
##평가
2006
2005
알려졌
고용주
은데요
돌아갈
조선족
고의로
이사장
중앙선
소용없
압수수색
공론화
변호인
파출소
##보증기금
일주일
천주교
수두룩
가뜩이나
이낙연
4000
KTX
sk
간신
간판
거동
걸음
구석
나뉘
노리
노고
돼야
딸아이
레기
리콜
마사
만듭니다
맞서
메뉴
몇일
무척
민폐
번거
부근
부검
사리사
상사
상시
생깁니다
악영향
업장
영등
예금
용품
용납
유익
의장
자립
전임
죽일
창고
취미
탈당
탈퇴
호기
회비
후유
##어가
##어머니
##드리
##hin
##UB
##둥이
20180
관리사
더라면
2003
의료진
유지비
다녀오
애국가
상품권
##oday
합법화
##보험공단
중환자실
나전칠기
영등포
900
PC
YOU
kbs
korea
개국
계절
과속
교차
교류
규약
논하
달성
당황
대만
대수
대에
료의
무효
미달
발송
밤낮
번복
부재
부스
상향
상여금
소극
수임
수호
수색
실직
안건
애당초
억제
우승
월요일
위태
잊혀
적혀
징벌
체납
출시
타운
타국
토의
페이
품의
플랫
한자
한나라
흥원
##가스
##즈음
##루엔
##처리
지원자
이해관계
건강보험공단
1500
시설물
기술자
가져야
체육관
삼성전
대리인
경비원
수천만
소설가
인플루엔
자존심
일회용
사리사욕
한나라당
인플루엔자
blog
sbs
xx
각의
개돼지
겨자
공작
과천
관악
관념
금일
급기
기적
내게
달린
도살
드립
들으면
디지
마케팅
머무
무마
바꾼
방파
본격
비단
서대문
성기
순찰
여인
온다
우윤
은평
이태
일괄
자위
전년
전망
점포
조명
주입
짜르
차입
치가
탄소
편집
폐의
표창
합쳐
해져
화면
힘겹
##리드
##라이
##지스
##th
위해선
주택가
사기업
2312
군사력
통지서
장려금
테이저
충청도
LPG
금강산
우체국
피시방
낙하산
우윤근
Wh
강자
갖춰
갱신
경미
고인
괴물
기성
깨닫
남발
내릴
도민
드론
모녀
모여서
부유
블로그
사로
사령
성동
세여
손상
쌓이
아세
악행
업적
오락
용이
우주
윤용
이경
인테
일전
일환
자도
자손
잡지
장과
전대
조중
주류
줄인
증원
지킨
진동
진다고
차용
첩보
커서
큰일
키오스
터져
한인
한화
허무
회식
##총장
##화원
##니어
##ter
##처분
합니다만
들어올
노동력
다니요
관계없이
권력자
##ident
수급비
건지요
신속히
벌금형
협의회
현행법
채권자
라던지
접대부
아름다운
합병증
거슬리
인테리어
KR
고유
관대
김해
내라
대동
동승
동북
립니
마인
만을
맡길
면죄
배포
변론
부조
부녀
살피
수갑
숙련
쌓여
았었
애매
약국
염증
외곽
요즈음
욕먹
위헌
잘라
전신
즐거
증서
쪼개
착하
치루
타임
페이지
폐암
항문
확충
##사업
##기능
##67
##화점
##불리
##메달
##년생
##강우
##높이
대해선
어려워서
연락도
게시물
등록증
사라진
명확히
줄여서
화장품
이기주의
인공강우
법조인
이른바
사직서
후진국
노약자
##afe
방파제
GM
가를
감금
감각
거꾸
거액
견적
공채
공표
관람
국어
국유
근간
금요일
김동
남불
노회
늘려서
대장
대지
도데
들려
막론
모색
발사
발휘
방산
벤처
변동
불우
빗물
뻔하
생과
서둘러
시진
심문
안위
엄연
에스
여동생
영위
요새
유동
이론
익명
인명
인맥
임야
잔치
장담
전염
제지
준다면
줄기
증대
지탄
직계
징집
착공
채택
채점
척추
충성
통학
트위
패널
한파
한가요
해본
회전
##지않
##ss
##이션
한다던
한국일보
서울역
지나친
밝혀야
명예직
애국자
불러서
정해져
움직임
사교육비
드려요
날아오
peti
최우선
오피스텔
조중동
거꾸로
도데체
시진핑
88
cafe
간격
갑니까
결산
계양
기숙
김원
나약
낙태
남여
는군요
다네요
도용
동포
디자
땅값
반인
배움
불거
산불
생색
설사
성숙
속한
수탈
슬픈
시한
시즌
실세
써도
양쪽
우기
유감
재조사
점주
정몽
조리
좌회전
주어진
중시
차후
천문학
측은
침입
퇴임
파손
퍼센트
해킹
호가
##자치
##고래
##구장
##구석
##아내
##38
##우스
##란드
##폭탄
나온다고
사라질
줄어드
모른다고
기부금
생겨서
비상식
연합회
소년법
어리석
어울리
동성애
후유증
##UBE
삼성전자
마인드
트위터
89
각성
거니
건조
걸림
결심
고선
공조
구도
구비
군림
금메달
내정
냐면
놈의
려니
말의
무대
밀집
버텨
비와
사역
사납
성금
소홀
알지
양식
언행
우방
원분
으십니다
의자
의정부
이권
이슬
입안
잔금
재무
전술
중령
지독
체자
쳐다보
초청
충견
친정
커뮤
테크
테스트
퇴거
파트
편입
풍차
한적
허구
혜원
##고리
##러지
##막이
##ation
##re
##붙이
##힙니다
된다며
사업비
서울대
책임감
다가오
은데도
살인자
자연히
가져다
합의금
공동체
일으킨
강원랜드
떨어질
스러웠
부풀려서
내세워
집사람
송영훈
커뮤니
64
PD
가칭
가축
간통
간다는
결여
공해
누설
독촉
동사무소
등과
디젤
마석
망우
무궁
미흡
박세
배터리
병의
산출
산천
성도
수만
순경
스케
신성
아쉽
안산
애니
애정
애쓰
약정
약의
약값
연소
영주
영혼
읍니까
의정
인위
자르
장래
저놈
전방
접했
정차
제로
지리
지갑
쫒겨나
천연
체전
코인
파기
파워
편향
하려
해치
화목
휘발
휘두르
##AM
##다른
##운서
##경기
##OC
##긴다
##뜨려
##느리
아무튼
산업단지
개정안
우선시
고발자
사망자
스포츠조선
도둑놈
들여서
신호등
기울여
부도덕
몰아주
시내버스
아나운서
기숙사
62
93
97
경보
고로
고금리
과자
귀한
그녀
노원
농아
눈높이
돌파
든가
라디오
먼가
방면
부득
사할
산모
셔도
속출
속아
손자
손흥
쏟아
아웅
안중
어쨌
엘리트
연명
열린
영아
영부인
옆집
욕구
원만
이어져
일가
중반
지기
지으
지날
천의
추행
축적
코리아
통영
편한
평양
휘둘
##TA
##문서
##68
##조서
##ut
##우치
##OD
##단체
##혀서
한국사
사용료
아무래도
사업소
기관지
부탁드
올라서
기술력
진술조서
판매자
만족도
희생양
부풀리
왜냐면
소나무
구급차
아우성
아세안
사할린
손흥민
7000
8000
for
가맹
건만
걸맞
검정
결함
경향
관해서
교장
구글
구별
국론
군함
극소
극히
기심
까다
넘치
놀이터
다물
대인
대원
되찾
라구
리더
만남
말살
망언
명문
모이
몰아가
발찌
보금
보류
사자
서요
선행
속여
숙소
스위
스카
승계
시시
식이
신한
억대
여대
요지
워낙
위선
위증
유료
은닉
일대
입지
저번
적의
전무
정류장
조현
지문
지랄
지혜
착수
천사
추악
충원
카타
캐피탈
탑승
태반
특감
함정
허탈
허울
홍대
흉악
##성이
##재단
##고사
##어들
##ae
##제한
으니깐
알려져
보여집니다
로서의
수십만
방지법
입법부
가이드라인
고쳐야
통행료
독과점
petitions
보금자리
가처분
걸려서
경주
공적
그제
근육
꼬라지
는가요
독식
마친
메르
모친
몰락
바쳐
배임
벌기
부세
셀프
소명
숨쉬
여직
역삼
연탄
왕복
외주
원한
이산
이놈
장년
전적
존엄
중형
초년생
추징
출고
치아
케이스
피할
##eb
##다란
##데이
##어질
##today
##답시고
##팡이
130
금지법
아동학
##esident
간단히
신년사
경상도
보행자
무수히
NAV
걸림돌
커뮤니티
82
가증
갔다
격의
경질
골라
공업
구현
기망
깡패
꾸리
남지
노역
농가
눈앞
단다
대포
따름
떠올
로비
만지
만주
묻혀
박지
버튼
벌점
보태
불려
서기
선별
소름
수혜
시그
아랫
알선
알렸
야생
양반
연세
왼쪽
운반
위급
유관
유형
응징
의인
입히
장만
주파
중량
증빙
지어
진다면
추억
출범
치킨
치솟
킬로
통운
파헤
하향
한창
할수록
항암
협약
호평
##지르
##IA
##el
##ex
##24
##oon
##브리드
##줘야
##검사
##닉스
지방분
신청서
140
전기세
돌아왔
밝혀졌
사라져야
목포시
엄중히
감염병
이어질
##레이크
독재자
출입국
가산세
375
하이브리드
1901
걸어서
실무자
경로당
asp
해준다
##earch
음란물
쓸모없
##는데도
포스코
담배꽁초
급기야
디지털
사납금
450
430
Th
거라
건도
공로
구상
구름
귀국
내요
대여금
동서
뒷전
드신
드디어
라돈
라지만
렌트
막내
머물
명품
모진
배고
배울
백화점
별거
별내
본다면
불렀
빠졌
사도
사병
사방
사주
사범
슬프
양이
역행
예시
예수
온상
유총
음모
이정부
인신
인감
자회사
장로
조만
준의
중동
지치
진도
집어
집무실
처의
총괄
치르
치마
커다란
파의
한들
했는데도
호법
화의
##노총
##이너
##age
##용지
한국식
사업체
기관장
195
올라갔
신용보증기금
상담소
소유주
제정신
이래도
느껴집니다
수리비
공산주의자
옮겨라
끌려가
조그마
농산물
해봐라
갑작스
줄줄이
남양주
이경용
면죄부
휘발유
부득이
카타르
GS
가두
구시
국기
그대
기운
김재
김명
꾸려
농구
누적
대물
던져
도축
딜러
뚜렷
막강
만날
무형
미미
반말
보라
복리
봉투
불합
색출
생성
선포
성능
성교육
소가
신념
암울
외래
외쳐
울분
워킹
원대
유력
의약
이지만
잔업
전날
정밀
제때
진로
징용
차마
친족
터진
포르
호도
화해
활보
희귀
##성장
##TUBE
##시마
##tr
##더니
##OP
해서라도
모르쇠
사기죄
이야말로
지난달
알려진
등록세
국방력
장기간
거주지
바꿔서
시킨다
빠져야
소방서
취득세
##ate
대단히
파산관
전투기
스토킹
XXXX
프레임
YOUTUBE
교차로
머무르
Why
KRD
디자인
숨쉬기
NAVER
md
간소
갖은
갖춘
견이
공용
관찰
그네
금수
꿈꾸
내외
대항
돌고래
동행
되질
등재
등본
랜드
루머
망쳐
며느리
무참
무급
미련
발버
벨트
북구
분하
비워
비해서
빠듯
살려야
생생
서희
순기능
신선
씌우
씨티
알림
어렸
역겹
열리
영사
외제
운명
유영
유적
윤창
이벤
인금
인허가
자비
적성
좌지
주둔
지니
직면
축협
카테
콘크
콘텐츠
탕감
투성이
펑펑
편견
플랜
학살
할꺼
행해
형의
호수
화상
화이팅
활발
##소송
##저것
##64
##재판
##ep
##원회
##am
##먹이
##미터
##반대
##집행
##티브
아야지
대구시
학생과
이것저것
강력범
운동권
영업용
돌아보
살아오
달라진
드러난
법무사
등기부
SKT
분당선
김영삼
빠짐없이
발버둥
이벤트
콘크리트
81
da
kg
li
wh
감성
겁나
공세
공탁
근접
기미
나섰
녹화
단호
대권
대립
등지
등교
마십
만났
말아먹
문턱
미개
발부
별개
본보
부각
비극
빌리
뿐이
살만
살짝
상모
선충
성북
세율
소독
소프트
수영
신지
썩어
안다
약탈
어촌
역서
연평
열받
유혹
이관
일면
잔재
장역
정문
져도
주방
찢어지
초범
총수
캠페인
크레인
틀린
평내
품목
해상
헬로
현관
홍만
##TTE
##57
##운용
##가리
##안전
##포르
##봐도
##릅니까
1200
10000
증거인
도시락
아주머니
거주자
희생자
다녀온
이기흥
안타까워
무너뜨리
어처구니없
무지한
급격히
중도금
참모총장
교과서
나랏돈
무방비
daum
홍만표
78
87
GP
XX
가래
각오
결사
과언
관세
국경
김일
날려
노사
논문
데이
도모
도봉
돈의
로스
마진
마침
말기
민감
바래
바가
반찬
발병
방영
배의
배불리
법상
병력
부수
불통
불충
불륜
살길
서버
선조
수조
수주
수거
수긍
숨겨
시사
신다
신발
신차
심심
앞둔
여파
오지
온전히
외환
이토록
자궁
잠실
전인
점대
직이
질질
첫날
쳐도
출제
치유
침몰
태평
퇴진
패소
포의
항고
화합
##서트
##지능
##겨운
##ef
##통제
##hap
생각나
감사관
따라가
사기꾼
임금제
174
체육회
연수원
셔야죠
일으켜
김태환
인공지능
자산운용
무너져
맞춰서
과감히
경상북도
president
노숙인
주치의
탄원서
##ook
간신히
이태원
부녀회
스위스
메르스
032
KA
SOC
fac
pc
가액
간혹
감방
개천
걸립니다
경선
계승
곧바로
그지
급히
급속
까진
낚시
남겼
늦춰
단합
담긴
던가요
덧붙
맛있
맞춤
모름
무임
미비
미숙
민노총
바지
박배
배부
버려야
벗어
보냅니다
볼일
부하
붙임
비추
빼돌
사사
사행
상부
생략
서양
성역
속임
실려
실로
싱가
싹쓸
에도
엔지
염원
오줌
을시
자나
자란
재래
재기
저거
적화
전복
점거
조력
조속
조약
존속
지워
직결
진주시
짐작
탕진
터널
터키
표정
표명
푸른
풍력
함의
해집니다
홀어머니
##영표
##NA
##개발
##니아
##노동
##일이
##랑이
##멘트
##젝트
투기지역
프로젝트
도로공사
넘어갔
사라져
한데도
수의사
움직일
are
하위직
도리어
아까운
이순자
이력서
그치만
재수사
애완견
묵묵히
김원봉
산천어
어쨌든
부탁드립니다
주파수
카테고리
썩어빠진
불충분
박배훈
싱가포르
싹쓸이
가공
간과
거세
고양
과일
광부
그토록
금치
금할
기흥
긴장
끊이
나설
내각
내어
다매
담사
담겨
두산
들립니다
려다
마의
막지
막무
면의
면역
몰상식
물으니
뭔가요
미뤄
바랄
벗어난
베네
부사관
불어
브레이크
산부인
쉬쉬
스모
시동
신생
야지
어업
연고
연설
오릅니다
용사
원상
원은
이면
이체
이륜
잠자
정성
정은
조달
중공
즐겁
지주
지게
지냈
직진
질책
짤리
천천
초선
추종
키로
트라우
특화
파이
판의
폐가
푼돈
하지
하원
해피
헤어지
호전
후쿠
##영수증
##러워
##구리
##가내
##조무사
##ow
##더미
##phin
##철도
##위원회
##UM
##책감
##SA
##특권
##덩이
##충돌
회사원
자유당
공정성
취업자
재판장
강제집행
올려도
소송비
밝혀진
찾아갔
관광지
법인세
220
냐고요
감정평가
그걸로
현금영수증
받아들일
간호조무사
수원시
데려가
어리버리
떨어져서
LGU
몰아내
증권사
호주머니
어긋난
쓰러져
2022
면책특권
전라남도
김용균
연방제
일면식
막무가내
산부인과
천천히
트라우마
EBS
MH
im
sh
search
갈라
거제
교훈
구독
규탄
금천
급자
기무사
내밀
넉넉
넷째
노년
노골
뉘우치
느니
돌봐
드물
득의
들으
등도
딱히
떠난
로울
마곡
멋대로
명명
몰이
묘지
문란
바늘
밥값
배차
번식
별다른
사들
산책
상주
소기업
속의
수증
수량
수탁
숨통
시인
실종
악취
애라
연휴
온다고
용시
원초
유시
유은
임하
자니
재차
점령
제사
졸라
종업
줍니까
즐길
직책
착오
창설
침범
카지
컨텐츠
토끼
투여
포탈
폭리
해병대
향하
혐한
화나
황금
👊🏼
🖕🏻
##소싱
##자원
##희정
##ey
##니언
##병원
##100
##아나
##94
##경북
##ce
의무자
1980
나와도
돌아온
쓰레기통
찾아볼
312
인원수
##onhap
최종구
재정법
법무법인
수용자
##ect
이어졌
하이닉스
뛰어놀
노래방
넘쳐나
골프장
아웃소싱
스티커
극소수
불합격
카지노
94
AD
NL
vs
각서
간사
간질
간염
갇혀
감내
개고기
게이
경관
골든
공금
관청
교활
구직자
굴뚝
그루
근정
끝내
나열
난치
날조
납치
대외
동거
등산
뜯어
려던
례의
리모
머니
멕시
면밀히
멸시
무늬
미쳐
발자
밤새
벌리
법칙
병신
본론
부업
부제
북부
불매
비트
빌붙
사본
산다는
상용
석면
소생
손잡
솔선
수산
실용
씌워
어긴
오진
외모
유니
윤창호
이겨
인양
인접
일일이
임상
입점
적금
전선
전학
정면
정쟁
좌우
죄질
주정
증조
지껄
진작
질수
집계
청각
초중
초본
초월
축의
커질
크리
타협
태만
터졌
테니
토막
포괄
풀리
품위
한답시고
할려는
현수
홍영표
##사람
##56
##59
##아리
##yp
##봉사
##패치
##느니
아니면
이상인
대구경북
확인서
어떤지
살아나
공시가
##and
TVN
합격자
연기금
흔들리
흘러가
doc
케이블
간접흡연
세탁기
정수기
무자비
테이블
교묘히
코스닥
##문화재
유흥업
사명감
디스패치
동북아
전염병
조만간
로스쿨
속임수
엔지니어
73
750
CRE
on
가라
간담
개업
건들
고무
공헌
공존
권영
극대
급등
기상
김부
껍니다
나기
내버
냉각
놀리
다거나
다릅니까
단연
달래
더냐
뒷자리
떠안
라곤
로움
망친
명함
모씨
못했
무전
무얼
밀린
바에
바꿨
박영
방금
백년
부익
분단
불순
불교
불경기
브로
사위
상쇄
선관
습관
승부
식량
신장
신데
실사
아의
안의
앞잡이
야채
야동
약점
업과
오버
유권자
인출
인쇄
잊어
자칫
자백
자퇴
장식
저것
접종
제곱
젠더
종용
주목
죽였
증축
진급
진다는
차트
차액
창녀
채소
처단
척하
천재
태권
트램
특징
패배
포천
표가
하우스
한해서
한답니다
행세
활력
##AO
##ID
##ng
##훈장
##31
##74
##승차
##수엘
##미화원
##호식
##퇴직
##떨어진
사업가
병원균
하루속히
일본군
어려서
환경미화원
교통안전
내려와
돌아올
보유자
수십억
주식회사
텐데요
소방차
장난치
세워야
초과근무
수치심
빼앗기
##ill
정한다
애견인
되돌려
물려받
올라와도
원주민
해운대
GMO
이슬람
무궁화
스카이
mdtoday
베네수엘
후쿠시마
현수막
베네수엘라
61
68
EA
ch
ex
it
강서
개무
검거
계십니까
공교육
광명
궁리
근원
다쳐
다구요
단점
단시간
대치
대입
도피
동정
라이
만화
말리
메이
면회
미술
민법
배후
범의
범하
보임
부사
사칭
색깔
서장
선한
설날
세액
숙제
스펙
시군
식비
신천지
알릴
여수
연초
예체
외과
원할
일거리
작자
장교
재결
접할
정형
제자리
조취
죄책감
주고
지낸
진리
찬양
천장
크로
타지
통째
투어
틀림
필지
학급
한탄
한없이
합계
현시
혜의
훈령
##연료
##부지
##ip
##시장
##주소
##바른
##ver
##대계
##타기
##회의
##네시아
##DA
청원서
경찰차
사회봉사
상황도
이해찬
이해충돌
보이콧
사무직
보여준
내려서
신경외과
항공사
계산서
괴롭힌
경력자
할지라도
올린다고
인도네시아
현행범
할까봐
벌어질
호의호식
특례법
비닐봉
소환제
하급심
생물학
떠오르
군부대
즐거움
정몽규
간통죄
무형문화재
김일성
종업원
발자국
백년대계
예체능
320
AI
DNA
갑시다
개요
걸까
고영
공백
과시
구와
국격
권역
기어
기력
꺼려
께선
낙후
남아
늙은이
달치
답글
당초
도울
독서
뒷돈
랍시고
마루
말소
말투
명회
목줄
무법
묶여
바우
바퀴
발판
밥통
별의
병비
병명
보너스
불감
비제이
선전
선이
소변
수와
스크
스웨
신조
실지
안희정
약화
약해
어딜
얼른
엄두
에이
여군
예우
온다는
왠만
우산
유연
유가
은의
의제
이스
익숙
일각
자괴
정적
조울
종파
주적
주길
지부
지겹
직시
진통제
차나
처참
초대
촌의
추신
취할
커넥
콘서트
쾌적
탈탈
통치
틀어
파리
편이
피로
하찮
학연
학창
한진
한때
해진다
했어요
현충
후대
##리오
##라기
##장난
##겨서
##다지
##가운
##워크
##우지
##종원
##취업
##망정
##잘못
##페이
##협회
2030
경제력
행정소송
그래요
범죄인
책임져
지난번
어려운데
과거사
특별시
1600
감독관
가까워
훈련소
주거지
문화재청
느냐고
경영진
360
비례대표
안내문
오른쪽
스러울
나눠서
종로구
단기간
빈곤층
##ㅠㅠㅠㅠ
이라크
앞세워
개탄스럽
이뤄지지
과기부
동호회
좌지우지
무임승차
벗어날
멕시코
주정차
김부겸
자괴감
조울증
비례대표제
News
sp
song
soc
각지
강릉
거미
건수
경감
공분
공학
공대
관절
교직원
난이
남학생
낱낱
내뱉
넘버
네트
노벨
높일
다구
다지만
덤프트
도래
도가
됍니다
떠났
라뇨
라네요
라든지
만성
매진
모래
문책
미끼
민방위
박준
박살
밝힌
백종원
버틸
변국
부려
부른
부역
부속
불복
사적
서원
석의
속인
속해
수료
수질
수첩
숙직
슬로
시범
신변
실탄
실직자
쌍방
암묵
앞이
앞날
여럿
왠지
위계
이마트
인문
인은
일탈
작태
전개
절규
종편
죄다
주저
중위
지름
지울
진열
집요
쫓겨나
착복
추석
키운
통령
팍팍
폄하
평택시
폐렴
한류
해선
핵연료
현정
현주소
##서야
##69
##58
##관리
##선미
##금고
##산시
##러리
##이다
##시기
##방식
##으므로
##게요
##교사
다고요
시간대
병원장
사고방식
사기극
수술비
가진다
강남구
시킨다는
진료비
마을금고
드러내
제조사
부르짖
##est
늘어놓
쓰러지
7626
태어났
잃어버린
본보기
스모그
간담회
현시점
스웨덴
커넥션
덤프트럭
79
DA
On
UN
jo
med
rank
se
st
가점
가령
간략
건대
계류
고분
공판
과반
관은
구만
귀중
까페
깨달
난다고
납세
농성
단과
답안
대성
독려
두드
들먹이
뜨거운
레오
마누
막장
모함
무례
무겁
바깥
반문
반값
백두
벌인
법리
법위
병행
부진
불철
불입
설문
섭리
속지
수비
수개
스튜
슴니다
승합
시신
시멘트
실어
싸울
아랑
애묘
약식
온도
온다면
우파
우스
울화
워크
월등
위성
유선
유령
육의
은커녕
이식
이별
인체
입각
입이
자정
잡아
재범
재외
재검
재처리
저공
적패
전관
절단
정세
제고
조종
죄악
증과
지망
짊어지
쫒아
충동
캐슬
태아
투데이
특이
풀려
필히
확립
활개
훗날
##기수
##No
##고속
##러니
##주야
##린다는
##ot
##익빈
##께요
##BM
아이러니
인지요
들어도
일부분
공정위
건설업
그만둔
국방비
생명체
돌아와
설명도
지도층
넘어간
나타난
##ort
1996
1990
장난감
떨어뜨리
물어뜯
늘어났
달려가
이재용
영양사
차려라
보살펴
해봐도
강경화
미혼모
재배치
양천구
MRI
그제서야
태평양
부익부
신조어
네트워크
불철주야
아랑곳
ut
가할
갈아
감동
개그
거늘
거둬
건당
건드리
격려
경의
고법
공갈
공방
과중
과대
관장
굴레
극우
근래
금이
김구
나르
난폭
뉴욕
다기
다투
대차
따를
떠날
리조
리베
망할
머슴
면세
몰두
무용지
물타기
미쳤
바빠
반역
방울
블록
빈익빈
뿌려
사드
산다고
새만
서도
선심
세법
셔요
손바닥
습니
시흥
암사
애비
완공
외식
유무
융자
음료
장시간
저절
전했
정중
조언
준하
즐겨
증시
지낼
진의
추워
축산
태워
퍼지
폐해
품고
하반기
한울
해법
행안
휴양
##인권
##치소
##치기
##그리
##lphin
##불성
##방관
##33
##ad
##레이드
##78
##49
##대식
##현동
##꾸라지
##종일
##쳐야
##박질
##플레이
##친다
##패스
##따위
##벼락
해야죠
국가인권
경제성장
연금법
2001
치료제
알려준
자동차세
계획서
전기료
만든다고
살아날
검색어
항공대
310
넘어갈
징역형
중앙지
인천시
수수방관
시킨다고
부지기수
출장비
흔들려
##ical
dolphin
당첨자
밀어붙이
이승우
법치주의
안일한
소각장
내국인
주입식
반인륜
생색내
박지원
내버려
DAUM
리조트
리베이트
무용지물
새만금
VS
ind
tr
갈비
개소
객실
거스
게나
견딜
경수
고대
고단
과하
교권
구리
구정
국위
군가
군무원
금호
기고
김기
꼼짝
나리
난임
남짓
냅두
노라
녹색
농축
눈먼
단행
도달
동백
동문서
두들
뒤쳐
뒷조사
들통
딱지
라기
렵니까
령자
리스
매핑
몽골
무산
미해
발뺌
배심
베스트
부회
부류
불능
비속
빚쟁이
사격
상고
생전
서럽
성년
세가
소진
손주
손쉽
스테
시국
시력
시체
시댁
실습
싸이트
없앤
여전
여력
여객
웃긴
원무
윤택
의아
의결
인연
인계
인승
일인
적힌
전도
전교
정통
제하
제차
족의
좌측
중상
진선미
청화
청계
초의
초음
최하
추심
취했
측이
측량
치욕
카르
컨테
클릭
탐지
파고
하야
하필
학위
학벌
한방
한잔
할부
헤어
협동
휘말
##그러
##TI
##으로
##경찰
##aw
##유럽
##거지
##72
##UNG
##수범
##반사
##ber
##견인
##KAO
아파도
결과물
선수촌
소송법
수십조
애국지사
고속버스
과학자
스타트
교도관
이리저리
대행업
일지라도
여지껏
되돌아
텔레콤
혹여나
어두운
마사지
스케줄
포르노
KAKAO
MHz
유시민
유은혜
솔선수범
태권도
주고받
현충원
재검토
저절로
동문서답
미해결
컨테이너
en
ᆢᆢ
각도
간식
감지
감호
경차
고성
고수
곰팡이
공립
과열
관내
궁극
귀기
기인
기나
기승
김종
깡통
끝없이
놀림
늘릴
단단
당은
동향
동떨어진
때우
떄문
띄워
만신
면목
못할
무사고
문전
미꾸라지
뱃속
버림
범칙
병우
보신
보시기
부름
북쪽
불화
빚더미
사치
사물
사거리
상응
선양
숙여
시나
쓴다고
앉혀
약서
양상
영종
오프
외삼
외양
요한
우라
위정
유턴
으십니까
일수록
자만
잘잘못
장성
장벽
전라도
조각
죗값
주심
줄려고
증설
증액
지긋
지탱
직선
직속
직과
질타
찍힌
책무
치사
친문
친지
쿠데
토로
판치
퍼트리
표면
한양
해안
헛되
형국
환의
후견인
흑자
##자료
##영장
##52
##마케팅
##출혈
##불위
##아내리
##해주
##46
##김없이
##쪼록
된다니
신청자
업무상
올라간
2500
회의록
복무자
돌아다
청구서
싸움질
회원권
신호위
쓸데없이
텔레마케팅
정무직
게이트웨이
ㅎㅎㅎ
무소불위
적립금
타이틀
하수인
건국훈장
잠수함
순찰차
동승자
부조금
지어서
렌트카
권영철
만신창
외양간
쿠데타
KP
KW
REC
WH
by
kh
pl
강해
검출
격추
계곡
고아
고립
공석
교민
구치소
군기
급박
기신
꼼꼼
끼워
낙찰
날아가
남동생
네티
노임
노심
다간
다쳤
동지
두둔
드나
따릅니다
뛰어난
띄우
락의
란다
로페이
말장난
망국
망가지
맞은
매스
머지않
명도
목욕
문장
반장
발대식
배워야
변함
변해
보람
본고사
비전
비아
비에
비열
빌린
빼쳐
산후
살의
설령
성관
센트
소서
소도
소란
소매
속였
시속
시킴
심해서
씁쓸
애써
야만
어면
어쨋
어불성
여섯
영문
유학생
의류
이적
이어진
인내
일진
입힌
잘난
장자
재임
재대로
정녕
주점
중금
지명
질까
질수록
쫒겨
찌르
채웠
챙피
처절
초점
초록
출력
토건
트리
특채
판국
포획
폭파
폭염
피자
학부
항시
했어도
호황
화천
화석
화살
환승
회유
##사항
##서도
##도리
##지긋
##시스
##더군요
##유산
##UN
##OO
##피아
##82
##습니까
##건설
##떼기
생각없이
한다거나
어야죠
그래픽
125
정치판
인지라
아야죠
어린애
권리금
안전사고
기본법
올라도
알려야
나이트
임대업
2525
##러운데
보조인
일어납니다
목숨걸
누군지
예정자
진료실
다녀왔
신뢰도
친절히
##our
떨어집니다
비자금
스타일
주소지
가로막
고지서
운송료
주권자
##ost
라던가
아름답
박세준
가맹점
구시대
무참히
구독자
지껄이
고영태
카르텔
지긋지긋
네티즌
맞은편
어쨋든
어불성설
Korea
ac
가부
거야
검경
경인
경사
곤지
공황
괴산
구태
구단
구해야
굶주
그해
근속
기저
끼칠
나선
나갑니다
낸다
냅니다
뇌출혈
누진
다신
다반사
달렸
달콤
대두
대거
대현
대면
도려
도립
도약
뒷받
때렸
떠돌
떨리
또래
마실
마켓
말단
맑음
망각
망해
멋진
무렵
무제한
미분
밑바닥
방세
배트
복장
본다고
볼까
비겁
사촌
사탕
서열
서부터
성분
섹스
수자원
스파
스쿠
시운
실과
싸워
아플
악습
어딘
여드
예기
예타
예능
오일
외침
용량
우측
원회
육지
육박
으셔서
은근
음원
이직
일조
입상
자명
자택
자처
잠적
잠식
장남
주선
주재
증폭
진전
차떼기
청취
치를
카운
코아
탄력
태영
특목
하대
한통
한동안
합쳐서
행인
행한
호화
확고
환상
획득
후세
후퇴
휠체
힘겨운
##62
##국주의
##iz
##st
##상조
##통장
##바리
##일리
##하여
##rom
##타운
##회계
##풍기
##특별
##혐오
101
경찰대
지역민
들어갑니다
일본인
마음껏
문화유산
예산안
남성혐오
의료인
산업재
거래처
관심없
주변인
수술실
결혼식
살인범
가져온
0010
신용카드
나온다는
나타날
다녀도
의식주
보안법
어쩌다
일으킬
안타까움
버린다
형편없
지사장
당해야
골목길
##are
버려진
데려다
모를까
하이패스
서해안
들이대
정경두
두서없이
대수롭
조명래
차용증
김동연
노회찬
까다롭
존엄성
대포통장
신생아
이륜차
소송비용
증조부
##ype
브로커
제곱미터
강서구
index
배심원
범칙금
우라늄
곤지암
뒷받침
휠체어
BJ
HY
LO
SM
SAM
kb
su
감리
걸친
겸직
골고
관례
구한
권순
그다지
글의
기생
날인
날벼락
남매
남극
내보
넘긴
놀러
놀아나
농약
농림
뇌사
누수
눈뜨
단정
단언
대란
대목
도쿄
독자
된답니다
떠드
마나
말경
망한
매트
메인
모인
모호
목이
무덤
묵과
바리
바위
반포
발신
발본
밝힐
밴드
버려서
번번
변한
복종
부나
분해
불성
비쌉
사나
사내
사악
삼가
상금
상정
생애
성취
세미
세균
속하
수강
슬그
시리
신원
신다는
싶어요
애원
업인
없앨
었었
여호
예습
왕국
워라
원성
웹툰
응하
이병
이스트
인질
일간
장하
재원
저류
적대
제어
종북
주신
줄지
중랑
즐거운
지네
질러
짱깨
차릴
차일
채로
책의
추납
친분
친한
캄캄
코레
특약
판도
편취
포화
폭동
표지
피폐
한거
할망정
허물
헌정
휩싸
흘렀
##르르
##지도
##65
##금융
##어드
##투리
##공항
##ab
##타리
##수도
##면제
##미늄
##런지
##89
##83
##뿌리
##SUNG
인지도
따라야
서민층
청년층
안전교육
건설업자
활동비
보여서
공공연
판단력
법률안
새로이
이동하
316
314
사유지
졸업장
병역면제
후보자
1995
집권당
일시불
영세자
국무총리실
나아질
엄격히
중독자
물려주
상하차
인플레
속상하
갑작스럽
루시에
불명예
anti
장례식
바닷가
나날이
배기량
계양구
지날수록
흉악범
이산화
중공업
##DAI
국가인권위원회
부회장
KPOP
매스컴
중금속
##UNDAI
스쿠터
여드름
특목고
HYUNDAI
SAMSUNG
골고루
비쌉니다
슬그머니
72
CP
ED
law
we
̆̈
거실
거들
게재
격한
견해
견뎌
경협
귀속
근근
금년
기장
기친
기둥
깨우
넓혀
넘겼
넘어지
노가
놀랍
돌이
두세
똘똘
뛰어나
로드
맡긴
몸통
문명
미워
박용
발이
방패
벌였
벼랑
보탬
본국
봉화
분개
분대
불문
블럭
비명
비망
빼내
사리
산점
상류
새겨
서지
설장
소주
소뇌
수직
수작
수혈
스피
시찰
실기
싱글
싸운
쌍욕
아세요
악몽
안하
어김없이
연인
오름
외화
용의자
우상
원조
음력
이정
이지스
인멸
일안
자초
자랄
장부
장수
재력
적재
전열
주력
주최
즈음
증발
직인
찍소리
추서
충주
치러
칸막이
캐니언
탈루
특기
파장
판검사
퍼져
피지
하자
하천
행자
황의
후경
후속
훌쩍
흐리
##인다
##사직
##저만
##고두
##요금
##가치
##iet
##si
##이행
##시경
##주부
##ak
##pop
##을까
##하장
##하니
##백백
##안군
##메이션
##케어
##걸이
##징어
##꼬리
##쁩니다
그런대
한국어
자신감
서비스업
소리지르
교통량
려는데
지도부
210
조직원
##ink
평화통일
넘어오
중심지
##어져야
작업장
보증인
예비역
올린다
들여다보
영세업자
일관된
오른다
태양열
부양가족
김현미
##ite
##ity
도리도리
나빠서
걸어가
당사국
끌어내리
밀어주
구급대
부끄러움
아가씨
이만저만
상세히
메디케어
거니와
구도심
쏟아져
휘둘리
시그마
명명백백
선관위
바우처
이스라
서원본
난폭운전
휴양림
청계천
대행업체
가부장
LOTTE
노가다
TH
cm
wit
가했
갖가지
개표
건다
게요
결합
고국
고칠
공병
공룡
광범
괴리
군필
궁지
그려
금번
기하
기껏
깨지
나눔
내고
낸다는
냉장
냉정
네여
노란
닥치
단서
달랐
데요
돌릴
두루
두고두
따돌
로선
리스크
마자
마르
마찰
마는
막연
망설
매니
몽땅
무가
무작
바가지
박의
박진
벌여
변해야
병장
복판
분란
불허
브리
빠질
뺏기
사우
사륜
생선
성경
성욕
세웠
세울
수액
스레
시상식
식재
씨제이
알코
앞선
앵커
양력
얘길
어설
얼음
엔터
여가
여긴
연비
열기
영광
오세
오징어
옥사
왔었
외지
외압
요직
우위
원통
원흉
위자료
유세
유언
윤회
으십시오
이형
인거
일거
일행
일감
일벌
입당
자칭
재가
재물
적반
전소
점장
정재
정가
조화
조가
죄명
주당
지칭
차려야
처에
청과
초보
추모
칩니다
칩시다
탈취
토하
통수
특단
파킨
퍼부
평온
폭위
하남
합숙
항운
해줘
했으면
했어야
허비
혈연
화이트
후방
##사리
##문제
##ld
##ED
##EW
##nt
##전지
##갈이
##통수
##ht
##76
##들의
##수거
##GR
##복동
##끼리
##색원
##같이
105
108
관리도
보험의
111
언론인
지나다니
영업소
내려와서
거리의
시급히
역사관
부의장
가져갔
항공모
돌려보내
지하수
특정인
부가가치
우편물
차리세
토론회
##326
가산금
554
쇼핑몰
못한다면
공소장
성남시
연료전지
무식한
이모부
항소심
둘러싼
다이소
보살피
창의력
가담자
맡겨야
##aily
계열사
두서없
대주주
호기심
사령부
유영민
유흥업소
부사장
societ
마누라
시나리오
위정자
발본색원
광범위
두고두고
알코올
파킨슨
society
CO
KO
KM
US
al
ab
bj
dir
kpop
가면
개와
건네
경원
교제
국사
국영
국선
굴러
그럽
그딴
극치
김진
깔려
깔보
깔끔
난의
남구
네덜
니라
다뤄
단일
단죄
당파
대령
대박
드려야
때론
려다가
리가
매립
먹히
명소
명성
못난
물고기
뭉치
미소
미니
범퍼
변형
병가
병변
본다는
봉쇄
분수
분포
상이
생신
섭취
성지
성심
세포
손놓
손씨
수선
수구
숱한
쉼터
시늉
신전
신가요
실감
실생활
쓴다
아산
아팠
악한
애서
애착
액체
약품
양평
엑스
역설
연행
온종일
우회전
운임
울려
원화
유교
으란
이영
일류
입영
입건
잔당
잔혹
잔뜩
정인
정해서
족쇄
존립
종신
주역
죽임
지로
지푸
지어야
집합
짤라
차비
초토
충고
캠핑
컨설
쿼터
키즈
토목
튀어나
패거리
페북
편들
폐단
풀뿌리
품격
할라
핵폭탄
행적
호랑이
홍석
활수
회차
후안
훔쳐
흠집
##자매
##CE
##저래
##기사
##61
##55
##IS
##dm
##구멍
##어먹
##격자
##천하
##공론
##ag
##예우
##와트
##웨어
##북자
##싸움
##렉트
##■■
103
대학가
발전기
동물원
1800
공사장
산업은행
취업률
등록제
시험관
139
정당방위
의견서
보조사
줄어듭니다
공제조합
경력직
죽이기
대리운전
##ang
음식물
겨울철
1997
계신가요
바이다
던데요
연령층
분리수거
아시나
탁상공론
ㅇㅇ는
김영란
권고사직
급식비
442
똑똑히
산림청
마구잡이
중산층
저질러도
지상파
다이렉트
보살핌
앞당기
막혀서
태어날
##imal
##ㅡㅡㅡㅡㅡㅡㅡㅡ
바닷물
성형외과
싸이코
의약품
고양시
기흥구
지게차
게이츠
스크린
박준혁
수개월
승합차
전관예우
dolphins
WHO
장자연
도려내
불성실
중랑구
이스라엘
with
적반하장
네덜란드
지푸라기
330
480
550
71
BC
log
가꾸
간지
감자
감행
갔었
경청
경중
경공
고백
고압
공생
과징
국부
근거리
길바닥
까봐
끼친
날까
날뛰
남경
놀랬
누려야
다지
대판
도산
도난
되묻
두지
둬야
때린
로로
리비
만취
말려
망상
명퇴
물음
미일
미처
민망
반출
받쳐
백억
법주
베풀
보가
부턴
부랴
분유
분말
불사
블루
블라인
비치
비우
빨라
사관
상점
상반기
서술
서천
선사
손발
손길
수반
수렵
수요일
순천
술자리
슬퍼
승의
신나
신음
실물
심도
심보
쏟아지
쓴다는
안장
알콜
야심
약도
양형
어만
어딨
언성
엄정
업그
업데
업로드
열등
영의
영사관
예쁜
오너
온수
외벌
울타리
웅진
원했
원님
윗집
윗사람
유병
이룩
이끄
인형
자중
자수
자숙
작당
잡아먹
장거리
재조
재취업
쟁점
적인
전정
전단지
정국
제왕
조율
종양
죄자
주임
줘요
증후
지닌
진화
집진
쪽팔
쫓겨
쫓아
척도
청천
출구
취합
친부모
캐년
탈모
틀렸
퍼뜨려
풍기
피아
피드
피임
필연
하여
한이
항거
해와
행패
헐값
호계
혼미
화고
화끈
화웨이
환율
회관
흐지
##인지
##르트
##장학
##장판
##TM
##겨우
##노소
##시설
##나무
##37
##tbc
##42
##잖아
##실히
##란다
##수원
##교섭
##박산
##울여
203
이상황
한국장학
행정직
시켜도
고소득
담당관
반대편
부담감
보여야
통신망
만든다
넘어서
260
알아본
남북한
남녀노소
면허증
1994
that
겨우겨우
공감대
매달리
지식인
이뤄졌
자산가
거쳐서
##etail
흔들림
특권층
##ist
중개업
설득력
끌어내
코스피
미용실
재미있
보충역
당진시
아쉬움
괴로워
동호인
강성훈
애니메이션
The
동정심
지름길
스타트업
귀기울여
외삼촌
권순일
비망록
항공모함
블라인드
업그레이드
업데이트
재조명
흐지부지
한국장학재단
86
AC
Log
Moon
TO
at
mbc
가한
가명
간편
감봉
갑의
개도
개고생
건드
건달
고착
공신
교부
구내
그놈
극악
급진
기일
기댈
내륙
냉동
녀석
노르
노모
농담
다분
다문화
단원
단련
답방
당위
당내
대피
도운
동방
동양
득표
든다고
듯하
등쳐
따질
라이트
로지스
마이스
망해야
매점
모셔
몸부림
못지않
무에
물갈이
바친
바바리
반기
방출
배워서
버거
벌레
복도
볼까요
봉인
불출
불미
빠뜨리
사임
산속
상동
석사
소소
소아
손녀
송두리
수순
수모
수평
수뇌
숙이
숙명
순식
숨진
승무원
시야
시계
신자
심상
아냐
안성
안철
앙심
양병
어땠
어짜
언의
여쭤
연류
영덕
온전
외가
윗선
유로
융통
이서
이쪽
일터
일쑤
자그
작금
재량
저승
절의
점진
접어들
정진
정반대
젠장
조립
조별
종금
종속
증장
증식
증강
찬반
창호
천차
철근
초동
친하
칭하
칼날
코너
콧물
타가
타일
타미
탁월
탈북자
태안
통로
통탄
특장
판문
편도
필로
한겨
항만
해년
해답
허점
헌혈
호프
홍역
화려
환청
환호
후생
휴전
휴학
흥분
히딩
##소통
##만큼
##트롤
##비행
##파크
##러움
##가정
##투사
##of
##71
##세우
##못해
##ye
##ON
##백계
##박이
##걸음
##코인
##ju
##암리
##렁이
그런가
아무쪼록
답변서
마음고생
1960
의사소통
요구사항
의료법
기술직
명의자
240
newsView
일어서
건축비
수의대
줄여라
보증서
자치제
자치단
허리띠
이래저래
창업주
모자랄
다운로드
기획사
658
이뤄진
생긴다면
김현정
이민자
상실감
031
뛰어들
터무니없이
거듭나
잡혀서
대강당
끊임없
사채업자
경호원
죽여도
이주일
LPOD
내성균
이탈리아
여겨집니다
전라북도
광복절
animal
간병인
고마움
비로소
소화기
2019012
ICBM
##ebook
킬로와트
집어넣
facebook
면역력
보신탕
기저귀
따돌림
무작위
이형기
일벌백계
logNo
피드백
마이스터
어짜피
판문점
히딩크
4326
518
In
KIA
Red
kin
mm
year
ㆍㆍ
가드
가릴
가들의
감과
강연
건과
격고
견과
결석
경도
계략
고물
고검
공증
과한
관습
교보
구원
구했
국한
근린
글쓴
기절
김치
김수
깍아내리
깜빡
꺼림
꼴통
꾸미
낮출
내시경
낸다고
노점
늑대
늦추
달도
달랑
당뇨
당나라
대야
대들
대위
더만
도왔
도매
동산
동학
동굴
뒤통수
등원
디딤
려나
마신
마쳤
마피아
만인
말자
망정
매뉴
맥락
모을
무선
뭔데
미발
민영
박항
박주
박봉
반항
반듯
배설
배수
백혈
뱃지
버릇
변조
변했
병폐
불태
비나
비유
빌려서
사당
선례
설렁
세분
수동
수월
스프
스팸
습득
시외
시뮬
신부
신제
실추
쌓인
씨씨
아스
악인
안과
앉히
얄팍
양수
어겨
어수
어버
억류
얽혀
엄한
업고
여신
여중
역전
연이
였으니
영도
요망
우유
우익
움켜
워너
원산
원부
원심
월권
위가
유서
유권
을수록
을려면
이불
이따위
인센
입수
자석
자빠
작곡
잠그
잠들
잠잠
잡힌
장제
저래
저버리
절개
접목
정공
제국주의
조손
조석
조센
조부모
졸속
지면
직도
참작
척곡
철로
체장
쳐야
총력
추경
치도
치는
치닫
칭얼
커져
터트
터집니다
테두리
통원
투약
트레이
판명
팟캐
패키
편중
표방
풍지
풍요
풍토
프린
학회
한남
한몫
합치
해이
해주
형무소
호응
화대
확진
휴지
##장치
##저곳
##보유
##lo
##손손
##마크
##어치
##어놓
##부랴
##병기
##95
##의사
##더기
##제품
##43
##난방
##건건
##예산
##와야
##ㅇㅇ
##숙고
##센터
##겁니다
습니다만
한다지만
그리도
필요시
경제학
정치권력
지방세
1100
어려웠
1867
기본소득
부담없이
활동가
운동사
투자가
지켜볼
선거구
통신비
내려지
##ere
1626
독립투사
만드신
검색창
##ins
밝혀내
판매가
주인공
기록부
오르내리
계산법
생산직
##eal
떠나라
현대차
심사숙고
허가제
양육권
월세방
이곳저곳
자주국
움직여
art
창업자
이어서
아닌데도
##ard
키워야
바뀐지
강간범
##ogle
끌어올
마포구
법제처
KBO
체크카드
때려잡
다닌다
2021
부끄러워
마주치
나랏일
##REA
##irect
숙박업
이만큼
에어컨
2019011
사령관
골라서
김명수
대물림
사사건건
내어주
수증기
비트코인
냉각수
불감증
난이도
ranking
갈비뼈
경수로
금호동
김기춘
비열한
미분양
박진섭
브리핑
부랴부랴
수뇌부
이서희
한겨레
Redirect
글쓴이
매뉴얼
박항서
신제민
인센티브
팟캐스트
패키지
186727
380
CE
Do
DM
GB
PR
TW
me
가가
가세
각인
갈려고
감도
개구리
거이
거창
결격
경직
경작
고만
고함
고심
고과
골치
공수
관용
구금
구실
구민
권총
귀농
그달
글씨
금정
기리
기후
김학
김복동
깜깜
깨어나
꽁초
나치
나락
내쫓
놓인
놔야
다발
단통
단임
단란
당리
당구장
대공
대역
대질
독성
동화
디시
떠맡
라매
래요
런지
로워
리회
마니
마크
마녀
만져
만천하
망의
맥주
멈출
멋지
메모
면사무소
명학
모방
모았
목돈
목요일
무성
물고
미연
미의
민박
박힌
박상
반년
방수
배분
백지
백범
번개
별반
보미
부영
불이행
비공
비스
비켜
비춰
빚값
빨래
사야
삽입
상계
상단
선제
성질
세도
속수
수화
스컴
실화
심부
십수
싸워야
안쓰
약산
어영
어겼
엄지
엄하
연쇄
열사
열거
열렸
열망
오판
올인
완치
외세
요번
욕망
우호
원동
원정
웨이
유상
유차
응당
이국
이룰
인제
자해
잔액
잖습니까
쟁취
저조
저널
전지
전송
절제
절친
제자
제법
제민
중점
쥐꼬리
증이
지양
지붕
진영
집착
찌푸
찍혀
찔러
차가운
채울
철면
청시
체하
촌지
총무
커졌
타도
타들
탁아
텃밭
특근
패러
펀드
펌프
평상
평수
포지
폭침
하와
학술
한발
항쟁
행여
허수
허벅
헷갈
형상
확답
환장
환원
환전
황희
후기
후송
후임
흉터
흐른
흔한
##las
##na
##가루
##무치
##무도
##조작
##공격
##96
##ment
##ping
##랜서
##들인
##들여
##즈니
##현민
##심판
##립시다
##수단
##피일
##모로
##호흡
##처럼
##프레
##LI
##ㄴㅁ
201812
이제야
다가가
아서요
시민운동
공정거래
구속영장
운전석
운전기사
교통수단
지지층
##ers
인사이드
175
판매점
221
민족주의
건축사
##ave
구미시
알아내
##ory
시위대
안타까울
두려워서
시달려
살펴봐
배정이
6666
수천억
데려오
준다며
부평역
휴게소
모욕죄
달려들
언어폭력
지점장
특허청
아까워
버젓히
프리랜서
될까봐
##ople
사회생활과
찾아보기
할당제
스토커
서초구
내몰리
서슴없이
다스리
부풀려진
무사히
ktx
소사역
자위대
경보음
유관순
인신공격
적화통일
테니스
승부조작
낱낱이
번번히
차일피일
USB
후안무치
과징금
노르웨이
다문화가정
순식간
필로폰
디딤돌
백혈병
조센징
공정거래위
510
713
890
SP
cj
from
han
jtbc
new
op
가나
가덕
각기
갈려면
갑가
강매
개원
걸레
격렬
결성
결손
계엄
고래
공략
과격
관제
광양
구지
국책
굴리
굴복
궤변
그늘
김보
김제
김민
꺼라
꼬투리
끝장
나사
남긴
냉철
넓히
넘길
늘렸
다년
대문
대륙
댄스
댑니다
도출
도태
동쪽
될수록
두기
들렸
등인
따져서
떠밀
떵떵
라거나
랜덤
렌탈
력사
리터
마셔
맘껏
맞대
매춘
모기
못지
무색
무직자
문가
물거
물으면
미화
미온
밀양
밀접
반경
받치
발짝
번역
벌려
변수
보직
보궐
봉고
봉이
부릴
부메
부흥
북측
분진
비통
비양
사려
상표
상납
서식
선후
세심
솜씨
송구
송환
스텔
스캔
슬픕니다
신불
신임
심할
십사
안개
알기
암기
압도
약이
양가
어가
어미
엄단
여고
역학
열풍
예쁘
오보
오를
옥탑
올까요
옮길
옮긴
와이
외할
외쳤
요하
우자
우의
운경
울진
원론
원민
윗분
이여
이길
이과
이례
이율
익일
일히
자막
잡음
장차
재편
저서
저쩌
전업
전출
전념
정계
정동
조수
족속
주후
주구장
중추
지으면
진위
진과
질주
쪽박
쫓아내
청이
초고
초심
최상
출세
치뤄
친부
컨데
크나
클라우
타락
탄도
탄현동
탈의
투신
투병
특활
파급
패턴
팬덤
팽창
페인트
편할
편익
푸드
학의
할증
해설
해복
해봅
핵보유
햇살
행운
허성
험한
현찰
호재
호호
호남
황산
회가
훈계
휘청
흐흐
흑태
##리즘
##비어
##ET
##다임
##고대
##원지
##어뻥
##전입
##무인
##부답
##21
##22
##상선
##이즈
##통령
##공화
##스탄
##41
##47
##디다
##세포
##수기
##종환
##86
##틀리
##캐피탈
##티나
##킵시다
##긍긍
##🕯🕯
피해액
한국전
관리인
개인주의
여러모로
미국인
투기자
월급제
운동부
목적지
##ery
##eral
회의감
가져간
나온다면
한데요
달라서
달라졌
참고인
현대캐피탈
작업자
주의자
마을버스
모아야
살려라
경영자
신문사
4500
4577
##ess
##레이션
형제자매
출입구
무너진
345
현역병
전원주택
소개비
걸쳐서
시끄러
위장전입
다면서요
google
8350
해산물
였음을
헤아릴
둘러보
편안히
소모품
큰소리치
광진구
열람실
절망감
남양주시
묵묵부답
메디컬
전전긍긍
오락실
허울좋
4302
배고프
틀림없
스튜어드
저공비행
죄악시
##고속도로
파고들
단단히
장하성
안하무인
행자부
##EWS
##GRAM
KOREA
##교섭권
극악무도
꺼림직
불태울
DMZ
철면피
패러다임
김보름
물거품
부메랑
스텔스
옥탑방
주구장창
크나큰
클라우드
해봅시다
핵보유국
423
810
CT
DS
FTA
Jin
Jae
SR
yonhap
→♥
간적
간암
경부
경시
고르
고학
고나
고박
공명
공안
공교
관철
관측
광개
괴사
교란
국과
군경
귀신
귀담
균열
그라
급상
기로
기막
길러
꼰대
난장판
날개
내다보
넷마
다방
다느니
닭장
당도
대환
대나
도종환
동이
동석
동탑
되물
뜻대로
로봇
마산
마셨
막힙니다
막노동
명원
명동
명복
모텔
몰지
몹시
못자
못합니다
무모
문신
물증
미신
민낯
발동
밤샘
방도
배변
배척
번영
벌벌
법망
벗겨
베란다
변환
보루
보답
보강
본받
봐줄
부렸
브라
비염
빙산
산제
서인
서쪽
서러운데
성당
세끼
소시
손목
쇼트
수다
수에
수틀리
순응
숨죽
시에
신병
실소
심어
아로
아부
악명
악착
안동
안방
안쪽
암행
어뢰
엄과
여과
여혐
역이
연가
염소
영안
오신
옵션
와라
완장
왕래
왕창
외도
요식
우정
우물
우후
원료
원단
원거리
월북
웬만
위력
유망
의과
인즉
일억
입김
잉여금
자로
자차
자취
자판
자랐
잡혔
재선
재항
저주
전진
전처
전례
정했
정할
조희
조공
졸음
종자
주려
줄게
줄때
줄까요
중년
즐긴
지른
지친
지어도
찍히
채의
처했
천박
청치
체격
총알
최신
치이
치졸
침탈
칭송
컨트롤
케이지
코웨이
탁현민
탈법
태생
터져서
터트리
투석
트집
특보
팔려
패딩
팩스
표출
플란
피진
피워
핍박
학문
학계
할려
할거
항체
해져서
행방
향의
헐뜯
호위
활기
##리티
##등기
##자식
##르기
##만별
##장소
##장구
##AY
##보이
##보드
##선열
##land
##Flas
##eg
##eonhap
##eju
##다간
##요자
##각각
##항공
##무책
##이크
##정신
##정보
##92
##mw
##ple
##일으
##대원
##대간
##세대
##타민
##Yeonhap
##입니까
##럼증
##광역
##룬다
##읍니다
그리스
어서요
행정력
그렇지만
수사대
이용선
어떻하
다가올
마음놓
월급쟁이
헌법재판
전문직
프로세
기다릴
구조물
돌아갔
살인마
고발인
줘야지
독립성
국제공항
대체로
스트립
아닐지
괴롭힐
연봉제
전쟁터
수소폭탄
현대산업
나타내
노조원
주의보
학년도
실수요자
자본가
유기한
면접교섭권
몰라요
후원자
불러일으
일으켰
인증서
부지런
두려운
합격률
들여다
전용주
실망감
##all
##102
회계사
오른다고
비밀리
##ata
거쳐야
접근성
적절히
떠들석
키워드
비대위
구축함
모양새
전해철
어지럼증
밀어내
##osun
자부담
춘천시
OOO
배신자
배신감
코스프레
동반자
모은다
망가진
미용사
우월주의
앞세운
부딪혔
재료비
꼬리뼈
화성시
isYeonhap
견인차
공통점
기지국
상임위
대졸자
소홀히
허구헌
장년층
소프트웨어
연평도
현관문
결사반대
덧붙여
빼돌리
재래식
연고지
크리에
비닐봉투
백두대간
울화통
khan
스파이
한통속
부가가치세
증후군
안철수
천차만별
속수무책
##ㄴㅁㅇ
Jinping
yonhapnews
광개토
넷마블
재항고
플란트
##Flash
현대산업개발
isYeonhapFlash
688
91
KF
KD
LED
NH
NG
YS
can
care
detail
have
kw
rc
가신
가출
가망
가려서
값싼
값어치
개신
개한
건장
걷어가
견주
결실
고라
고군
고농
곤두
공덕
관서
굉음
구걸
구해서
굴삭
그립
극장
금도
금속
기무
기거
기쁘
끊어진
끼어들
낙마
남로
났었
내장
내원
내걸
널려
뇌졸
느리
능가
다짐
단장
대진
대세
덮어
데일리
돌렸
동인
동사
동전
동두
돼요
됐으니
두뇌
뒤지
뒤바
뒤덮
드라도
든데
들끓
등골
라요
라마
레미
렌즈
로얄
만도
만점
맞춘
모형
무순
문학
바를
반지
반론
반갑
발명
발가락
방진
버팀
보온
보입니까
복의
본분
본건
북유럽
비어
빚내
빼놓
사춘
서직
서풍
성신
성대
세밀
세워서
소굴
속셈
송달
수역
수송
수납
수배
순국
스나
승강
시안
시집
식대
신빙
심기
싸웠
싸가지
쌀값
씨방
악성
안익
암시
암암리
애타
야말로
양국
엉덩이
연식
염산
영유
옥의
옥죄
왔으나
월남
위암
유례
율의
융합
읍시다
이듬
이쁘
이문제
일기
일동
일례
임세
자사
자지
자각
자며
자매
자멸
장보
장현
장님
저건
적나라
전당
전권
전일
조마
조윤
종말
종식
좌시
주단
주취
준표
지저
지각
직영
차대
챙긴
처신
천하
청부
체인
체내
촉매
최후
출자
출원
출혈
치워
친모
커버
키웠
탐색
탑재
탱크
터진다
토착
특집
파라
파격
평의
폐원
풍족
헤드
호원
홈피
화두
화제
후려
##인계
##치료
##사상
##사정
##사실
##성동
##그네
##장수
##AN
##AR
##ACE
##분투
##지오
##51
##선언
##산동
##재기
##어졌
##부리
##ia
##훈련
##아비
##이자
##98
##35
##의식
##ue
##으리
##제도
##절차
##체인
##생명
##헤헤
##웃음
##둬야
##헨티나
##멋대로
우리나라
해야함
사실혼
들어선
계약법
이제껏
도와야
1970
진행자
어떤가
186
안전장치
인권위
지나갈
운동가
증거물
선거철
공공연히
전문의
##ide
진실로
20160
독립군
찾아다니
찾아와서
김정주
청구인
점점점
기대감
공제액
알아봐
남북통일
병역법
는다는데
가르칠
대전시
버린다면
##out
생겨난
##101
스러움
용인시
아르헨티나
심해질
아픈데
멀쩡히
소재지
section
순수익
중개업자
기념일
아까워서
철거민
실명제
마이크
수년전
인수인계
ass
경위서
해준다면
부러지
후반기
정시로
연대보증
수면제
org
다섯째
다스려야
##ight
무의미
베이비
전동차
페이퍼
동성애자
돌파구
이산가족
수혜자
갑작스런
김명환
ADC
난치병
엔지니어링
무법천지
떄문에
판도라
박용진
상류층
냉장고
매니저
해줘도
피아노
##잖아요
등쳐먹
어수선
장제원
자주국방
평상시
악착같이
고군분투
굴삭기
동두천
레미콘
안익태
620
840
AS
CN
DB
ES
VR
cl
data
key
mk
oq
pop
sm
type
☆☆
가전
가위
가급
가본
가평
갈망
걸린다
겁박
경복
계량
계세요
고조
공관
괜한
구거
국면
군비
군위
군포
굴욕
귀병
귀와
급속히
기우
기습
기뻐
길가
깊숙
까닭
껴서
끼칩니다
나자
나눌
나팔
난도
난감
날렸
남종
남과
내과
내놔
노트
노하
농간
누출
눈길
다큐
담장
대개
덴마크
도요
독선
돈줄
동질
든든
뜬금
로우
루트
막혔
매기
맹수
메신
면도
목장
무심
뭉쳐
뭉쳐서
미화원
믿기
밀실
바둑
박모
박병대
반증
발각
발악
발효
방대
배급
버금
법학
벤츠
변재
보름
본지
본데
볼모
부기
부어
부임
불도
붙혀
비준
비프
비합
비타민
빈민
삐끗
사셨
산상
삼륜
상조
서가
섞인
세관
세어
세로
세세
소금
속속
속내
속여서
수속
시발
시책
시효
신식
실리
심폐
싸워서
쓰였
쓰일
씨앗
아셔야
악사
어둡
어머
억장
엊그
여려
여고생
연로
열중
염불
염색
영하
옥조
온난
올가
왜구
우버
우회
운항
월차
위화
유트
유부
유난
유증
을사
음해
이공
이봉
인부
일절
일석
일생
잇따
자한
자조
자생
자긍
잔디
잠정
잡아가
장해
장모
재혼
재현
전매
접한
제반
조여
죄수
죄목
주공
주워
줄께
징게
차인
차영
참다
철물
체가
체대
총풍
최첨
추돌
출금
출전
침의
칼질
칼럼
코미
콜택시
타결
택하
파파
파이프
펜션
폴란드
하다
하진
한낱
할래
항도
항변
핵융
행진
허파
활주
획일
효용
흔드
흥미
희박
##라치
##저축
##63
##트랙
##보도
##재해
##데기
##오일
##맹랑
##이머
##정기
##97
##바다
##레이터
##스터
##일러
##하고
##절미
##급수
##질서
##밴드
##뜨릴
##슬쩍
##강도
##잔치
입니다만
지만은
청원권
104
어서라도
가지도
따라오
어느새
나이스
cont
바라봐야
구속력
운전대
내려졌
거리낌
자연재해
따른다
집행관
newsis
찾아온
돌려줄
돌려준
보조원
기록물
생산자
민간단체
대응책
지구의
줄여도
공익사업
이기심
공산품
무서웠
빠져서
을지라도
그럴까요
지하철역
올린다는
this
예방법
arti
##ecd
전용도로
생존자
모집책
원자로
##nday
무너질
심해졌
추락사
물어봐야
떠들썩
걸려도
재단법인
나간다
떨어진다는
주무부
대행사
##ice
방사성
걸어다니
창원시
출연료
정년퇴직
1988
교대근무
##app
더럽히
송파구
느낀다
거두절미
그림자
날라가
목격자
동맹국
사학재단
상한선
상한제
복지부동
낙인찍
마사회
체납자
들으면서
허무맹랑
줄기차
불거지
역삼동
추징금
갔다오
갔다온
갑작스러운
급속도
실종자
수산물
고무줄
박영선
chosun
medical
utm
블록체인
뒤쳐지
비속어
정통부
초음파
감호소
영종도
오프라인
꼼꼼히
괴산군
입상자
CPR
근근히
기하급수
컨설팅
정진화
animals
노점상
원산지
물고문
허벅지
hani
허성규
쇼트트랙
크리에이터
버팀목
사춘기
이듬해
☆☆☆
남종삼
위화감
자긍심
차영환
최첨단
코미디
핵융합
625
AF
AK
Jeju
NEWS
Pr
cs
ed
end
mb
oecd
sa
sc
site
tw
was
가보
가루
가등기
갈림
감상
감언
개운
개명
개뿔
거르
거진
건보
건질
경재
계셔서
골드
공청
괘씸
구식
국소
군단
규격
그름
근성
급정
급감
기꺼
김병
까먹
꽃뱀
꾀하
꾸지
끊어질
끼니
나앉
남동
내모
내편
노량
놀란
농수
높히
놓이
누워서
눈짓
다산
다급
다둥
달릴
당금
대함
도보
됫습니다
두리
두드리
따졌
래퍼
릴레이
마른
막힐
말없이
맛보
망합니다
맞먹
맡겼
머릿
멘토
멱살
몸살
무직
무중
무혐
무이자
문중
문득
물으
바짝
반원
발발
발음
배관
백악
복기
복부
본회의
볼려고
봉지
봐왔
부단
분사
분출
불응
붙여서
브로드
비장
비틀
비협
빙초
뺏어가
뺑뺑
사체
살포
삼각
상반
서른
서상
서훈
서빙
선뜻
선풍기
세손
소와
속담
수목
순리
술수
스물
슬금
승승
시연
시름
신인
신당
실외
심재
싸늘
씌워서
아미
안이
암살
야단
야욕
약소
약해서
양구
양측
어여
어다
어둠
얹혀
얼토
여하
역주
열려
영방
영체
옥외
외진
요율
용접
울부
원시
유신
유실
유소년
의외
의석
이달
이뻐
일깨
임계
입혔
입목
입바른
자자
장본
장갑
저게
적국
전폭
젊음
정선
정전
정점
정들
정혜
제비
조형
조급
종중
죄지
주전
중장
증기
지형
지루
지팡이
직불
질소
질식
차로
차제
차종
채워야
처치
철퇴
체증
쳐다
추상
출두
취조
캐넌
캡쳐
코앞
클러스
타투
탈해
탐사
통용
특사
특전
특위
패의
팬티
페업
페기
펼칠
평준
폐점
포교
풍부
하차
한결
한대
함대
합성
합승
합류
해아
해내
핸들
허송
허망
헌금
헌납
헬스
혐이
협업
호르
호출
호통
휴업
휴계
흐려
흘려서
흡사
##인명
##리케
##사랑
##그룹
##초사
##서로
##eq
##파리
##가역
##if
##sp
##당토
##이설
##린다면
##3가역
##진다는
##ms
##바람
##바라지
##더라
##rea
##ram
##위치
##립니까
##수리
##림동
##담보
##석방
##누리
##Page
##죽순
##뜨렸
##🤬🤬
으로선
대한항공
그리구
아이파크
한국정
사회악
국회의사
행정심판
아무개
기업가
이용이
이용하
들어옵니다
사고나
117
보내왔
지나간
강제성
20170
국내외
공공장소
상대측
자금력
정상인
는다며
특별자치
돌아봐
여행자
여행객
2327
조선소
사과문
밝혀서
밝혀질
찾아왔
체육복
장기수
신용도
##ean
된다면서
훈련병
심사원
광역철도
수익금
건데요
올바로
엔진오일
##230
매출액
소중히
가르침
회원국
고속도
장난질
고생이
##ese
도박장
일시금
받아들여야
기소유예
심정은
이걸로
무너졌
임시직
빼앗긴
예술인
예술가
선동열
060
상호저축
종로3가역
고령자
주무시
몰아넣
시끄러운
시끄러워
아울렛
전철연
대국인
ㅇㅇㅇ
횡단보도
##267
마이크로
레이저
영양제
대대손손
군산시
not
언젠간
##ome
위임장
살림살이
충청남도
people
peple
이라니
안양시
구로구
이성호
충실히
이뤄지고
오리발
디스플레이
재심사
상급자
펼쳐야
베이징
부유층
사로잡
들려오
시한부
파트너
안중근
허탈감
원한다면
파헤치
머물러
상부상조
docId
가라앉
비닐봉지
인문계
joins
월등히
한양대
노심초사
초록색
##OOK
어딘가
은근슬쩍
성취감
성심껏
유병언
고착화
자그마
시외버스
CEO
TWI
심부름
원동력
신불자
우자의
흑태자
DSR
우후죽순
자판기
조희연
조윤선
노하우
비합리
엊그제
감언이설
기꺼이
노량진
브로드밴드
비협조
빙초산
얼토당토
클러스터
호르몬
국회의사당
특별자치시
상호저축은행
420
710
Co
EU
FC
FACE
INS
NO
bo
bill
가파
가식
가차
가습
가책
가뭄
가석방
각별
갈리
감고
갑갑
갑상선
갤러리
거만
결백
겸임
경산
고질
고귀
곱하
공람
교무
구사
권했
규율
그기
극도
극한
글쎄
기형
기용
김장
꼬집
꾸역
꿈꿀
끌기
내가
내포
냇가
냉방
너스
노부모
농부
농작
놓칠
놔서
눈빛
뉴타운
다다
다의
다짜
단도
단결
단봉
답니까
대려
대결
독소
독한
돌입
동통
두통
뒤돌
뒤흔
뒷거래
드셨
듭시다
때릴
또라이
라라
러지
로밍
막걸
막연히
만능
맙니다
맞물
맹의
먹칠
멀정
메스
명장
명박
모드
모면
모잘
몸소
몸값
무감
문과
문죄
뮤지
미러
민갑
바쁩니다
반짝
반민주
받아
받들
배구
백과
버겁
변리사
보석
본처
부린
부럽
부릅
북풍
분활
분합니다
불찰
불상
불씨
불어야
빠리
사생
사흘
산란
산단
살살
살린다고
상도
상무
새터
서야
서론
선입
성원
성행
성우
성토
세브
셔틀
소보
소양
송출
수분
수전
술의
쉬워
스키
스탠
승용
쌍둥이
쓰인
쓰래
쓰지도
아지
아고
아토
안주
안민
암담
암튼
양제
양립
어학
어는
어때
어벙
여아
여쭙
역임
역지사
열의
열매
염수
예선
오산
오타
오케
오스트
온지
온누리
요점
원한다
월반
위인
유야
으셔야
은밀
응용
이창
이완
이긴
이랬
인진
일임
입출
잇속
있는
잉여
잊어버
자아
자네
저급
전경
전범
정관
정찰
정용
제소
조이
조응
조해주
졸자
주야
죽전
중범죄
즐비
증오
지회
지를
지폐
직군
진찰
짜장
차치
차안
참혹
채취
챙길
처들
처한다
철의
초경
최성
최정
최교
취해서
친목
친밀
카니
커지
커버리
타의
태산
택했
토익
토양
투숙
팀원
파시
파크
파울
파주시
판독
패자
패권
패륜
퍼붓
페차
폭넓
표적
표제
피했
필화
하리
하마
하층
학사
할머님
합심
핵탄
햇빛
햇볕
행이
행시
헌재
현천
혼선
화요일
훈의
흉내
흥청
##직스
##자재
##라면
##청산
##도장
##53
##규하
##산물
##ev
##day
##고짜
##구려
##구구
##가상
##오르
##로기
##ion
##ile
##아주
##환경
##동자
##91
##uery
##mer
##바구니
##스타
##73
##대교
##난다
##수산부
##bm
##RI
##81
##교부
##윤식
##간히
##언정
##생각
##착륙
##BOOK
##십리
##덩어리
##ass
지만원
그러면
아파하
116
일반직
환경청
외국어
방송인
189
당연시
알려서
재판관
개발제한
선거제
내려진
종교법
가져올
##ind
밝혀라
찾아간
돌려보
연구실
사라집니다
입원실
민족정기
대비책
시킨다면
취해야
270
출근길
다녀서
다녀와서
자본금
고서라도
1992
어쩌구
인도주의
드러날
##아들이
3500
필수품
생겼으면
시달렸
제조원
부르짓
어려워져
느껴졌
라니깐
시공자
김송이
이뤄질
수출입
생긴다
뇌물죄
군의관
더러워서
나아진
드라이
소외감
데려와
articles
으셨으면
운송비
도우며
무지하
기념관
뛰어다니
적정가
ㅇㅇ가
우대금리
##rive
물려줄
놀라운
1987
해양수산부
이래서야
드린다고
용도지역
가야지
치우친
날라오
이주민
주먹구구
타이어
##use
##ust
##emb
ㅉㅉㅉ
원리금
다던데
괴로움
사대주의
구석구석
플랫폼
줄인다
낙태죄
##TAGRAM
항암제
활발히
lik
##TTER
늦춰질
내어놓
난치성
라이브
남아도
암사역
정중히
두들겨
협동조합
경인선
굶주림
카운터
어설픈
대야면
반듯이
설렁탕
스프링
아로니아
비밀리에
NGO
개신교
곤두박질
가급적
유난히
이봉기
갈림길
승승장구
역주행
울부짖
장본인
정혜승
TWITTER
FACEBOOK
INSTAGRAM
가습기
다짜고짜
막걸리
모잘라
새터민
아토피
안민석
역지사지
이창우
조응천
카니발
커버리지
핵탄두
개발제한구역
650
850
Ar
FB
IS
bmw
hank
sr
ㆍ처리
가성
가단
갉아먹
감차
감세
강직
개수
거더
거둔
거처
거침
거린다
건재
건널
검열
격하
결별
겸손
경정
계통
고관
고독
과외
광교
광풍
괴뢰
교만
교포
구장
구가
국지
권선
극의
금은
급락
기세
길들이
꺼지
껴야
나부
나물
나옴
난개발
남길
남침
납액
내막
냄비
너거
눈꼽
눌려
는냐
니즘
다더니
단골
달구
답장
당정
당제
대연
대열
대납
대대로
던진
데모
도마
독단
동간
되살
둔다고
둔다는
뒷면
드니
드려서
들개
등한
따님
따랐
따듯
떼쓰
란스
레저
려인
류규하
마칩니다
막중
만회
말일
망했
맞출
매정
매곡
멋있
멍하니
명제
모리
모듈
몽둥이
뭉개
미룬다
민초
밀려서
박혀
반사
반파
반공
발길
발간
방한
방역
방호
방구석
배드
배짱
버텼
버러지
벌칙
벌어져
벗기
병설
분장
분량
분간
불나
불참
비꼬
빛내
뽑히
사오
사슬
사금융
삭막
산입
삼키
삽니까
상간
상근
색이
생화
서적
서러움
선서
선불
선천
설움
세인
세자
세모
세례
센서
소탕
소충
수인
수락
수간
수쿠
숙지
순차
시료
시트
시다
시합
시련
시아버지
실컷
심했
심혈
싸그리
써라
아트
아랍
안팎
알맞
알루
알뜰
암투
앞섰
액상
얌전
얼버
얼룩
엄히
여관
여길
역한
연연
연출
염치
염두
엽기
였으므로
예견
오라
완납
왕도
외무
외롭
용객
월평
으냐
은어
의왕
의향
이선
이화
이원
이종
이월
이삿
이빨
익산
인자
장시
장에
장녀
재부
재밌
저자
적잖
전능
절세
접합
정자
정립
정병기
제천
제각각
조리사
주축
주어져야
준적
준용
중기
중과
지질
지와
지으며
진이
질도
집니까
짜낸
찔려
차수
참지
찾기
천교
철원
철길
체면
초석
초코
초딩
총질
총체
추산
카바
컴퍼
키워서
타살
태풍
테우
텍스
톨게
통채
통감
통곡
퇴치
파직
파스
패션
펜스
폄훼
폐수
포착
포커
풀칠
피폭
필드
학제
할게요
함미
항간
해다
해간
해악
했읍니다
행할
허경
허약
헛점
헛된
현출
혜화
호들
혼내
홍콩
화약
활약
회기
효도
효의
효행
훈증
흘렸
흡혈
##자살
##성기
##성구
##라미
##라이트
##서면
##lic
##비비
##재산
##de
##조직
##조마
##동설
##정환
##명령
##창규
##to
##tor
##대왕
##달라
##증권
##디아
##디션
##세상
##세월
##타임
##수입
##YH
##미널
##bo
##포트
##RB
##루션
##쳐도
##놀이
##축구
##든가
##에너지
##PS
##VE
##뜨린
##WAY
아니야
아니요
사회단체
다른가요
사용량
아무데
기업주
122
123
조사단
이용대
중국어
감사과
따라다니
신고인
자유도
1919
관계없
가정과
156
155
안전띠
기본요금
경기장
경기력
알려줘야
올리브
폭행죄
입장료
운전수
지켜져야
지켜줘야
선거인명
폭력범
도로변
서로서로
돌아간
돌아갑니다
자연환경
조직폭력
조건부
평화상
장기근
명예퇴직
부정수
##tim
변호사법
마지못해
달라붙
바꿔라
건축법
알바로
알아볼
구매자
투표수
제주특별
##ord
##ork
##let
계시판
시킬려고
으신데
집안일
끼리끼리
그럴듯
보안관
##110
불러야
홍보물
깨끗이
고시원
모자이크
느껴질
출입문
간호학
는대도
기울어진
이뤄져야
들어와도
블랙홀
이중영
보인다고
채우기
리라고
인격체
나간다고
나간다면
떨어진다
처방전
흘러나
4800
태어난지
뒤집어
고장난
##oper
바쁜데
가르쳐요
소모적
어야지요
##192
여태껏
타이밍
완벽히
전산망
부딪혀
##ember
원수가
##ung
불명확
좌절감
아쉬운
변기통
줄어든다면
어지럽히
출판사
수임료
위태로운
표창원
##자치도
안산시
시시비비
신한은행
구상권
음모론
외래어
연평균
국경일
숨겨진
그지없
크리스
틀어쥐
부역자
슬로건
utf
바빠서
음료수
탐지기
기생충
COWAY
엑스레이
홍석천
쪽팔리
공신력
교보생명
민영화
시뮬레이터
허수아비
계엄령
조수석
한국전력
조마조마
후려치
assemb
경복궁
철물점
AKR
유실수
조형물
허송세월
받아쓰
최교일
투숙객
FBI
등한시
알루미늄
이삿짐
컴퍼니
톨게이트
선거인명부
조직폭력배
제주특별자치도
assembly
570
720
92
913
BBC
Ch
FRB
HTM
ID
Km
SU
USD
VRE
Web
hoon
lg
par
ref
tab
ㆍ부
가소
가결
가든
가합
간직
간간히
갈려
갈래
갈지
갈산
갈까요
감출
강소
강기
개당
거려
거로
걸요
견학
결로
결근
겹쳐
경리
계집
골수
곱해
공주
공터
곽상
괴상
괴로운
교인
교리
교재
교양
구대
국문
국감
국교
그물
급사
급조
날수
남방
남대문
낮잠
내달
내집
너그
널렸
노유
놀려
놀음
농후
높여서
높여야
뇌경
눈살
뉴질
느려
늘어지
능사
능률
다뇨
닥터
단번에
달째
당함
대요
던질
데뷔
도관
독이
돌변
동업
동감
동종
뒤져
득실
들락
듭니까
디테
때려서
똥개
뚫어뻥
랍니까
레모
로펌
로직스
린다
마칠
말지
맹점
메리
면했
모였
몰염
몸담
묘사
무행
묻히
물들
물림
뭉쳐야
뭘까요
미취
바랬
박범
반감
반란
발현
발포
발걸음
밤잠
배팅
버나
번만
번이
벌수
벤치
벼룩
변태
별것
보균
본문
부드
부강
분에
불당
불식
불면
불모
뷰어
비등
비화
비효
비디오
빈차
빡빡
빨대
사서
사경
사은
사놓
사욕
상충
새기
새우
서에
석고대
선가
선로
선명
선대
속고
손괴
쇄신
수족
수칙
숭배
스승
스펀
승자
시킵시다
식단
신창
신길
신탄
실린
실까요
심이
십일
쌈박질
쌍용
써먹
쏠림
쓰리
아군
아티
아홉
안달
안식
안면
앤디
어니
어류
억만
엄포
에휴
여비
여주
여타
여실히
역과
역내
연달
연립
연안
영월
오갈
오의
오바
오며
올레
올수
외로
요해
욕창
용목
울림
웅웅
원문
원희
원당
원제
원체
원판
위례
유방
유수
윤활
은가요
음지
의전
의논
의로운
이천
이우
이목
이강
인적
인품
인심
임박
잇단
자야
자폐
잠복
장단
장바구니
재화
재촉
저당
적색
전사
전장
절로
점식
정개
조처
족벌
존치
졸개
주운
주니
주나
주세
주춤
주둥이
증손
지에
직분
직간
집집
집배
집들이
징징
차도
차렸
채워서
챙겼
처형
천인
천명
철강
체조
촌부
총영
총점
총액
추의
추월
추워서
축재
춤추
취락
치중
치켜
친의
친권
캐리어
커플
코디
코메
터치
퇴소
특가
특색
특강
틈새
티오
파인
파생
퍼스트
페트
평안
풀릴
피파
피울
피보험
픽업
핑크
하심
한텐
한집
한샘
합세
항모
해수
해촉
했으므로
허브
험악
호사
혼잡
홀대
홍윤식
황창규
후분
흘린
흰색
히트
##여대
##성가
##장사
##장기
##TS
##기부
##기에
##분명
##보상
##금지
##형무소
##II
##러기
##운드
##국민
##전용차
##120
##ich
##당선
##조심
##동원
##ub
##uk
##429
##감정
##때때
##처치
##간판
##for
##XQ
##카메라
##망청
##봉투
##벌레
##없음
##턴트
##배우
##컨대
##앓이
한다구요
경제인
다른지
다른가
지역인
128
들어내
정보국
전화기
의무대
장애아
가장이
가정집
가정주부
안전망
세계인
올라와서
중요시
자동화
cooper
사무장
지켜줄
지켜온
은행장
정당행위
준비서면
영업시간
내려온
##idx
선택제
버스비
버스전용차
시청료
형사법
살아간다
밝혀져야
항공편
보수가
##스트라
사라진다
입원비
무기한
동일시
고려대
건축주
내부자
다녀와
느냐는
아마존
공산화
빠져들
대형차
##ant
응급처치
신분당선
불러오
연예계
광주시
지휘관
주기도
들여가
영화관
바이나
세워진
유리병
정비창
생긴다고
부적격
물어봐도
빌려줄
나아졌
보인다는
드릴게요
도망간
모를까요
소지자
주사제
농업용
벌어들이
##ise
기념사업
주체사상
방사선
소수자
어지러
##보험공사
걸린다고
제게는
##276
헤아리
공모전
둘러싸
##ack
수상자
다닌다고
망가져
스토리
이루어진다면
안경테
김포시
은퇴자
나랏빚
권위주의
앞세우
고모부
강동구
학점제
찾아와야
스티브
고마운
담배꽁추
앞당겨져
예금보험공사
오락가락
전대통령
국유지
한다던지
불거진
디젤차
신성일
천연가스
쏟아부
시시때때
묻혀야
서기관
연세대
인감도장
1951
대항력
관세청
배부르
배부른
빼돌려
사들였
별의별
에이즈
틀어막
joong
납세자
선심성
두들기
스테그
직선제
plink
고아원
드나들
휩싸였
장례식장
방패막이
하남시
그럽니다
매립지
부턴가
집진기
대들보
박주민
칭얼대
안쓰럽
open
숨죽이
요식업
프로세스
광개토대왕
NHK
고농도
승강기
지저분
난도질
메신저
파파라치
급정거
백악관
뺑뺑이
신당동
혐이없음
선입견
어벙이
정용선
짜장면
흥청망청
수쿠크
호들갑
장기근속
HTML
내집을
뇌경색
뉴질랜드
몰염치
박범계
사은품
석고대죄
신탄진
십일조
직간접
코메디
버스전용차로
520
ABS
NIS
SS
Un
YG
am
bi
best
drive
happ
jw
mt
query
ㆍ교부
가실
각국
각계
간도
감투
값비
거점
게으
결말
고여
고약
골반
공구
공법
과로
관급
광안
교전
교내
구여
구구
구덕
국인
국보
국궁
극빈
금산
급인
급수
기법
기정
기종
기질
기입
길렀
김어
까마
꺼져
껍데기
꼬시
나을
나란
낙오
난지
날까봐
났으면
낯선
내로
내준
냅시다
넘나
년수
논술
높인다
뉴시스
는개
늘린다고
다나
다란
단추
달인
달료
당기
당분
당구
당직자
더랍니다
도맡
도면
도안
독방
돌볼
돌팔
동수
동급
돼도
되새
둔화
뒤따
뒷바라지
들였
떨림
라나
라벨
랭킹
런던
려야
리얼
막판
말귀
맘놓
매력
멜론
명운
명찰
모가
모셨
무니
무진
무담보
문물
미관
미행
미끄
민변
밀도
바꿉
박소
박차
반신
반격
밝힙니다
방만
방편
버들
변할
별지
병상
병든
분자
분만
분별
불어나
불분명
비비
비무
비축
비젼
빈손
뿌린
사신
사제
사양
사귀
산물
산악
산둥
삼척
샘플
생체
서글
석지
섞여
선산
선점
선착
설이
섬유
섭외
성사
소동
소추
속일
손대
송전
수중
수금
수취
순방
스태
슬라
시초
시궁
시피
시어머니
식은
식자재
신안
쓰시
쓴다면
씁니까
씨알
아쿠
아찔
악수
안상
안티
안다고
알린
알레
알미늄
앞길
애미
애꿎
액션
야마
야죠
양손
언덕
얼만
얼렁
엇다
에프
엑소
역모
역습
연상
연임
열지
염의
영천
영달
예원
옮겼
옵소
왔으며
왕십리
외근
외박
욕실
우등
우가
유보
유모
육사
윤석
읍참
이언
이겁니다
이세상
인본
일파
일률
일곱
임업
입문
입도
입비
자대
잔여
잡힐
장동
재주
재작
저금
저격
전격
전봇
정운
정유
정우
정돈
정봉
정략
정교사
제장
제회
존칭
좌초
죄의식
주라
죽여서
준법
줄였
중학
중한
쥐어
지고
지반
진데
진척
진원지
집세
짝사랑
짤린
쩔쩔
찌꺼
찔리
차근
참관
창립
채납
책자
청경
청주시
초상
초임
촉발
총재
추문
추미
충언
취향
치여
치하
컨디션
콩가루
쿠팡
쿵쿵
클린
킹크
탈피
터미널
통고
통념
퇴비
파티
파벌
판다
판교
페널
페청산
평론
폐간
폐륜
풀풀
플라
플래
피난
필두
하사
하드
하란
하단
한중
한달
함구
항구
해가
해약
해남
했을까
현저
호적
호로
호스
혼한
혼수
화주
화단
화내
황색
회색
효자
휘둘러
흐를
흔치
흥국
흥행
희석
히터
##사이
##규정
##산역
##IO
##고시
##마니
##마속
##발림
##어사
##어났
##부동
##260
##방송
##방편
##정리
##정예산
##통행
##경정예산
##레나
##거름
##cd
##하게
##식당
##심증
##꾸역
##준다
##타분
##모아
##안일
##루토
##85
##814
##복리
##내기
##윤리
##텐데
##본부
##곡동
##멸감
##망신
##망상
##효과
##ᆢᆢ
##추어
##벽력
##Kind
##푸스
##월드
##😭😭
##봅니다
##옵니까
국민주
2023
대한축구
해서든
그런다고
청원경찰
아이유
아이폰
급여액
이용료
이용객
다가와
정신줄
따라다
자유주의
주택지
1950
1948
려고만
15000
00000
미래도
드리블
소리치
바라볼
사무처
국내선
보여도
252
여야만
1300
은행원
공공복리
1400
추가경정예산
기다린
우선주의
1700
165
167
고등어
돌아와서
살인죄
직업훈련
신경질
008
합의서
유치원생
체육부
돌려서
이사로
공급자
김정일
##tive
흡연실
달라져야
궁금증
국채보상
주거비
위법성
295
이기홍
나올지
3623
소방대원
일방통행
대전의
##eneral
358
##ould
이래야
area
시켰으며
정원수
비행금지
차단기
느껴야
생존권
하락세
생겨야
인공호흡
KTL
오른손
스러우
어떨지
기울여야
피부과
임시방편
상속법
선동렬
부적응
세무사
##ary
##ark
나아갈
법조윤리
노선영
도망갔
##ital
체포죄
떨어진다고
##186
고리대
운송업
과도기
유사시
벌어먹
손가락질
측정기
나빠져
영구히
의뢰서
들어간다
전해들
걸어야
상공인
고스톱
힘드신
몰래카메라
보관증
쓰러진
미납금
부러진
가려내
실효성
늘어난다
휴무일
신중히
멍청이
위함입니다
필터링
절도죄
부딪히
저작권
##756
유인물
결단코
재해자
줄어든다
싸이월드
멤버십
배기가스
일회용품
xxx
바꾼다고
은평구
국유재산
냐면서
까다로운
떠올리
떠올랐
시그나
플랜트
단호히
GPS
뜯어내
크로스
괴롭힌다는
##ㅠㅠㅠㅠㅠㅠㅠㅠ
주저앉
과반수
다기에
면세점
시흥시
노라면
만신창이
목욕탕
사탕발림
카운트
인플레션
THE
all
about
초토화
경공모
청천벽력
몸부림치
불출석
찌푸리
탁아소
떵떵거리
선후배
전업주부
최상위
영안실
졸음운전
동인동
반지하
CNN
시발점
유부남
csidx
endPage
mbn
said
머릿속
꾸역꾸역
무감각
이완용
이화여대
##times
강기정
디테일
원희룡
증손자
집배원
NISX
값비싼
김어준
비무장
시궁창
식은땀
알레르기
옵소서
읍참마속
전봇대
찌꺼기
추미애
퇴비사
##루토늄
대한축구협회
국채보상로
비행금지구역
Ac
Cw
MN
MD
ST
TN
TF
TR
TX
bq
bul
cID
et
ec
eG
ef
gv
he
ic
nG
pF
page
pID
rec
res
sur
un
wr
ㆍ운
가당
가열
가늠
갈매
감식
감에
강단
개봉
개살
개떡
거북
겨를
견직
결핵
경적
경전
경진
경증
경색
계도
고저
고하
고종
고열
곶감
과오
관직
관도
관두
관망
광산
광경
교직
교시
교단
구라
구출
국도
군자
귀책
그자
극기
근심
근태
글구
금명
급구
기려
기물
기수
기체
김미
깔창
꿋꿋
끙끙
나미
나았
나란히
난다는
난다면
날지
날릴
남산
남쪽
내란
낸다면
냐니
네비
노영
놀렸
농경
놓쳐
늘린다는
다듬
다칠
단두
단숨
답사
닷컴
당대
당면
당근
당최
대소
대서
더디
덤비
데시
도저
도트
도정
동도
동계
동동
동대
동과
동업자
됐었
두목
둔다
둔다면
둡니다
뒷짐
드시
드럼
드린다
들러
들썩
들린다
등용
따구
따갑
딸랑
때가
떠서
뜻깊
라야
마일
마그네
만전
말레이
맘대로
맹목
먹일
먹먹
먼요
멍이
메우
메꾸
메리트
면밀
모일
모터
모멸감
목상
목동
목매
문용
미창
민비
밀착
밑거름
바야
바도
반시
반반
반입
방임
배열
배양
백날
번다고
벙어리
벼슬
벽돌
변신
변상
별말
병마
병과
보듬
보물
복제
본점
본말
볼거리
봉합
부응
부쩍
부숴
분업
분뇨
분해서
빌릴
빠집니다
뽑힌
사막
사파리
산청
산화
살린다
삽시
상병
상접
샤워
서랑
석연
선상
선교
선회
성가
세트
센티
셔츠
소건
속국
솔루션
수건
수렁
수산업
숙청
숙원
순직
순번
술시
숨지
숭고
쉐보
스터
습성
승낙
승급
시지
식약
신라
신시
신정
신종
쏠리
쑤셔
아현
아옹
아낄
아레나
안마
안구
애시
애호
애플
야합
양진
양면
어용
어럽
어음
얼어
엄밀히
에볼
여진
여간
여생
역세
연제
연약
열흘
영변
영입
예절
오이
오물
외우
요추
우지
우연
우로
우릴
우매
울릉
울려서
원점
위아
위촉
유자
으름
이탄
이륙
익히
인문학
일손
일언
일장기
자화
자구
자필
자폭
잡스
잡종
잡아내
장중
장판
재갈
재워
재제
재추
저촉
전말
젋은
정순
정은이
제치
제산
제니
제동
조르
조아
조준
족장
주원
주진
주안
죽지
준거
줄곧
줄라고
증산
지려
지켰
지라도
지냅니다
진천
질투
집구석
짜여
찌들
차서
차질
차려서
차세대
찰나
참나
천민
초진
총살
총칼
최강
축복
축척
출현
취사
치만
친다
친전
친애
코원
쾌감
퀄리티
타고
탈수
태울
태클
텅텅
테마
텐센트
투옥
트여
트라
트레
특구
파나
패지
팽배
퍼뜨리
편해
편승
폐로
폐병
포격
포진
포토
포퓰
표본
플루토늄
피운
피랍
피골
하노
학예
한갑
한옥
할땐
해줍
핸즈
허접
헤매
헤쳐
현물
호감
호식
혹자
혼혈
화산
화교
환매
환갑
회귀
후인
훼방
흔하
흡입
##인종
##리스
##사일
##만장
##TP
##Tdm
##CA
##래스
##셔츠
##서리
##서풍
##지옥
##선거
##eW
##다툼
##운다
##데없이
##마이
##마킹
##국가
##어집니다
##무시
##부분
##ik
##상실
##투자
##시공
##방지
##방향
##정책
##나요
##나가
##93
##진창
##결제
##put
##ven
##대기
##대접
##디스
##쓰기
##크스
##설수
##gye
##버렸
##는지
##미사일
##84
##Gc
##급식
##내려
##내렸
##혈증
##카락
##코드
##돌이
##Seq
##슬금
##KS
##xey
##월일
##웁니다
##렉스
##뚱땅
한다든지
내용물
기관차
서울특별
개인정보
학교장
114
118
일본식
1979
검사원
157
182
치료법
수도관
미래인
산업체
지나갔
더니만
개발자
기술보증기금
지켜봐야
지지대
시험지
엄청납니다
자격상실
청소부
내려라
기다립니다
관심사
무시무시
빨리빨리
전기금
려는지
돌아간다
희망찬
230
213
만드세요
쓰레기장
머리카락
넘어섰
스트리
전자파
보수당
대기실
어떠신
차이점
아닐런지
생산량
224
양심선언
공제금
의문점
고려가
2844
으라니
하늘나라
화장장
등급제
아마추어
##ore
경영인
통일부
배상금
시켜야만
응급차
##127
겨울날
그럴려면
고위층
버린다는
움직였
##oul
들여야
안내도
어려워졌
생겨났
심한데
##107
미친놈
##804
유명무실
그랬던
기계음
보냈으나
이중인
부리기
예술계
제작진
국립대
물어본
##904
빌려간
버려라
4300
저질렀으니
데려다가
공포심
소지품
위로금
충전기
무상급식
고리타분
내세워서
도심지
일어날지
input
기아차
1195
부추겨
전해졌
어긋납니다
전공의
걸어왔
viewer
소원인
피우진
##osp
1989
건너가
기다려라
기다려도
대학원생
저질러서
##174
엉망진창
주문자
치우치
망가뜨리
##00000000
##369
노숙자
하수도
다스려
##ign
무사안일
수지구
아껴서
이윤이
잃어버렸
기증자
운수업
무효화
##ssss
내정자
버텨왔
파헤쳐
장로교
##ateg
live
수영장
마침내
축의금
풀리지
doctor
##관리위원회
segye
두드려
스튜디오
우스운
풀려나
암사동
뒤쳐질
enc
이적죄
당해야만
시리즈
돌이켜
돌이킬
이정미
사우디
오세훈
오세종
외지인
정재훈
어버이
풍지박산
프린터
PRC
박상기
포지션
510369
결손금
김제동
정동영
흐흐흐
SRT
고학력
국과수
기막힌
암행어사
스트립쇼
뇌졸중
ESS
oqeW
가본적
자생력
활주로
content
슬금슬금
이뻐서
중장비
농작물
맞물려
불상사
오케스트라
주먹구구식
이선옥
총체적
곽상도
벤치마킹
아티스트
원판결
피보험자
##ublic
##XQxey
당분간
얼렁뚱땅
인본주의
한달전
362370
MNET
TXT
bqng
eGef
gvXQxey
nGGc
pFL
단두대
단숨에
데시벨
말레이시아
문용식
쉐보레
식약청
애시당초
얼어붙
에볼라
울릉도
위아래
으름장
이탄희
재추진
포퓰리즘
gvXQxeyTdm
390
530
630
680
799
Al
BD
DC
IN
ML
OB
Rep
Su
We
categ
min
out
ps
pol
qb
qna
sort
vol
가여
간데
감경
강퇴
개종
개망신
건성
걷힌
검의
게라도
경희
경면
경산시
계리
계발
고신
고운
고공
고달
고난
고혈
고추
고된
곱창
공복
공회전
과적
과병
곽정환
구기
그레
그쳤
기치
기점
기제
기약
기삿
김선
김연
김상
김유
김광
김웅
꾸민
나다
나돌
나왓
나옵니까
낙선
낙상
난처
남미
남친
냅니까
노비
노가리
눈속
느닷
능동
능욕
니트
다중
다달
다님
단칸
담화
담담
대등
대조
대명
대할
대담
대퇴
대잠
더미
덤프
덩달
데기
도다
돌발
동래
동문
동요
동우
동식
동단
되짚
된장
두아
둬서
뒷배
드문
득세
든다면
들인
들릴
들으며
디즈니
뜹니다
라가
락스
랑의
래나
레벨
로다
리니
립도
마셔야
만사
만무
말길
말년
맞겨
매겨
매카
머지
메이드
멸망
명기
모성
모다
목도
몸집
못나
무슬
무협
무교육
무보험
무허가
문상
문양
물정
미네
미필
미칩니다
민자
민관
밀치
바꼈
반일
반달
밥줄
방자
방청
방류
배지
밸류
버지
버전
버틴
벅차
벅찹
번갈
법질서
변변
별생각
보리
보지
보드
복학
봅니까
봉착
부치
부칙
북괴
불길
붙인
붙였
비둘
비산
비굴
빈약
빈자리
빗발
빠를
빨아들이
뻔했
뿌듯
사니
사달
산적
살돈
삿대
상전
상훈
상차
샘물
서점
서귀
선지
선과
성함
성주
성급
세이
센스
소릴
소스
소셜
소똥
쇼크
수서
수형
수력
수녀
수밀
숙의
술값
쉬울
스로
스며
습기
승선
승격
승률
승복
시데
시오
식과
신화
신물
신앙
신검
실까
실속
실버
심제
쌓였
쏘아
쓰여야
아카
아셨
알츠
야된
어림
어색
어필
억측
얻어
얽힌
엄동설
여교사
연중
연줄
연주
연골
열광
예컨대
오창
오거
온유
와인
와우
욕은
용달
용비어
울음
원안
위세
위쪽
윤종
은혜
음의
의성
의병
이데
이가
이니
이로
이타
이설
이겼
이룬
인인
인스
일컫
일궈
임진
입혀
자인
자채
자갈
잔소리
장막
장내
재로
재질
재투자
저려
저곳
저럴
전법
점용
정이
제인
제멋대로
졌으니
조경
조퇴
조짐
종기
주술
준다니
줄임
중등
중임
지운
지근
직행
직봉
진저
진경
질지
짤릴
쫒기
찝찝
차갑
찬물
참아
처가
처제
철제
철책
청결
체로
체당
체질
체코
초저
초도
초인종
추잡
추간판
출도
출하
치자
치지
치른
친형
친해
캄보
캠퍼
코골
코끼리
큰데
클레
키는
타개
탄식
탈로
탈바
테레
토사
토트
토해
퇴색
퇴폐
특유
틀려
파문
팔자
편가
펼친
포도
포승
폭격
폭주
폭정
프라
프랜
플로
플랑
피신
피트
피나
피크
피멍
핀잔
필적
하질
하염
하느
학우
한기
한우
함광
합해서
항이
해낼
해코
해놨
행군
헤메
현질
호매
호헌
혹독
혼의
혼외
혼돈
홈스
홍남
화근
화풀이
황망
황폐
후자
후면
희롱
힘껏
##야지
##사무
##자동
##CS
##지종
##IT
##IP
##EL
##마스
##가게
##막지
##학습
##순위
##항력
##부진
##sl
##당략
##아웃
##아닌
##이동
##천리
##천만
##천가
##동욱
##올로기
##바르
##스키
##731
##대장
##하이머
##참다
##우편
##ro
##크톤
##YP
##버린
##질러
##간호
##PL
##BK
##와라
##키스탄
##골목
##랭이
##혁명
##컴컴
국민카드
국가관
그리워
그런가요
109
민원사무
한국감정
행정절차
교육대
조사원
정신력
나오지
장애물
기준치
검사장
외국산
159
사이즈
기본금
동의자
수도권
공개념
그만둬야
올라야
code
고용자
바라봅니다
사무총장
지켜도
지켜봐
보상비
영업장
청소차
내려왔
148
으나마
인사과
인사이트
행사장
걱정거리
172
173
감독자
고발장
살아라
235
가져갈
##ine
강남역
밝혀져
항공권
저지를
연구비
이사의
스트레
부정행위
인력난
졸업식
괴롭혀
226
삼성증권
훈련장
달라집니다
편의주의
예정지
떠나보
280
알아듣
불가항력
274
봐야지
으려니
져야할
감정가
290
무서울
대형선
에너지원
소방청
##126
그럴싸
1991
고위급
고위험
뿌리깊
다름아닌
움직입니다
정지선
생겼어요
모자르
생겨도
느라고
이어야
불리우
등기우편
추천서
스러워서
them
는대요
출퇴근길
고쳐서
0200000000
340
올렸으나
040
가로채
부인과
생긴다는
모의고사
배달원
물러서
SKY
보낸다고
비대칭
중대장
벌어들인
무지막지
체험학습
위장취업
진입로
번지르르
들어간다고
동남아시아
그랜드캐니언
놀라울
##274
텔레비
635
봉급쟁이
now
농산어촌
상하수도
전월세
아름다
##456
지상주의
치우쳐
구멍가게
재수없
처사가
부끄러워서
임종헌
짓밟히
취임사
어울려
신도림동
##796
커피숍
재배정
도급제
떠오른
튼튼히
파란불
어두컴컴
전임자
##hinese
잊혀져
관악구
##자치단체
입안자
##ational
가져다줄
누설죄
지으려고
떠올려
아랫집
포스코건설
배고파
김재열
공탁금
소독차
덧붙였
내각제
show
사들인
수탁자
NLL
뜯어고
보여준다
320904
320731
무법자
피로감
spq
seoul
불입금
갈아입
갈아엎
##플레이션
전교조
김종필
놀림조
비아냥
학부형
누진세
청취자
00105
내보냈
놀러갔
여호와
서지현
자초지종
##ake
재가동
dirId
다뤄야
자수성가
구내식당
다분히
휴전선
터트려
16269
16268
숙박업소
당리당략
백지화
이국종
황희석
201812260
다년간
외할아버지
급상승
##광역시
186174
나팔수
참다참다
edge
각별히
뒤흔들
어때요
오스트리아
파시즘
like
고독사
나부랭이
생화학
수간호사
암투병
월평균
이원화
흡혈귀
##letin
보균자
페트병
바꿉시다
선착순
안상운
유모차
쥐어짜
358276
고리대금
bulletin
ㆍ운영
개살구
노영민
마그네슘
애호가
284411
##ospital
기삿거리
눈속임
단칸방
무슬림
벅찹니다
비둘기
서귀포
수밀문
쏘아대
알츠하이머
야된다
엄동설한
오거돈
용비어천가
이데올로기
코골이
탈바꿈
토트넘
편가르
플랑크톤
하염없이
하느님
해코지
혼외자
홍남기
한국감정원
470
460
413
540
560
513
740
9000
920
AR
CF
DTI
HE
KE
LNG
OS
ORI
St
ad
general
hospital
per
sy
sis
ㅇㅈ
ㅡㅡㅡ
가감
가서도
각료
간이
갈고
갈까
갈라지
갔으며
강회
개짓
거칠
걸기
검장
겨루
겨냥
견도
결원
경종
계몽
고초
고고
고파
고뇌
곤의
곤욕
골격
곳간
관보
관건
광우
구천
구합니다
권성동
귀결
귀빈
규범
극성
글귀
금원
금과
급선
급체
기해
기혼
기달
기암
김신
김주
김밥
깁스
까발
깨우치
깨어났
꺼꾸
꼐서
끈질
끊긴
나고
나발
나주
난관
난로
난간
난데없이
남재
남원
남해
남일
남충
납니까
내규
내미
내림
내근
내딛
내뿜
내린다
노전
노통
녹조
논산
논할
논평
놀아
농어
누드
누우
누렸
뉴딜
는단
능이
니만큼
닉네
닙까
다인
다라
다라고
다더군요
달서
담화문
당인
당명
당락
당긴
당합니다
대당
대범
대일
대감
대민
더위
더이다
덜덜
도라
도통
도림
독대
돌린
돌봐야
돼냐
두환
들으니
등신
디딜
딴지
떨치
떼돈
똘마니
뚫릴
뚱뚱
뛰놀
뜨겁
뜯기
뜻뜻
라든가
렀다
려도
령도
로마
리원
마네
마일리
막자
만근
만류
말문
말미
망막
망명
망칠
망쳤
맞기
맞음
매직
매너
매몰
맴돌
맺힌
먹였
멍들
며는
멸종
명인
명은
명문화
모는
몰린
몰레
몰입
몸무
무도
무화
무공
무거
무안
묵시
문법
물자
미적
미션
밀렸
바칠
바쁠
박해
박과
반한
반강
반칙
반가운
발단
발끝
발췌
밥상
방공
방광
방망이
배석
백신
백서
범벅
법사
법전
베가
변이
병자
병영
보네
복개
복역
복음
본적
본원
본전
본토
볼땐
봐주
부축
부랑
분무
분권
불금
불공
불타
불빛
블락
비지
비즈니
빈둥
빌보드
빙빙
빠트
빠트리
빵집
빵빵
뿌연
사탄
사복
살린
살벌
삼청
삼류
상거래
새요
새빨
생필
서러워
선장
선친
성비
성병
성행위
세전
세집
세척
셨었
소행
소심
소박
소련
속옷
손절
손톱
송무
송정
쇠퇴
수협
숙식
순항
술판
숨겼
쉬우
쉽사리
슈팅
신촌
실실
실례
실랑이
싱크
싸구려
써요
쓰임
아그
아연
아바
아둥
아낌
안치
안목
암호
압축
야망
어치
어자
어당
언사
엎드
여우
여단
역자
역경
연변
연극
염장
였었
영진
예치
예보
예뻐
오마이
옥션
옥답
온실
올꺼
옳바른
완강
왔다
왔어요
외신
외관
외벽
요로
욕한
용적
운다고
울주
원더
원생
월간
월액
위도
위키
유추
육상
윤태
은대
을라고
의중
의경
이청
이요
인줄
인낙
일러
일차
입학생
자상
자결
자력
작사
작작
작살
잔고
잡도
장도
장구
재실
저마
저능
전유
전차
전근
전광
전셋
전주시
정조
정현
정례
제실
제복
제몸
제와
제척
져라
졌으며
조삼
조류
종손
종원
죄상
주석
준엄
줄서
중사
중화
중이
중차
중후
중얼
지성
지중
지병
지엽
지킴
지쳐서
진접
징후
짝퉁
쪽지
찔끔
차시
차디
차림
차츰
착실히
참견
창동
철판
철탑
첫발
체비
체재
쳐들
쳐내
초원
초법
초안
총부리
총동원
최장
최루
추한
추앙
충치
치민
친인
코자
큰딸
타시
타박
탄현
통진
퇴보
퇴행
투척
특공
특급
티머니
파국
파병
파단
판넬
편협
포로
포집
표로
표절
풀기
풀이
풍비
프래
피민
하구
하네
하얀
학군
한규
한눈
함양
해자
해병
해줄
해칠
행법
허익
협소
협착
호서
호시
호대
호크
혼합
홀딩
홍장
화로
화염
화강
후불
후드
휩쓸
흉물
흙탕
힘주
힘차
힘입
##인물
##직입
##사전
##사건
##자루
##자찬
##신문
##기념
##서는
##54
##보다
##산리
##산읍
##재주
##EN
##ES
##다듬
##까리
##데리
##데미
##마리
##개골
##연구
##연수
##구치
##구조
##어트
##오리
##로이
##로나
##부족
##부담
##불만
##ium
##se
##조정
##이치
##시안
##나니
##나절
##te
##tx
##점검
##결백
##ob
##ations
##바둥
##700
##pl
##실험
##대가리
##하여야
##rp
##차근
##차이즈
##위반
##크라
##OR
##gu
##수정
##bk
##매장
##모션
##런스
##급부
##널드
##입국
##에나
##fo
##석기
##광고
##숭이
##MW
##친다고
##팔트
##폭풍
##냅시다
##딱지
##ㅜㅜ
##탱크
##셀로나
##댕이
##뭉실
209
라고는
2018101
한국은행
사회인
아무짝
교육자
관리직
조사의
민주공화
들어섰
정보원
정신없
307
따라갈
대표인
장애자
193
1913
1945
검사소
예산군
153
158
안녕히
지난날
##다면서
안전도
반대급부
수도세
올라올
이루어집니다
고용인
투자처
바라기
심각히
지켜질
409
중소형
131
132
목적물
접수처
상대편
내려갈
내려갔
위험천만
144
전문점
프로모션
회의실
도로교통
돌아서
자연인
236
설명서
신경과
가져왔
2400
조선인
국제법
찾아봐도
사랑과
합의체
성장도
돌려야
이사건
넘어져
징역살이
계산대
돌아가실
인식표
최대치
일정액
달라이
공인회계
직무급
30000
277
투표용지
자치구
선고유예
유기농
##orld
297
2980
이기도
무서움
배상액
##ange
##ance
매매혼
나머진
보육원
홍보가
일으킵니다
안타까웠
##oug
##ound
지적도
감염자
45267
계신데
살펴본
매장이
어려워집니다
세워져
일제히
이어집니다
비상벨
유리창
정비소
김송은
영세민
압박감
공고문
연기자
들어와야
ㅠㅠㅠ
3425
빼앗겼
챙겨야
이중고
심해져
042
심리치료
물어볼
8002
부실시공
##ild
##ilbo
휴게실
보낸다
하이에나
전면전
농사지
소액결제
만료일
생길지
앞장선
오랜만
##ture
시끄러운데
부추긴다
남겨진
방어선
몰려오
몰려들
상위권
당첨금
서명숙
조원진
당국자
469
무력증
세탁물
되돌리
되돌릴
공중선
응시자
##uman
잠재력
##apan
부상자
들어온다
##민주당
구의역
신입생
##ace
부러져
소멸시효
다이어트
비웃음
바르셀로나
안경사
##16796
부끄러웠
오만원
우월감
내몰려
##341
##3420
참가자
웃음거리
이뤄지는
외상값
불평불만
기차역
##ult
최우수
터질지
##aff
인민재판
인민공화
고마워
떠오릅니다
죽인다고
괴로웠
백수가
뻔한데
어두워
ICT
수감자
간신배
영등포구
YOUR
부재중
도살장
바꾼다
합쳐도
줄인다고
줄인다면
부녀자
숙련자
관람료
거니깐
버텨야
우방국
##ree
천연기념
이어져온
휘둘렀
킬로미터
예수교
인신매매
where
which
신지요
외환죄
fact
어긋난다고
노년층
##9487
동북아시아
광명역
잡아떼
거스르
없앤다고
초음속
할부금
휘말리
돌아다녀
이어진다
그래픽스
##ource
주재원
환상곡
미워도
스피드
싸운다
치러야
피지컬
THAN
사우나
그럽니까
김진태
수선비
짤라야
슬퍼하
열등감
하여튼
심상정
고물가
아스팔트
어버버
프린트
무성의
수화물
##LING
이길수
장차관
몰지각
무모한
미신고
브라질
##10216796
##ㄴㅁㅇㄴㅁㅇ
순국선열
헤드라인
##으리라
계량기
군위군
뜬금없이
AFC
멘토링
##리케이션
가차없이
단도직입
인진술
최정민
##assage
얼버무리
얼룩진
허경호
혜화역
미취학
불면증
##form
극빈층
재작년
차근차근
페널티
TNR
스터디
자화자찬
짜여진
타고난
학예사
##80410216796
이중인격자
Sunday
category
경희대
느닷없이
동식물
아카데미
캄보디아
프랜차이즈
##자동차
광우병
닉네임
몸무게
비즈니스
새빨간
생필품
아둥바둥
제몸을
중차대
체비지
최루탄
풍비박산
허익범
협착증
홀딩스
201810180410216796
민주공화당
도로교통공단
공인회계사
298087
342568
인민공화국
천연기념물
418
616
770
760
911
960
BMW
COU
CIA
EN
Fr
Fail
JYP
Lt
Of
OD
Post
TOD
WM
adm
bbs
gm
human
if
over
post
today
ud
vre
wik
ㅇ일
ㆍ공정
가문
가히
가주
각설
각박
간결
간수
간교
갇히
갈기
갈음
갈리아
갈아치
갈려는
감치
감전
감은
값싸
강등
강박
갖출
개각
개교
거둘
거름
걷히
걷잡
걸으며
검지
겠다고
겠다는
견책
결속
결집
겸하
겹치
계명
고이
고경
고점
고처
고쳤
고친
고임금
곰곰
공실
공허
과당
과포
과수원
관중
관문
광의
광대
교산
교량
교무실
구서
구이
구렁
국법
국권
국호
군장
군납
굳건
궁외
궁굼
귀여
귀촌
근황
근검
긁어먹
금토
급과
급변
기왕
기와
기류
기쁜
기뻤
길목
까스
꼭두
꼽히
꿈틀
끊기
끝나
나지
나비
낙서
난국
난립
날것
날카
남도
남남
납기
내분
낼려고
노린
노이즈
녹여
논거
눈가
뉘앙
느슨
는답니다
늘이
늘린
늘어진
늘린다
니스
님비
다제
다크
다워야
닥칠
단주
단면
단편
담기
담의
답보
답습
당혹
대초
대분
대파
대유
대식
대모
대내
대뜸
대낮
댄다
댕이
던졌
도수
도미
도외
도내
도이치
도널드
돌연
동복
됐으며
두둑
두배
뒤처
뒷걸음
떨칠
뛰쳐
라이프
라더니
레전
레드
렌터
렵니다
로마자
리딩
리포트
만찬
만끽
말썽
말다툼
망발
망해서
망나니
매가
멍멍
모란
모음
모가지
목구멍
몰릴
몰살
몹쓸
묘역
무술
무당
무제
문다
문항
문공
물뽕
물탱크
미르
미공
미생
미확
미얀
민형
바구니
박형
반나절
발치
발탁
발바닥
밧데리
방재
방방
방황
배나
백원
백해
백병원
번창
법복
벙거지
별일
병도
보아
보스
복부인
본업
본명
부셔
부전
부곡
북이
북면
불시
불꽃
비만
비문
비뚤
빈대
빈틈
빌빌
뼈아
사갈
사권
사활
사조직
산자
산분
산채
산산
산길
산골
살렸
삽시다
상국
상은
상수리
새워
새삼
생소
생수
서신
서방
서남
서슬
선영
선금
선원
선두
설상
설자리
섬기
섬나라
성고
성불
성결
성재기
세라
세유
세째
셨잖아요
셰어
소린
속성
손질
손꼽
송인
송부
수드
수변
수성구
숙고
숙일
순도
순이
순전히
숨길
숨긴
쉴드
스쳐
슬슬
슬쩍
습의
시자
시판
신사
신안군
실은
실검
실려고
실마리
십자
싸잡
쏠려
쓸개
씨도
아리
아비
아전
아수
아메
아낀
양아
양호
양복
어물
어휴
어종
어젯
언쟁
에고
여한
여념
역도
역증
역기능
연유
연급
엿장수
영치
영정
영남
예사
오더
옥천
옥살이
온천
와일
왔으니
왕의
외로운
요란
요령
용정
용수
우발
우군
우즈
우량
워싱
원지
원격
원아
원세
원위치
월말
위중
윗물
유한
육안
윤배
으십
윾튜브
을려
을가
의증
의안
이양
이너
이쁜
이북
이맘
이정희
이착륙
인선
인방
인에
인석
일직
일후
일찌
임관
잉태
자다
자급
자편
자구요
잔머리
잘려
장서
장터
재비
저보
저울
저려서
적다
전향
점멸
정희
제부
젤리
졌어요
조끼
족히
종소
주례
줄까
중생
즉사
증차
지한
지참
지새
지뢰
직통
진중
진절
질려
질적
집지
집고
짖밟
짤려
찍혔
찢어진
차만
차분
차린
차남
차녀
착륙
찬사
창작
창촌
채동욱
챠트
처남
척이
천시
천정
천심
천에
철철
청조
초조
초창
총의
총량
총책
최재
추출
추론
추켜
축출
췌장
취학
치대
친근
침례
칩니까
카달
커져서
컬링
코리
코피
코딩
콘돔
쿠키
쿠폰
타파
탁의
탈선
탈구
태블
털리
털어놓
테라스
토토
토박이
통이
통역
투사
트랙
티끌
팔굽
패드
패혈증
퍼줄
페넴
폐포
폐교
표류
풍습
피소
피웠
피한
피디
피켓
피살
피검
필사
핑개
하한
하룻
학설
한민
한수
함장
합사
합친
핵우
핵폐
핵미사일
핵실험
행실
행렬
향유
허상
허은
허허
헌팅
헤치
헤어진
헤헤헤
혈관
호객
혹세
혼동
홍제
홍예
화서
환송
황조
회자
후미
후폭풍
흉부
흐린
흐릿
흑인
흘르
흠결
흩어져
힐링
##소개
##사태
##성전
##청사
##AS
##Type
##적법
##래요
##기구
##기물
##서류
##도록
##트럭
##EM
##doc
##daily
##nal
##총액
##어내
##오줌
##순간
##무민
##맹이
##당당
##조치
##조카
##시대
##정대
##정시간
##공노
##900
##944
##진다면
##유지
##스토
##스코
##pp
##pg
##일로
##길래
##ㆍ적법
##ress
##위생
##세프
##휴가
##타당
##yung
##새끼
##bal
##모사
##RL
##800
##건물
##프란
##토토
##LE
##징계
##평동
##PLING
##착오
##갔다
##독부
##섭니다
##귀영
##빠지
2076
한다구
한다더니
20130
이상태
103420
아이콘
그러지
행정학
가지신
그래두
한다고요
인데다
책임진다는
하루살이
115
113
302
보호의
학생회
노동계
##주의자
기준점
미국식
사기질
발전사
동물학
시행착오
사이다
사이드
안전거리
안전벨트
치료실
세계일보
미래산업
지나칠
자동문
알려질
강제력
고용부
바라봐
지켜본
세대주
교통망
교통위반
지지가
지지부진
136
공공시설
위험부담
프로필
구조대
179
16192
고등교육
만든다면
살아간
2300
집행문
집행부
밝혀줄
쓰레기봉투
성장률
넘어져서
광고판
거주민
외교관
청산인
차이나
의심쩍
7080
225
2292
스포츠토토
##ont
삼성그룹
상관도
264
나타납니다
소속감
2700
으라며
구매력
대리모
살려도
055
##leg
애국선열
나올까요
통일교
대형트럭
후보지
가르키
드러냈
소상히
3266
think
##ence
주기만
##ection
고속철도
계신다면
전용차
살펴야
살펴볼
매달려
##303
이웃집
가스공사
회견장
사형제도
등기소
떨어짐
떨어뜨려
오른팔
몰랐다
이뤄져
성적순
무너진다
준다는데
이중주
양산시
민사부
물러가
##9036
분리대
데려온
부평구
드릴께요
도망치
분열증
늘어납니다
달려갔
리라는
농사일
시가총액
##ogram
주무르
흘러내렸
당할지
끔찍히
옮겨야
389487
389036
뛰어드
뛰어넘
48274
good
농지법
간다며
끌어갈
힘드실
too
동아시아
레이싱
무력감
##ose
경상남도
잠재울
경계선
##172
##999
악마의
다닌다는
힘써야
시원찮
유흥주
정정당당
588
이주하
속상해
사단장
납입금
보편타당
어선지
##oll
빈번히
꾸며놨
유의미
눌러서
생태계
천지일보
2019010
천주교인
해져갔
##ther
갖춰야
전신주
즐거워
줄기세포
파트타임
떨어질지
스케일
그제야
만지작
파헤쳐서
갑작스레
김재곤
유영선
미숙아
사들여
졸라매
유니세프
##아리움
750126
근원지
다쳐도
One
반역자
상고심
여객선
되돌아갈
해안가
인내심
##ournal
acc
경인고속도로
어딘지
이직률
##stem
표지판
거들떠
봉화군
어설프
유언비어
정재성
KMS
종신형
##■■■■
하여간
불출마
깜빡이
여중생
움켜쥐
트레이너
트레이닝
##ealth
##LIVE
외할머니
울진군
휘청거리
##🕯🕯🕯🕯
423756
그라운드
유망주
지른다
그리스도
유례없
체인점
깊숙이
버금가
올가미
농수산물
약소국
뮤지션
입출금
주야간
파울루
하층민
뒤집어쓰
한국전력공사
SUV
부드럽
이우현
천인공노
총영사
##429814
되새겨
슬라임
아쿠아리움
정운호
etc
군자금
주원인
하노이
해줍니까
서울특별시장
430090
7993
다달이
심제인
윤종규
장막성전
체당금
호매실
274341
201812260944
급선무
급체포
남재준
누우셨
아바타
왔다갔다
저능아
전셋값
조삼모사
한규현
홍장표
THANKS
COUPLING
Ltd
ㅇ일정시간
갈아치우
구렁텅
뉘앙스
두배로
레전드
렌터카
미생물
박형철
백원우
보아하니
북이면
어젯밤
와일드
워싱턴
진절머리
최재욱
태블릿
하룻밤
핵우산
핵폐기물
헤헤헤헤
혹세무민
229218
201812260944429814
780
990
ATM
BH
CA
Go
It
IP
KC
MC
MYH
No
Naver
You
ag
did
eg
had
ls
lh
must
massage
nav
str
source
ter
us
uid
ㆍ신
ㆍ경
ㆍ대
가네
가닥
가둬
각일
각층
각급
각본
간척
갈까봐
감원
감춰
갑부
강인
강산
강정
강호
개로
개아
개폐
개똥
거금
걸치
걸핏
걸어도
검역
게을
견지
결점
겸허
경마
경범죄
고야
고막
고찰
고루
고엽
곤경
골탕
공경
과밀
광화
교비
교위
구세
국밥
궁핍
권사
귀로
극동
글쓰기
급제
급액
기라
기동
기공
기호
기압
김도
김형
김효
까불
깎아내리
깨물
꼬여
꼴불
꼴찌
꽁꽁
끝낸
끼얹
나두
나불
나대
나태
나체
나쁩니다
난항
난생
날자
날린
날강도
남인
낮춤
낮췄
내치
내자
내실
내심
내받
내놨
내립니다
넘어진
노상
노현
높혀
놓였
놓쳤
놓친
놔도
놨는데
뇌전
뇌진
누린
눈뜬
눈덩이
능자
늦출
달여
달라도
담도
당적
당비
대적
대계
대꾸
댕댕이
더운
도적
도어
도당
도올
독극
돈다
동채
동경
둡니까
뒷담
든다는
들것
들러리
등유
따스
딸기
떠도
떠받
떠벌
뚫리
라지
래스
레인
레슨
레딧
로고
료가
릅니다
리수
리본
리뷰
리뉴
마티
막심
만민
망인
망한다
매해
먹통
명과
모야
모로
목회
목걸이
몰렸
무원
무어
무속
무태
무릅
무턱
무더기
문어
문대
문임
물렁
뭘로
미가
미어
미시
미스
미풍
미룰
민선
밀봉
바주
바뀝
바코드
박대
반품
반월
받으
발등
발라
발작
발끈
방구
방전
방아
방용
방음
방탕
밪값
배아
배때
배틀
배추
백조
버거운
벅스
번돈
벌채
범조
범주
법통
베이스
벼리
별정
별루
병리
병기
보습
보릿
봉의
부금
부결
부식
부망
부푼
북서풍
분후
분탕
불임
붕대
붙들
뷰티
브레인
비시
비수
비번
빌드
빛나
빠뜨려
빢에
빼낸
뻔할
뻥튀
뼈저리
뿌렸
뿌옇
사재
사심
사세요
사재기
살균
살맛
삼중
삼국
삼바
삼겹
상신
상봉
상해서
상수도
샅샅
새싹
색각
샌드
샌프란
생방
생년
서운
서강
서두르
서유럽
선비
선다
설레
성서
성직자
세원
세차
세필
셀카
소임
소량
소세지
소이다
속칭
속죄
속앓이
손익
수자
수발
수박
수련
수괴
수그러
숙려
술책
스킬
스폰
승마
승하
시녀
식적
식수
식견
신이
신동
신교
신림
실족
실익
실렸
심선
심복
심근
쌈짓
썹테
쓸쓸
씽크
아인
아사
아량
아간
아테
아녀
아슬
아다가
악담
알람
암각
앞부분
앞섭니다
야유
양지
양파
양대
양증
양모
양곡
어데
어부
어바
어둔
어플
어쩜
어다가
언뜻
얽히
었잖
에라이
엔비
여명
여겼
역장
역풍
역효과
연해주
열외
영영
영부
영령
오사
오시
오롯
오산시
온당
와대
왕성
외칠
외곡
요놈
용군
용촉
우러
우림
우겨서
웃도
원소
원구
원해
원숭이
월례
웰빙
위나
유성
유식
유심
을런지
의가
의상
의열
이지
이발
이광
익힌
인분
인색
일사
일병
일처
입성
입고
자청
자보
자선
자작
자와
잔존
잡초
장영
장가
장순
장태
장염
재야
재도
재하
잿빛
적격
적군
적어지
전병
절절
접시
접해
정청
정장
정범
정거
젖이
조계
존댓
종량
좌천
좌동
좌표
주웠
주비
주동
주물
주저리
주니어
준혁
중문
증도
증감
지칠
지렁이
진해
짊어져야
짜내
쪽발
쪽수
쫓아가
찢겨
착실
착잡
참신
창밖
채운
채식
천불
철없
첨가
첫해
청법
체중
체온
쳐넣
초치
초빙
최전
최은
추이
추대
추운데
출사
출몰
치장
친권자
카트
카이
카피
커트
커리어
컨대
코믹
콘도
콩밥
크루
크림
타산
탄진
탄탄
탐관
태형
태세
태봉
태워서
택한
터도
텐트
토할
통도
통근
통사정
특경
틀려서
파도
파해
파동
파먹
판타
팝업
팝콘
퍼트
퍼내
퍼졌
페어
페쇄
편차
폐인
포문
포가
폭삭
풀린
풀린다
풍수
프레스
플레
피쉬
핏줄
하가
하복
하객
학번
한족
할순
할애
할께
할멈
할께요
합작
해왔
해볼
해버
해괴
해로운
핸디
했어
행도
향했
향수
허공
허름
허둥
헌병
험담
혜은
호에
혹사
혼전
홍수
화소
화난
화랑
확연히
확성기
환풍기
횃불
회로
회당
횟집
후련
휘두
휴먼
휴직자
흉흉
히고
##인성
##야기
##라장
##라는
##영훈
##CI
##기지
##도덕
##트로
##겨워
##보트
##IF
##wf
##won
##nment
##총독부
##다르
##고개
##러져
##각시
##마비
##연자
##구마
##구름
##가벗
##로우
##로이드
##전쟁
##법이
##무야
##sn
##아보
##이탈
##이야기
##천동
##시요
##동네
##주머니
##정지
##물단지
##uc
##올리
##경부
##ool
##aId
##행사
##길동
##ves
##말이
##하는
##들일
##ㆍㅡ
##rb
##승인
##승호
##날드
##Oy
##OW
##맞추
##모르
##모습
##모비스
##호텔
##RA
##Read
##런트
##korea
##던지
##건영
##간첩
##글거리
##광동
##테크
##양속
##잡배
##SV
##김밥
##베이
##십시요
##텍스
##암동
##흐로
##묘지
##멘터리
##늑약
##펠러
2050
대한간호
한다더군요
다고들
이상행
이상일
그리곤
106
민원서류
아이셋
행정사
행정청
행정법
행정상
이유나
사용법
지역난방
관리원
126
129
127
조사서
개인사
다면은
이용주
들어줄
감사히
이제한
일본어
이러다간
정보력
마음대로
304
따라온
보호관
해당자
기초자치단체
기준일
1918
1972
시작점
가정생활
014
151
15186
지난주
사이렌
0004
00040
환자복
올라간다
가해야
나이롱
거래법
운전병
지켜라
교통카드
선거관리위원회
니다만
135
정당사
공공요금
평가서
146
145
142
143
인사동
인사이동
유치장
유치권
도로는
경쟁자
금지령
나와요
돌아섰
돌아옵니다
따른다고
조선총독부
이자와
##inal
003
전세가
판매업자
합의부
체육인
전환점
넘어간다
던지요
청소년기
광고비
부정과
전체주의
협박죄
상승세
사례금
방문객
222
민족사
수소문
나쁜데
20150
288
현대건설
현대모비스
262
269
감시단
연장선
다녀올
라서요
자본력
모아도
으려다
으려나
호소문
2990
입법권
나올까
도둑년
불러올
어라고
327
3200
##아들여
정해야
움직여야
본사가
시달려서
바란다는
스러운데
수용소
이래라
들여오
고속철
안내서
계신지
대화방
모자른
어려워진
생겨날
##ody
받아들인
수업료
그린피스
가리키
징병검사
정비사
미루기
미친다고
통계청
6500
이럴까
용산구
their
경고문
시정잡배
챙겨서
044
가로수
제작사
질병관리
437
일어난다
긴급조치
보일지
롯데마트
기만행위
기도원
소년원
##ited
##itter
나간다는
표준지
표준어
임원진
환급금
당할까
장학사
기피자
앞장섰
386
부추겼
ㅇㅇ의
끌어들이
김영철
김영옥
끌려갈
끌려갔
밀어부
밀어붙
실내화
##now
여지도
이른다
보관소
잡혀가
청량리역
걸린다는
1986
쓰러졌
asi
때려도
무릎쓰
해군력
버릴까
교환기
부러워
prof
청렴도
청렴결백
가르쳐야
유승희
##트리스
부끄러울
취재진
파출부
대마초
맡겨서
문구점
모바일게임
부딪치
동해안
송영길
##urr
8500
격리실
분신자살
쓰여져
##igation
공범자
아쉬웠
아쉬워
NASA
전남편
줄어든다고
ICO
노리개
갖춰져
사라진다는
김원석
노원구
기관지염
경향신문
대원칙
아랫물
배고픈
집어치
1953
##try
공세동
GPU
사사로운
불어오
어업권
연설문
img
imf
갈라진
갈라져
들으시고
밤새우
유니폼
박영록
분단국가
진다는데
포천시
여수시
##vernment
AIG
책임져라
sport
거미줄
도가니
백두산
넘어간다면
반역죄
외식업
최하층
휘말려
올라간다고
소도시
##시스코
act
굶주리
떠돌이
sub
감리교
수강료
일간지
##공항공사
근근이
로드맵
노란색
마르크스
열기구
합숙소
파킨슨병
튀어나왔
홍석현
##ㅡㅡㅡㅡㅡㅡㅡㅡㅡㅡㅡㅡㅡㅡㅡㅡ
서천군
끌어내린
버거운데
작곡가
터트릴
##ㅇㅇㅇㅇ
끌어올려
떠맡기
헷갈리
고래고래
김민재
초고압
치뤄야
시끄러우
공명정대
불러일으킬
부지런히
yonhapnewstv
고라니
끼어들기
VRSA
가전제품
깊숙히
다큐멘터리
동질감
온난화
을사늑약
출금액
골드만
공청회
삼각김밥
조급증
질식사
가파르
셔틀버스
유야무야
돌려보냈
Article
hankyung
흘러나오
parl
유방암
이강원
장단점
낙오자
넘나들
삼척동자
스태프
이언주
정유라
흐를수록
끙끙거리
바야흐로
증산도
리니지
미네랄
얻어맞
오창성
스트레이트
아름다움
비아냥거리
KEB
개짓거리
마일리지
미적분
봐주지
불공평
아낌없이
엎드려
온실가스
이청원
흙탕물
admin
꼭두각시
미확보
민형사
뼈아픈
설상가상
성결교
순이익
이맘때
초창기
침례교
팔굽혀
##소개소
구렁텅이
navigation
꼴불견
뇌전증
뇌진탕
무턱대
미풍양속
바뀝니다
보릿고개
뻥튀기
삼겹살
샅샅이
샌프란시스코
스폰서
쌈짓돈
암각화
어바인
어플리케이션
이발소
존댓말
종량제
커트라인
탐관오리
태봉국
해볼테
대한간호협회
질병관리본부
440
627
970
924
BA
BBK
CS
CUBE
Chinese
DJ
Dol
GO
HT
Is
Japan
LA
LTV
MT
MM
MW
af
crp
de
dong
ebs
how
kor
ncd
our
other
pp
pid
pal
rep
ss
set
sex
ty
up
vide
will
ywf
♣→
ㅡ정
ㆍ고시
ㆍ점검
가재
가운
가설
가생
가셔야
간요
갈릴
감탄
감가상
갓길
강물
개보
개학
개찰
개진
개과
개척
거신
거요
거증
거림
거쳤
거울
검소
검침
겨누
격상
견고
결렬
경단
경황
경련
계파
고비
고전
고부
고매
고구마
골몰
골머리
공보
공가
공예
공연히
과금
관분
관상
관활
괘변
교주
교우
구등
구박
구설수
국시
국해
국을
국본
군법
군주
굴취
굵직
권미
귀환
귀천
귀감
그른
그니까
극명
금기
급니다
급성장
기출
기내
기댄
기웃
긴다
긴말
긴밀
길들여
김인
김여
김철
김세
까치
까놓
깡그리
껍질
껴도
꼬셔
꼭꼭
꽁치
꿀물
꿔야
끊겼
나위
나폴
나뉜
나쁠
나주시
남군
남조선
났으니
내줄
내력
내와
냈었
냉수
네이트
노니
노부
노랗
높인
높였
놓쳐서
놔둘
누기
누비
누누
느그
느린
늘상
니즈
닙니까
다그
다트
다요
다람
다낭
다곤
다죠
단전
달이
달하
달걀
달린다
담뱃
당산
대못
대덕
대혁명
더샵
덕목
덧붙이
데스크
도인
도성
도금
도화
도과
독하
독약
독박
돌진
동신
동선
동법
동침
된단
두께
두꺼
둘레
둥이
들키
등하
디의
따박
따져야
땅덩어리
때마
땜질
뚝딱
뚤어
뜨리
뜯겨
라로
라꼬
라텍스
려구
로션
로맨
로워야
로보트
리도
링스
마한
막이
막힘
만적
만다
말세
말뚝
말싸움
말잔치
맛집
망자
망양
맞고
매개
매트리스
맥도
맹신
머그
머나
머뭇
먹방
면직
면전
면피
명사
명부
모지
모국
모략
모쪼록
목과
몸서리
무주
무근
문경
문은
문외
문산읍
미제
미역
미움
미덕
미망
미추
미봉
민트
밑빠진
바비
바꿈
바쳐서
박자
박기
박아
박통
박철
반전
반미
반절
발광
발돋
밥버
방비
방범
방유
방심
방종
방귀
방콕
배째
백인
벅찬
벌판
벨기에
벼락
벽두
변죽
변두리
별표
병인
병문
병방
병목
보더
보은
보배
보냅시다
본청
볼려
볼펜
봉제
봤었
부관
부탄
부안
부안군
불릴
붙일
비소
비제
비약
빌어먹
빗길
빚지
빠꾸
빼들
뻥뻥
뼛속
사계
사교
삭스
산더미
살라
살립시다
삼일
삼켜
삼강
삼인성
상소
상행
상행위
새가리
색상
색의
생도
서려
서나
선모
선교사
섣불리
설교
성찰
성정
성창
성본
성완
세반
세에
셨으니
소만
소라
소질
소립니까
속초
속마
속행
손들
송언
쇠약
수유
수일
수하
수안
수표
수확
순점
순박
숨졌
스무
스몰
스팀
시방
시미
시덥
시너지
시부모
시종일
식료
식도
식탁
실재
심성
심목
싱싱
쌈지
써준
쑤시
쓰려
아작
아차
아달라
악하
악세
안착
않아
알랑
알맹이
암흑
앞쪽
앞자리
애환
애처
애물단지
야쿠
약칭
양분
양어
양치기
양방향
어진
어온
어언
어쩐
어부지
얼만큼
엄살
에밀
여라
여보
여덟
여깁니다
역군
역무원
역겨운
역부족
연착
연좌
연산동
영통
예매
예배
오브
오호
옥살
온돌
올지
올까
완도
완산
완주
왕정
외인
외동
요동
요세
욕의
욕보이
용융
우신
우동
우르르
운의
운석
울면
울컥
웃겨
웃간
원형
원유
월별
위소
위신
위문
위시
위층
유등
유유
유년
육식
윤건영
으르
으랴
으셧
을께
읍사무소
응축
의기
의령
이인
이마
이이
이시
이실
이브
이질
이릅니다
이법이
익혀
인파
인시
인면
인다고
일소
일천
일군
일종
일딴
임이
임했
임우
입신
입막
입단
작물
작의
잠바
잠자리
잡이
잡힙니다
잣나무
장직
잦아
재계
재경기
저분
저버린
적출
전재
전위
전할
전속
전설
전단
접어
정두
정제
정민
정종
정육
정강
정맥
제련
조라
조영
조도
조지
조칠
조악
족당
졸전
좀처럼
좁디
종묘
좋아
좌익
주막
주회
죽여야
준우
중범
중근
중흥
쥐약
증하
지라
지제
지남
지멋대로
직언
진물
진세
진퇴
질로
질까봐
집무
집약
짜른
쪼그
쪽방
찌질
차환
차체
차광
착시
창창
채부
채류
처세
처박
척의
천치
천막
천벌
천륜
천정부
첨병
청신
청력
체벌
초라
초가
초급
초간
총격
최예
추기
추우
추호
출정
치적
치한
친서
카더라
캐릭
캡처
커터
케하여
코딱지
콘테
콜라
콜밴
쾌락
쿠르트
키나
키움
타경
타면
타입
태통
태릉
탤런트
테라
텍사
통칭
퇴장
투심
튀기
트인
트러
틈틈
파우
파멸
파이팅
판공
판다고
팔릴
패치
편두
평탄
폐질
폐허
포주
포대
포위
폭도
폭포
푸르
풍속
피력
피라미
핀란드
하하
학식
한라
한문
한법
한병
한층
한림
할텐데
해저
해오
해경
해줌
핵가족
행했
행해야
허세
헌병대
헛발
헛웃음
헤럴
헤어질
헬륨
혈서
호치
호신
홀수
홍채
홍천
홍길동
확증
환골
황시
회부
획인
획관
획책
효창
후계
훈육
휴교
희희
희한
히틀
힐즈
힐러리
힘없이
##인데
##려보
##소이
##사채
##만파
##초리
##AE
##중기
##분자
##문가
##ls
##lay
##산당
##비리
##비아
##비용
##IG
##IX
##EF
##der
##화가
##고요
##마켓
##원수
##어차
##막염
##전능
##무휴
##무익
##부시
##부단
##290
##ial
##상정
##한당
##한민국
##조각
##아시아
##이러
##시위
##시정부
##방석
##방울
##물렁
##나이
##나물
##명수
##공산당
##330
##의지
##의연
##tn
##ues
##ual
##결근
##ov
##oom
##hd
##hum
##md
##레일
##스레
##co
##pr
##일동
##감치
##감사
##대작
##ㆍ중
##ㆍ친절
##디까
##디스크
##JY
##임시정부
##터지
##위성
##세금
##속기
##UT
##ying
##백서
##면적
##미리
##best
##매김
##압감
##절약
##입대
##덕지
##박지
##카라
##LL
##테이션
##ㅋㅋ
##ji
##jJY
##몰이
##둥절
##베트남
##넘기
##넘어가
##따로
##따박
##클럽
##렌드
##ㄴㅇ
##ㅁㄴㅇ
##뚜기
##왜란
##ase
생각납니다
그런다
피해망상
1040
아이스크
경제난
행정자치
여성단
교육법
지급금
121
생활인
생활지
보험법
들어설
사고사
사고파
아파요
근무일
다가왔
따라붙
아서라도
바로잡
자유로이
노동당
건강히
196
1900
1962
1971
요청서
가정사
아닙니다만
181
1825
안전성
반대표
00034
주민세
5060
된다고요
##tpaId
이루어질
con
cons
자리매김
사무원
403
세대수
교통난
이익금
보여줌
이건희
폭력배
실제론
영업체
통신법
게임기
상대자
불구자
불구경
노인정
내려올
141
올려놓
자금난
프로펠러
소비량
소송도
복무규정
금융정책
공부방
국방백서
선택지
금지명령
살아난
자연사
직업소개소
239
246
244
214
2100
newsRead
조선업
조선공산당
주차료
아래쪽
005
위반자
대체재
##00038
소음기
전환사채
넘어선
넘어질
광고료
소유인
소유물
어찌나
괴롭혀서
223
2213
무기력
##onom
지구촌
부서지
입학식
떠나가
283
265
심사관
페미나
통화량
276
으라면
상식선
달리기
299
경영학
경영난
##led
여서라도
이기주
최고형
으신지
##ana
##anc
##aniz
367
을지로
그럴수록
비례제
자원입대
는다면서
위기감
불러도
드러낸
미리미리
안타까워서
##eng
기능직
슈퍼마켓
##ous
정지도
두려울
시달려야
바란다고
영화배우
비행장
계신다는
살펴서
살펴봐야
당선자
국무부
이어폰
비상사태
이웃들이
현지인
부대원
4200
철도청
정화조
담보물
고쳐져야
무너뜨릴
빼앗겨
readView
심해진
심해집니다
여름철
찬성표
370
공화제
맞춰야
제작비
청탁이
부적격자
물어봐
물러날
물러났
으라고요
바다이야기
##906
유통망
돌리지
버려도
일어난다는
내년도
법조문
데려와서
어리둥절
체포영장
순환고
##188
떨어져도
으셨을
내세울
수요자
써야지
마리가
벌어집니다
무단결근
당할까봐
임차권
inc
물리력
물리치료
중개인
기념물
기념행사
##tview
##ica
나빠도
나빠졌
전철역
호주제
의뢰인
전해진다
조세포
사회주의자
상해임시정부
끌어모아
마포형무소
어지간
주제넘
몰려가
무서운지
바꿀려고
이루어져서
top
고장나
경로회
승진도
조상대
세탁소
놀라움
공중도덕
들이밀
1983
수학여행
쓰러질
연료비
잠재우
들어온다고
들어온다는
종이컵
해양경찰
공영주
무한정
사채업
날아왔
날아갔
저리도
다이아
망가졌
기다렸으나
이분법
채워진
재수생
유흥비
이주노
넘겨서
취임식
복사본
들어야만
사육장
미지급금
무서워요
밀려오
ㅜㅜㅜ
원활히
당직실
발주자
빨간색
중재원
쓰여졌
##igh
포스터
이만희
싸이클
##398
한단다
천주교도
구석진
페이크
성동구
차용금
대동소이
숙련도
디자이너
불거져
불거졌
시한폭탄
떨어질까
영주댐
원만히
리더십
여대생
요지부동
갔다왔
공업계
떠올라
박지성
aspx
외쳐도
##ept
성북구
항고장
맞춤법
지워질
불어넣
조달청
어긋난다
넉넉히
골든디스크
잊어버리
내려와라
대치동
메이커
남아돌
지부장
두드러기
##otel
개그맨
기고만장
꼼짝없이
없앤다는
전교생
휘말렸
##TION
되돌아보
돌아다닐
plan
변함없
비전문가
소매업
여섯째
스타일리스트
구태의연
나선다
001057
sunday
구한다고
농림부
세미나
거들먹
박용관
새겨들
김진표
이영실
집합소
캠핑카
컨설턴트
##ages
쫓겨날
피임약
소아암
영덕군
##ofbest
##yeong
##ONE
배설물
시뮬레이션
영도자
우유부단
저래라
금정구
나치즘
대역죄
전지전능
newdaily
맞대응
암기력
##erald
다방면
활기찬
##광역의원
불러일으키
공덕동
덮어씌
popul
군포시
내놔라
무심코
불도저
차인데
medicaltimes
수목장
일깨워
##ream
마이크로그램
사로잡혀
자그마치
갑상선암
소보면
아고라
드라이빙
개수작
건널목
고관대작
너거들
모리배
그럴듯하게
lgsl
수족관
시시때때로
bestofbest
게으른
기정사실
까마귀
무진장
일파만파
잔여물
준법정신
초상권
평론가
플래너
##arket
김미자
대소변
들썩이
양진호
자구책
MLD
Republic
방청객
연중무휴
임진왜란
캠퍼스
포승줄
으나마나
떠나보낸
텔레비전
끈질기
말미암
전유물
차디찬
해줄테
Posted
todayhum
ㆍ공정ㆍ친절
곰곰히
근검절약
금토동
날카로운
내분비
대내외
뒷걸음질
백해무익
산산조각
송인배
아수라장
원세훈
일찌감치
거들떠도
고엽제
낮춤말
떠벌리
무릅쓰
물렁물렁
샌드위치
오사카
유심히
의열단
판타지오
플레디스
했어면
휘두른
asiae
Dolphin
HTTP
tyrb
ywfjJY
감가상각
김여사
다람쥐
두꺼운
따박따박
때마침
맞고소
맥도날드
머나먼
문외한
미추홀
발돋움
밥버러지
사계절
삼인성호
성완종
속마음
송언석
시종일관
식료품
양어장
어부지리
임우재
입막음
정두언
좁디좁
차광막
천정부지
최예원
추기경
캐릭터
커터칼
텍사스
트러블
편두통
피라미드
한병도
헤럴드
히틀러
아이스크림
행정자치부
lgsltpaId
todayhumor
ㆍ공정ㆍ친절ㆍ적법
610
723
AB
And
COP
Dec
En
EM
FM
ITX
Kg
Mon
Main
Market
NB
New
OEM
OUT
Read
RSV
SO
Tv
UAE
VIP
bit
bus
ce
cap
day
date
dise
fu
fb
gs
has
home
herald
il
kook
my
mti
mon
more
mtview
pages
ray
right
tim
would
̌̈
♥♥
ㅐ판
ㅡ자
ㅡ그
ㅡ비
ㅡ광역의원
ㆍ기
가학
가즈
가미
가락
가느
가려야
가건물
각론
간인
간대
간악
갇힌
갇혀서
갑을
갔으나
갔으면
강변
강건
강효
개구
개년
개자식
갱생
거시
거행
거위
거란
거렸
거악
거와
거느리
건영
겁주
게들
겠다
겠지만
겨눈
격주
격납
견실
견딥
경장
경근
경멸
계자
고철
고식
고임
고프
고견
고와
고딩
고막이
곡선
곡소리
골자
골통
골키
곰탕
공상
공한
공훈
공이
공종
관등
관사
광저
광구
교모
교배
구린
구애
구획
구좌
구더기
국재
국원
군중
군제
굶기
궁궐
궤도
귀걸이
그랜
그칩니다
그따위
극구
근방
근현
근시안
글재주
긁어
금새
급료
급성
급작
기직
기이
기모
기틀
기를
긴지
길음
김지
김무
김은
김홍
김상조
깃발
까말
까맣
깜박이
꺾어지
꼬셔서
꼭대기
꾸벅
꿀꺽
꿰차
끊겨
끓여
끔직
끝판
끝냈
끼여
끼쳤
끼친다
나몰
낙동
낙제
난후
난독
날치기
남김
납골
낭떠
내비
내동
내것
내팽
냈으니
너흰
넘칩니다
네거
노화
노름
녹록
놀랄
놨기
놨다
눈여
눈알
눈깔
눈초리
눌렀
능지
능멸
니나
다독
다룬
다퉈
다길래
단초
단하
단거리
닫혀
달아
달달
달한다
당겨
대관
대노
대용
대미
대교
대후
대머리
더블
덕수
덤벼
덩치
덮개
데몰
도도
도깨
도빈
도끼
도취
도뇨
독창
독차
돔페
동자
동명
동절
동락
동년
동체
될려면
됩시다
뒤안
뒷주머니
드럽
득과
듦니다
듧니다
디질
따가
따놓
따까리
딴소리
땅바닥
땡겨
떄리
떠보
떨거지
똑바른
똥오줌
뚤어뻥
라시
라네
라니까
라더군요
래도
래이
량도
량제
러시
러진
레임
레몬
련지
로와
론가
리버
리필
마세
마귀
만금
만고
말릴
말레
말끔
말조심
망이
망연자
맞설
매치
메아리
멘탈
명약
명색
명쾌
몆년
모유
모실
모토
모험
모빌
모둠
모회사
모셔야
무명
무일
무용
무회계
묶여서
문도
문희
문고리
물총
물색
물어도
물바다
물놀이
미운
미아
미동
미진
미합
민속
바랐
바빴
바카라
박장
박히
박이
박정
박명수
반겨
반송
반민
반쪽
받친
발적
발족
발미
방상
방이
방제
방독
배점
배타
배란
백제
백미
백배
뱅크
뱅킹
버그
버시
버디
번은
번질
번졌
벌목
범한
법석
베드
베스
베타
베푸
변한다
별세
별별
보병
보현
보위
보광동
복식
본상
본시
본들
볼수록
봐주시
봤으나
부원
부동
부피
부체
부령
부어도
북경
분파
분심
불자
불발
불용
불협
불똥
브릿
비관
비애
비박
비누
비뇨
빈도
빙신
빚진
빠릅니다
뻐젓
뿌릴
뿌려서
사화
사택
사온
사간
사견
사커
사옥
사살
사문서
산역
산거
산위
산간
살상
살찌
상술
상투
상왕
상륙
새내기
색안
생가
생김
생지옥
생매장
서두
서정
서진
서안
석상
석실
선소
선결
선민
선열
선봉
설음
섬망
섭니다
성산
성판
성균
세정
세일
세태
세후
세간
소기
소하
소세
소록
소폭
속한다
손등
손사
손학
손모
송사
송지
송림동
쇄도
쇠뇌
수기
수세
수교
순금
순례
숟가락
술병
슈틸
스킨
스쿨
슬기
슬개골
승전
시조
시퍼
시드
시수
시생
시답
시끌
식기
식판
식목
식음
식육
신가
신순
신아
실전
실책
실토
심층
심평
십상
쌍두
써져
쑥대
쓸려고
씌웠
씌운
씨우
씻기
아원
아하
아집
아첨
악기
악독
악귀
안간
안다면
안경원
않쓰
알라
알거지
알래스
암반
압니다
앙의
앞도
앞전
애요
액면
야한
야권
야하
야속
야박
약제
약취
약올리
양궁
양발
양현
양은
어그
어눌
어로
어조
어정
어민
어휘
어묵
업신
엇갈
에듀
에이스
여적
여정
여와
여배우
역발
엮이
연산
연다
연한
열불
열강
염좌
영해
영감
영악
예속
오인
오천
오페
오거리
옥신
옥중
옥수
온데
옳바르
완수
완제품
왈가
왕족
외고
외계
외임
외친
외톨
외칩니다
왼손
요기
요격
요법
요일
요골
요충
요사이
욕해
용자
용병
용감
우치
우분
우뚝
울러
울렸
울립니다
원로
원창
원행
원작
원복
위염
윗대
유여
유재
유휴
유람
유토
유념
윽박
은연
은둔
은박지
을걸
을려는
의리
이방
이대
이터
이회
이남
이합
이시아
이라고
이일로
인치
인중
인솔
인디
인큐
일리
일력
일급
일평
일확
임자
임산
임수
입힐
잉글
자법
자공
자임
자포
자릿
자이다
잖냐
잖은
잘나
잠겨
잡일
잡것
장문
장정
장실
장티
장롱
장땡
재완
재검사
저쪽
저랬
전보
전승
전횡
절하
절취
절묘
점증
점프
접어드
정대
정처
정든
제금
제언
제벌
조개
조모
조망
조양
조잡
족족
존비
좁혀
종가
죄이
죄와
주마
주객
준결
준강
준해서
줄넘기
중퇴
중노동
쥐락
즌반
증말
지발
지과
지쳤
지팡
지킵시다
직함
직거래
직수입
진자
질렸
집기
집시
집수정
쬐끔
쭈욱
찌른
찌그러
찢어져
차고
차과
차곡
차베
찰시
참기
참된
창제
창궐
채면
처자식
천식
천황
첨언
청도
청개
체념
초사
초스
총포
촟불
최적
최동
최경
최용
추격
축이
취침
치려
치운
치상
치외
치워야
친고
칠곡
침착
침뱉
칭함
칼칼
칼자루
캐디
커진
커튼
컴백
케나
콩나물
쾌재
쾌유
쿨러
큰형
키스
타나
타켓
탈죄
태운
태공
터득
테이프
토가
토크
통틀
퇴학
퇴짜
투지
투항
투정
투철
툭툭
특판
티셔츠
파정
파행
파에
파편
판가
판시
팔과
팔짱
팔려서
팜플
패인
패기
패악
퍼다
퍼런
페가
페달
펼쳤
평시
평민
평판
포고
포탄
포럼
포섭
포렌
표리
표결
푸념
푸대접
풍의
피도
피보
피격
피스
피일
피탈
핀셋
하등
하금
하달
하극
하옥
하사관
학수
한술
한영
한순
한상
한아
한동
한솔
한디
한차
한복
한탕
한구석
할매
할복
함안
함평
함입니다
합헌
항로
항복
해원
해전
해대
해난
해변
해짐
핵문
핵과
핵에너지
핵전쟁
행장
행과
향해서
허니
헤이
혁파
현란
현존
현옥
혈족
혈견
협심증
형언
혜안
호우
혼나
홍명
화순
환지
환시
홧병
회도
회보
회선
회동
횡행
효성
효린
후록
훔치
훔친
휠씬
희미
힘겨워
##리기
##리돈
##직고
##사와라
##자락
##여기
##여동
##여객
##술사
##르크
##신안
##라들
##CD
##중국
##서니
##지요
##지말
##629
##6230
##500
##트려
##관위
##Num
##ll
##재인
##IN
##FIX
##wn
##eas
##다녀
##다닐
##고분
##러진
##러워서
##각신
##발인
##연합
##어찌
##전술
##법권
##무공
##무진
##123
##ie
##ib
##ive
##so
##아슬
##이조
##시티
##해도
##해전
##방법
##나갈
##ty
##tain
##up
##ug
##진대
##aj
##ale
##군인
##군경
##바탕
##제가
##유수
##유포
##레오
##400
##cy
##cid
##cor
##py
##per
##을때
##을지도
##ving
##말라
##대출
##하기
##하다
##하우스
##작동
##들리
##우리
##디젤
##rd
##승수
##차도
##차곡
##임자
##세종
##날락
##OFIX
##수사
##수동
##게이머
##버섯
##삼성
##피드
##반구
##반포
##매석
##절절
##과금
##익제
##변제
##변속기
##메이
##회비
##악산
##예금
##집산
##열도
##테이
##테랑
##번호
##평양
##PT
##갑수
##뜨기
##봉동
##독립
##플러
##확산
##xx
##베이스
##잇감
##끄럽
##퉁이
##펴락
##콘서트
##놔서
##꿈치
##★★
##챙이
20000
2025
지만서도
정부세종
##001
##007
문제지
국가원수
그리하여
피해야
피해갈
한국군
국회법
행정명령
이유라
이유식
가지가지
기관사
124
생활관
책임진
인지상정
이용정
들어감
들어앉
시키지
근무처
발생기
305
자유심증
의무화
의무감
주택난
문화제
도와서
통해야
1961
언론통제
발전시설
015
중구난방
권리관계
임금법
187
이야길
개선책
반대쪽
000000
00029
대로변
당연지사
산업용
지나쳐
알려줘
재판정
자리나
기술사
운전실
지켜서
406
결정서
국내법
보여요
253
258
법원장
여야지
138
1399
부족분
공공성
접수증
상대국
능력자
147
올려라
올려요
올려진
올려달라
어려운지
어려운게
힘든지
전문대
##erv
프로게이머
회의소
전국구
시급제
선택과
직업인
가져서
가져와서
가져와야
248
집행정지
215
작년도
독립선언
만드셨
이동도
이동권
##iness
아래층
찾아뵙
사랑니
판매업
판매로
성장산업
315
허위사실
연구회
이사비
스트라이
신용자
전자소송
중앙당
협박문
##ties
보유국
계산기
아동용
생산품
##eat
손해금
어찌어찌
사망률
708
괴롭힙니다
2200
한데다가
수입원
삼성병원
달라져
달라짐
고려인
803
부서장
협의제
혐의자
므로써
##505
현대사
현대식
이하자
알바라도
감시원
노후화
알아차
수행평가
작업복
보증료
주의식
대리석
다녀요
다녀와야
당했으며
화장터
순간순간
휴대용
오염원
호소에
##ors
경영주
##ley
##less
여서도
생리통
강요죄
남용한
이기전
최고점
대형가
후원회
부끄럼
통해서라도
그럴까
무리지
불러왔
인도인
인도적
가르친
따로따로
드러납니다
325
##ens
정해준
359
##oun
##ount
법정형
생겼으니
시달립니다
이래요
경비실
비싼데
임기중
어려워져서
느껴져
이어받
비상시
비상근무
원자재
부작위
인공위성
미친개
불쌍히
떨어트리
KTCS
나무라
협상장
자라날
오른다는
오른다면
스타쉽
바닥나
포장지
시정지
ㅠㅠㅠㅠ
천안시
피부병
081
상속권
챙겨라
심해져서
연합국
여름휴가
3796
임명장
가로등
590
감찰부
다를까요
심리전
소개서
##903
더러워
가계약
버려져
김현웅
데려올
수고비
진상이
흔들려서
달려오
비대한
저렇게
해지지
##189
고정급
으셨고
3940
내세웠
청장년
유전병
흘러들
몰아세우
ins
물리치
기념회
데이터베이스
##ict
##ick
부추키
##enter
남겨야
미수범
방위병
484
486230
적정선
들어간다는
들어간다면
파렴치범
인과관계
끌어들여
전통문화
미터기
배당기
어지러움
일찍이
참석자
몰려와서
동아리
서해선
##rim
레이건
김성호
지배인
피고발인
1985
1984
7500
7530
조롱거리
라던데
경계심
때려치
휴직급
불신임
국민연금기금
방화범
날아와
낮춰야
program
고사하고
바이오디젤
다닌다면
망가져서
가려져
날라왔
날라다니
으리라고
치명타
2024
등장인물
늘어난다고
연루자
안겨준
구인난
마드리드
지진도
빠져나간
떠넘겨
내성천
하수구
##라우스
##755
상징물
해진다고
빨간불
꾸며서
꾸며진
선호도
폭발력
다던지
아껴야
일회성
도주로
상급심
죽인다
파란색
오가사와라
잃어버릴
금고형
응답자
중앙선관위
죽일려고
2018082
20180629
부스터
잊혀질
서대문형무소
전년도
편집국
##라이더
지킨다는
들려주
발사체
서둘러야
패널로
주어진다면
89755
공조직
무대응
양식장
양식업
친정집
테크닉
가져다주
망우동
출고가
3751
동서대
김재규
보라동
유력시
생생히
알림장
유적지
##amp
아야지요
who
연평해전
가래침
오지랖
덧붙여서
서양인
실려가
재래시장
담겨져
imnews
should
##ects
ADD
뜯어먹
실용신안
one
기상청
교통안전공단
내려와야
광명시
메이저
틀림없이
한탄스럽
##ipana
독서실
소변기
NewsNum
노벨상
부른다
부른다고
medipana
seq
고분고분
워크숍
풀려난
그만둔다
돌아와야
나타난다
개그콘서트
거둬들이
추워도
성년자
스테이트
없앤다
의결권
전도사
기나긴
놀림감
돌아다녔
띄우기
변함없이
소매점
재임용
화천군
Korean
확고히
구한말
망한다고
망한다는
번번이
휩싸이
##able
넓혀줄
똘똘한
미워하
스피커
그려져
굴러가
미소금융
튀어나오
쫓아다니
건드릴
매점매석
자그만
호프집
박주호
어겨도
자빠지
경제학자
사야카
행여나
SPC
구지인
서식지
와이디
SRBM
경부고속도로
고학년
공명음
인즉슨
##egal
아닐지라도
덮어두
뒤바뀌
장현수
전일제
201605
변재일
장모님
참다못해
CPRS
tworld
괘씸죄
김병준
여하튼
의석수
일깨우
정선군
사로잡힌
EUR
뒤돌아보
뮤지컬
소보원
전경련
##merica
모잘라서
ISOFIX
hankook
고관절
불나방
포커스
그럴듯한
들락날락
오바마
징징대
차렸으면
joongang
United
bio
happy
구구절절
돌팔이
돌팔매
쩔쩔매
해남군
인공호흡기
저작권료
저작권법
Acc
icbm
record
먹먹해
일언반구
어떠신가
으라니요
고학력자
minwon
police
버틴다
보리차
수형자
지근거리
클레임
한기총
add
system
귀빈실
놀아난
쓰임새
저마다
화강석
##ough
ODM
눈가림
뒤처지
미공개
미얀마
산자부
어물쩡
추켜세우
스케일링
terms
간척지
게을리
남인순
분탕질
살균제
생년월일
서강대
승하차
아슬아슬
이광희
자작극
정거장
최은주
sports
GOOD
Island
crps
개찰구
권미정
기출문제
다그쳤
둘레길
로맨스
미망인
부탄가스
삼일절
야쿠르트
이실직고
인면수
제련소
판공비
폐질환
후계자
popular
fbid
heraldcor
ㅡ광역의원과
견딥니다
골키퍼
나몰라
낙동강
난독증
납골당
낭떠러지
네거티브
눈여겨
도깨비
독차지
돔페리돈
뒤안길
레임덕
망연자실
모빌리티
방독면
봐주시면
브릿지
비뇨기
색안경
성균관
손학규
슈틸리케
식목일
안간힘
알래스카
압니다만
양현석
업신여기
여적죄
역발상
오페라
옥신각신
옥수수
외톨이
은연중
이합집산
인큐베이터
일평생
잉글랜드
장티푸스
준결승
준강간
쥐락펴락
차곡차곡
차베스
초스피드
최동단
치외법권
판가름
팜플렛
포렌식
하극상
학수고대
정부세종청사
자유심증주의
허위사실유포
heraldcorp
050
020
023
080
410
490
523
512
511
645
615
7398
820
867
8267
940
An
ABC
Aus
America
BTS
CH
CI
CG
Com
CNG
DP
Dis
DOO
DEF
Eng
FDA
KG
Long
Man
Mar
MEL
OL
OLIVE
PH
POW
RF
SH
SY
SB
SCI
Sept
Tues
URL
War
but
biz
back
ca
cid
cul
camp
dc
db
dail
em
eb
even
fe
fc
gk
hotel
hrd
jsp
jpg
kyeong
lsi
ms
mc
man
nw
ne
nv
nate
os
pg
pos
reg
sed
sit
tap
und
vip
ytn
ymd
××
●→
◯◯
ㅡ전
ㅡ박
ㅡㅡㅡㅡㅡㅡㅡㅡㅡㅡㅡㅡㅡㅡㅡㅡㅡ
ㆍ국
ㆍ전
가분
가도
가금
가오
가불
가물
가린
가온
가없
가엽
가립니다
가한다
가다듬
간선
간경
간녀
간헐
갈립니다
감이
감단
갑과
강전
강했
강식
강태
강팀
강좌
강해야
개기
개관
개비
개연
개량
개패
거물
거린
거긴
거랑
거립니다
거수기
건져
건내
걸이
검도
검단
겁내
겁납니다
겁쟁이
겉핥
게류
격자
격분
격해
견줄
결승
경광
계모
계셔야
고궁
고참
고준
고건
고체
고구려
곡예
곤궁
골학
골병
공비
공재
공언
공양
과소
과신
과부
과히
과민
관변
괜찬
괴기
교화
교구
구동
구군
구먼
국운
국수
국모
국번
군소
군정
군용
군축
군국주의
굳어지
굳어진
굴종
굴착
굽실
궐기
귀엽
귀띔
규의
그렸
근력
근면
글썽
금회
급도
급할
긍지
기당
기진
기권
기온
기어가
길시
김관
김판
김예
김혜
김석기
까내리
깨져
깨워
깨졌
꺼냈
꺼낸
껑충
꼬드
꽁무니
꿀꿀
끄적
끊겨서
끊어졌
끗발
끝난
나신
나지스
낙원
낙수
낙엽
난거
난입
남영
남창
남측
남긴다
났으며
낮춘
내도
내다
내연
내무
내진
냉전
냉대
냉면
냉혹
냉랭
냐구
너머
넓혔
넘친다고
녁션
노산
노호
노랫
노폭
논외
논객
놀래
농자
놔둬
뇌리
뇌종
뇌혈
뇌척
눈부
느릅
늑장
는바
니코
니스트
닙다
다량
다와
다쳐서
닥친
단인
단들
단증
단백
단교
단짝
달기
달립니다
달려서
닭대가리
담지
답신
당론
당길
당략
대니
대제
대타
대근
대생
대필
대의원
더리
덕현
덕양
덩이
도제
도처
도련
독신
독기
독버섯
돔구장
동그
동장
동중
동분
동파
동점
동태
됌니다
되먹
되야지
되도록
될런지
두채
두레
두실
두건
뒤엎
뒷문
뒷수
뒷골목
드실
드높
드세요
드러운
득점
득하
듣보
들린
들먹
들떠
들렀
들려서
듬뿍
디플레이션
따윈
따진다면
딱한
때린다
땡볕
떠먹
떠든
떼지
떼우
뚜기
뚜껑
뚫려
라이터
라오스
라이너
라느니
래디
랜딩
러스
러브
레일
레지오
레스토
려거
루푸스
류자
르노
리서
리큐
림프
마려
마마
마하
마차
마추
마따
마닐
만년
만졌
만언
만삭
망함
망덕
맞췄
매칭
매시
맨체
머저리
머플러
먹인
먹을
먹혀
멈췄
멈춘
멋모르
메릴
메타
메트로
멧돼지
면탈
모우
모교
모릅니까
모처럼
목수
몰기
몰고
몰려서
몸싸움
몽실
무비
무더
무릇
무정부
문무
문드
문회
묻어
묻힐
물쓰
물든
뭇매
뭉친
미장
미디
미타
미착
미아리
믹서
민통
민은
민설
밀폐
박람
밖엔
반해
반세
받쳤
발만
발도
발설
발코
발가벗
방중
방가
방정
방증
방책
방접
배도
배식
배속
배회
배웁니다
백도
백마
백주
백정
백일
밸브
밸런스
버블
번화가
벌건
벌과금
범일동
법시
벙커
베테랑
벤쳐
벽치
변영
변개
변칙
변해서
별명
별건
병고
병세
병균
보자
보성
보디
보따
보탠
보시오
복막
복통
복심
볼륨
봇물
봐온
부마
부쳐
부액
북방
북카
북베트남
분화
분가
분한
분납
불렸
불체
불효
불립니다
불태우
붉히
붙히
뷰런
비료
비고
비파
비계
비탄
비껴
비좁
비수기
빈정
빗대
빗나가
빡세
빨려
뺒지말
뿔뿔
사투
사해
사동
사냐
사돈
사필
사또
사투리
산리
산이
산행
살집
살려서
삼화
삼마
삼림
삼천리
상여
상각
상항
상복
상책
상용차
색채
색다르
생중
생식
샤시
서한
서행
서윤
서너
서러운
서약서
석관
석제
선인
선구
선납
선팅
섣부
설도
설쳐
설거지
성상
성체
성씨
성영훈
세치
세만
세타
세배
세욧
셨으며
소탐
소립니다
소고기
속적
속보
속력
속사정
손쓸
손용
손쉬
손잡이
솔솔
송어
송이
송수
쇠톱
쇼쇼
수관
수로
수퍼
수제
수은
수매
수돗
순한
순교
숨져
쉬기
쉽니다
스치
스톱
스텝
슬피
승산
시여
시어
시전
시크
시네
시류
시리아
식장
식욕
식생활
식수원
신격
신명
신공
신판
신사업
신림동
실성
실증
심산
심고
심위
쌉니다
쏴서
쓰라
쓰지
쓴웃음
쓸지
아치
아다
아오
아드
아휴
아킬
아산시
악재
악물
악조건
안도
안가
안감
안현
안다는
안기부
알음
알짱
암표
앞차
애지
애통
액화
액과
앨범
야비
양봉
어나
어며
어루
어줍
억눌
얼빠진
얽매
업제
업력
에치
에만
에코
엘레
여개
여동
여린
역겨
역동
연시
연력
연호
연내
연녀
연착륙
연월일
연면적
열약
영전
영일
영락
옆구리
예지
예하
예찬
오려
오영
오도
오다
오정
오행
오송
오작동
옥고
온기
온산
온정
온다니
올른
와해
완쾌
왕조
왜국
왜놈
외자
외형
외판
외친다
외조카
왼팔
요의
요증
용무
용단
우성
우국
우개
우아
우경
우점
우범
우민
우와
워터
원직
원재
원말
원급
원잠
월성
월전
월아
월산리
위즈
위독
유래
유분
유스
유대
유책
유머
유봉
유커
유골
유성구
윤락
으루
으련
은수
읍소
응집
응어리
의협
이장
이문
이고
이부
이은
이판
이입
이프
이혜
이롭
이학교
이보호
익위
인만
인장
인고
인병
인조
인덕
인걸
인강
인화점
일신
일만
일비
일화
일구
일출
일루
일테
임학
임할
임해야
자서
자개
자른
자이
자욱
잔무
잘리
잘사
잘린
잘릴
잠긴
잠잘
잠궈
잡곡
잡아들여
장지
장마
장발
장전
장경
장위
장세
장찬
장학생
재소
재재
재한
재입국
재테크
쟁투
쟎아
저속
저변
저림
저딴
저흰
전조
전성기
절상
점퍼
점제
접경
접견
젓가락
정초
정파
정명
정승
정반
정교
정량
정복
정에
정석
정박
정류
정춘
제이
제물
제철
제식
제수
제헌
제과
제윤
제겐
젝스키
조인
조교
족보
족하
종지
종국
죄짓
주다
주면
주네
주동자
죽순
줄려
중제
중하
중식
중수
중첩
중략
중징계
즐긴다
증자
증평
지실
지세
지는
지층
지번
지필
지라고
지언정
직재
진소
진솔
진태
진에
진흙
집장
징글
짜집
짜를
짬짬
짭새
째려보
쪽잠
쫒아내
쯧쯧
찍힐
차출
차차
차립시다
착상
찬다
찬탈
찬바람
찮은
참한
참말
창당
채수
채집
채찍
책값
챔피
처하
척당
천성
천한
천은
철재
첨예
청청
청파
청하
청할
청호
청담
청윈
청나라
체르
쳐라
쳐진
초지
초콜
촉박
총사
총계
총판
총생
총소득
총예산
최인
최지
최진
최양
최장수
추려
축기
춘다고
출당
출타
출납
충정
치미
치룬
친아버지
친동생
칠수
침소
칫솔
카센터
칼라
캐시
캘리
커집니다
커진다
컨셉
컵라면
케니
코오
콘센트
콩팥
쿠릴
큐브
크론
큰아이
클래
클래스
키보드
타로
타카
탁송
탄신
탈영
탈도
탐나
태승
터부시
토픽
톡톡
통사
통솔
통했
퇴실
투하
튈지
트이
트렁
특산
특실
틀어지
파다
파가
파과
판로
판권
팔수
팔찌
팔다리
팔걸이
퍼진
퍼집니다
펑크
페인
편람
편해서
평방
평촌
폐비
폐습
포부
포드
포식
포크
포곡
폭우
폭풍
풀어놓
풋볼
풍문
풍경
프라스
프라이
플레인
피치
피죄
피망
하순
하두
하계
하명
하교
학성
학적
학칙
한직
한해
한명
한식
한약
한뜻
한줌
할걸
할렐
함성
함수
함량
합참
항기
항명
해보
해부
해바
해먹
해냈
해져야
해줘야
핵분
핵확산
햇수
했다간
했잖아요
행신
행관
행령
향응
허우
허황
헌대
헬멧
헹굼
혀야
혀서
현리
현자
현업
현광
혈중
혈맹
협진
협잡
혜자
혜진
호국
호명
혼시
혼령
혼잣
홀리
홍성
홍조
홍위
홍익
화도
화법
화병
화광
화생
환각
활인
황태
회고
회개
회시
회진
회제
효능
후벼
후순위
훌쳐
흑사
흘려야
흩어지
희소
히로
힘쓸
힘찬
##등등
##소문
##사냥
##여러
##성향
##신기
##신이
##신탁
##신다면
##청소
##TC
##CO
##적소
##적질
##적공사
##저널
##중이
##기안전
##셔도
##서주
##지세
##지적공사
##600
##5000
##관화
##관광
##보자
##보기
##보당
##산소
##재건
##In
##work
##eong
##화음
##고발
##파기
##데요
##국수
##연시
##연수원
##구획
##원ㆍ
##가짐
##로로
##전도
##전속
##학자
##부영
##부정
##부수
##부동산
##불기
##불명
##불이행
##144
##211
##20000
##ies
##ience
##ities
##sc
##히토
##노빌
##아서
##천사
##천역
##방가
##물산
##나서
##공원
##공학
##30000
##창동
##ts
##tap
##ud
##uild
##진보당
##경미
##ok
##oj
##aign
##바고
##더드
##유주
##유키
##레옹
##스톤
##스러운
##cut
##행상
##행철도
##길이
##실색
##대어
##대실
##ㆍ평가
##ra
##read
##터면
##위복
##준다는
##타인
##타파
##타이
##할지
##UE
##UJ
##수액
##Yd
##삼간
##삼공사
##미나
##반의
##태평양
##boo
##body
##모호
##호남
##포장
##포로
##포동
##포니아
##루야
##860
##828
##교회
##과세
##GI
##GY
##온다
##낙락
##처참
##급행철도
##년도
##머스
##네이터
##곡리
##fl
##fe
##face
##fects
##Detail
##XN
##박혀
##열차
##숭아
##테리
##테스
##징글
##je
##누르
##갑시다
##봉길
##ST
##STE
##Section
##링스
##혜영
##슬링
##베리아
##베키스탄
##알음
##슈타인
##느냐
##왈부
##맘대로
##칼라
##ㅗㅗ
##↓↓
##ast
##ases
국민회의
사람대접
206
205
대한지적공사
한다느니
문제집
다는군요
시간표
이상적
는지라
아이나
아이큐
한국공항공사
사회상
상황실
기업사냥
여성복
그래프
서울보증
정치학
정치성향
책임져야
수사망
어떻한
들어라
위한답시고
지방도
지방항
사고자
계약파기
다가와서
정보과
마음속
정신없이
전화번호
전화위복
따라했
따라잡
보호막
보호조
자유자
자유민
일반의
뉴스룸
뉴스타파
한테서
1944
1968
1969
1949
진행형
언론계
발전량
183
1890
경기고속
투기성
치료사
월급날
강력계
보내온
의료기
시기상조
가입비
올라앉
알려도
강제노동
cond
거래량
어렵사리
바라본
기술인
사법연수원
지켜왔
지켜낸
세대원
보상법
등록소
보여질
보여진다
1327
1366
권력욕
영업권
내려도
올려놔서
정상급
프로테
기다려서
중소기업청
는다니
는다거나
171
1715
존재감
토지구획
161
경쟁률
돌아설
형사벌
여행지
여행가
안정자
233
가져와
243
247
216
이동식
제안서
009
강남이
기재사항
311
연수생
머리채
장기대
넘어온
일어설
와서야
김정아
사라짐
계산원
청산유수
가까울
실업과
당한다
228
부과금
스포츠센터
##one
##ons
삼성물산
아침밥
반영구
가구원
누군들
입학금
285
2800
2600
나타냈
불가결
통합진보당
사정리
광역버스
광역급행철도
지자제
주의깊
봐야만
연말연시
다녀라
##201
##204
가슴앓이
져야지
오염도
느냐며
##les
새벽잠
장사치
장사도
남녀공학
애국정신
무서운데
빠져도
통일로
논란거리
배상승
##1241
종합부동산
을지언정
저질르
1993
도둑맞
고위자
##113
##11127
이행시
성공회
소상인
##end
##ency
지휘권
버린다고
정해졌
슈퍼링스
움직인
시달림
바란다면
합격선
김태곤
들여온
들여보내
채무불이행
453
4599
비행선
비행단
계신다
바이어
설계도
모자란
어려워질
느껴서
지경이
##ode
결제금
도박자
박원호
받아들였
##alia
부자재
명령서
으려고요
중간광고
사형수
설립자
통계도
바보짓
심정지
심정일
424
회계감사
공고히
스타렉스
청정에너지
##806
대변기
기울일
보냈었
블랙아웃
빼앗길
##ates
당해온
이중삼
이중과세
심해요
3730000
부인의
안보리
##TER
##조리원
국립묘지
민사재판
kmib
물러난
소개팅
상상력
##arm
나아간
##eth
##etter
신상준
##chool
일어난다면
보인다면
길이길이
김현수
준다던
부평리
기도문
##705
도망갈
9900
달려왔
##185
강간죄
떨어져야
으셨던
마리애
흘러도
회피성
생길까
전략산업
욕심내
이재현
이재수
이재록
이재갑
##ish
##tur
기념식
3800
신세지
출발점
소득세법
방관자
친화력
##ents
남겨져
뛰어가
뛰어든
뛰어내리
나빠질
진출로
young
전해야
소수만
ㅇㅇ를
케이티
케이엠
정기예금
탈락자
배당금
어지러워
인기몰이
주권주의
분류표
##rig
라면서요
김성준
김성수
##not
도서관장
매수인
보관함
비닐하우스
##446
1981
755
처해질
장애인협회
무자격
무자격자
실험실
phot
nocut
배신한
##omin
드려도
568
느낀다는
둘러대
둘러쌓
필리핀인
519
514
강구도
부러움
부러졌
모델링
가벼워
교정직
교정청
1805
1808
인플레이션
스토어
이루어진다고
전시회
미지수
의존도
2191
속상한
공군력
공군기지
사육사
따져도
앞세워서
숙박비
꼬리표
밀려나
동해선
폐차장
주어졌
오리온
##urity
내려가기
막힌다
바뀔지
하수관
9650
다스릴
여겨진다
음악인
아나키
이수한
중재자
##ERGY
쓰여진
been
걸러낼
거슬러
남이섬
스티븐
다던가
장례비
펼쳐지
펼쳐질
괴로워서
인대도
MRSA
사대부
유행어
메달리
201809
부재자
수색역
잊혀진
드립다
서대문구
우주선
동북공정
잘라서
타임즈
김동성
전염성
준다면서
해본다
정몽구
재무회계
간다는데
스케이팅
화목한
937
경보기
고로케
이어져서
까다로
스위치
집어삼
올라갔으면
불합리
생성물
의약업
포르투
##tralia
what
수영구
시사저널
화합물
불어났
잠자코
##SAN
imbc
거제시
산책로
##andard
케이블카
고무신
단연코
자백서
바우쳐
통치권자
멕시코시티
NewsView
spec
박준기
박살내
부속품
키운다는
medium
star
간략히
수비수
워크아웃
잡아당
넘어간다는
거둬서
공방전
과대망상
정중희
추워져서
##ade
##ically
파고드
entry
고성방가
떄문입니다
사물함
앉혀야
직선거리
드나드
산후조리원
소매치기
이어진다는
일진데
트리고
나선다면
후세대
SMP
휩싸여
##abor
견뎌야
견뎌왔
새겨져
적재적소
피지배
냉정히
노란불
두루뭉실
분수대
양평군
이영학
튀어나와
##IST
경공업
말려들
빨라야
20313
냉동고
동양인
특장차
후생비
그런가보다
영도구
자빠졌
잡힌다는
저래서
척곡리
##loos
##lobal
rankingSeq
rankingType
rankingSection
어영부영
유상운
이국진
하와이
##erson
떠밀려
마셔도
와이셔츠
저쩌구
초고층
탄도탄
한국전기안전
경부선
기막힐
대환영
벗겨지
실소유주
전진단
행방불명
밀어내기
KDX
뇌졸증
장보고
헤드라이트
가평군
노트북
뜬금없
실리콘
음해성
일석이조
잇따르
잇따라
조여오
twitter
농수산
부단히
비틀거리
실외기
페업등
마이크로닷
board
부릅뜨
스탠더드
예선전
잊어버린
정찰기
하마터면
##아주십시요
srt
권선구
되살리
세례자
중과실
15544
크리스마스
ㆍ부서
너그럽
너그러운
놀려댔
들락거리
신창현
안식처
외로움
치켜세우
코디네이터
ㆍ교부할
까마득
박소현
반신반의
사양서
산둥반도
송전탑
야마토
야마구치
얼만지
윤석열
일곱째
정우진
정봉주
참관인
휘둘러서
THEK
STONE
efYd
surface
write
경전철
고열로
광산구
조아린다
총살형
doctors
INC
고달프
김선유
대명사
대퇴골
문상객
붙인다고
빗발치
선지급
아셨으면
인스턴트
중등교육
진경준
테레비
틀려도
홈스테이
그럴싸하
ARS
간이식
기달리
김신혜
싱크홀
아연실색
외관상
울주군
전차선
전광판
지킴이
쳐들어
##연구원
##크라테스
##guó
##foP
categoryId
ENERGY
France
gmo
굳건히
뛰쳐나
소린데
아메리카
우즈베키스탄
저울질
지새우
흉부외과
##legal
goods
egloos
lsIn
ㆍ경남
강인한
겸허히
노현정
독극물
떠받들
방용훈
번돈으로
쓸쓸히
우러러
원해요
일사천리
카트라이더
코믹스
보호관찰
profit
9247
MTi
after
donga
ㆍ점검ㆍ평가
갈릴레오
고매동
기웃거리
나폴레옹
노부유키
담뱃값
매개체
미봉책
박철환
병문안
악세사리
알랑거리
정민호
좋아하
초가삼간
틈틈히
호치민
휴교령
희희낙락
페미나치
EMU
Monday
MainKind
diseases
time
광저우
그랜저
긁어모아
김무성
능지처참
리버풀
명약관화
문희상
미합중국
불협화음
시답잖
왈가왈부
우치고
윽박지르
이방인
이회창
청개구리
친고죄
표리부동
홍명보
##무공훈장
스트라이크
201808211127
편집국장
실용신안권
hankookilbo
Accuse
비뇨기과
Australia
DOOSAN
MELON
OLED
POWER
SYSTE
September
Tuesday
campaign
lsiSeq
sedaily
taptap
굴착기
김예령
녁션은
뇌종양
뇌혈관
뇌척수액
느릅나무
니코틴
동분서주
듣보잡
래디컬
레스토랑
려거든
리서치
마따나
마닐라
맨체스터
먹을거리
몰고가
문무일
묻어두
물쓰듯
박람회
반세기
발코니
보따리
북카페
비파괴
뺒지말아주십시요
서윤수
석제범
소탐대실
손용우
손쉬운
송수신기
수돗물
시어머님
아킬레스
안현수
알음알음
원재료
유봉수
인덕원
제윤경
젝스키스
징글징글
짜집기
짬짬이
척당불기
청파동
체르노빌
총생산
최양희
캘리포니아
코오롱
쿠릴열도
클래식
트렁크
할렐루야
해바라기
핵분열
허우적
혼잣말
홍위병
화생방
후순위채
##여러가지
서울보증보험
전화번호부
토지구획정리
##124132
종합부동산세
photo
nocutnews
rankingSectionId
한국전기안전공사
lsInfoP
201808211127124132
SYSTEM
332
640
629
730
790
745
779
830
817
899
816
917
928
Apr
Bm
BK
Bus
Bmw
CBS
FN
For
FIF
HP
II
Io
IR
Kr
MP
Med
Mil
May
NE
National
Oc
OR
OTP
PX
PM
Sp
Sea
STI
TTA
USA
VY
aq
anews
bb
cd
cg
cf
cng
dt
daily
ei
gu
gr
gq
gang
gtx
ii
ily
ibk
journal
ko
kill
know
le
ly
ml
mail
most
nc
num
orig
pdf
public
person
real
so
tag
ur
vo
way
wom
wlog
yna
zum
■■■■■
♡♡
ㅇㄹ
ㅜㅠ
ㅠㅜ
ㅡ치
ㅡ로
ㅡ무
ㅡ이
ㅡ명
ㅡ공
ㅡㅜ
ㅡ국민
ㅡ세금
ㅡ재건
ㅡ여러가지
ㆍ소
ㆍ개
ㆍ법
ㆍ이
ㆍ시
ㆍ정
ㆍ공
ㆍ국민
꙼̈
가료
가임
가타
가란
가목
가엾
간증
간탄
간답니다
갈일
감청
감가
감명
감췄
갑인
값진
강관
강금
강재
강당
강우
강타
강취
강령
강해서
개자
개장
개중
개점
개식
개축
개목
거문
건등
건실
건건
건방지
걷어차
검니
겉모습
게제
겨운
견사
결인
결금
결빙
겸비
겹쳐서
경술
경조
경품
경솔
경락
경합
계선
계심
고불
고름
고안
고합
고라도
고친다
곡이
곡동
곤장
곤충
공자
공히
공당
공윤
공멸
곽사
관인
관저
관선
관방
관통
관용차
광식
괴멸
교역
교련
교산동
구소
구자
구술
구재
구명
구차
구한다
국치
국화
국축
군형
군말
굴림
굶겨
굽신
권원
권투
권해
귀뚜
그까
그람
그럭
극렬
금만
금오
금환
금공
금낭
급장
급매
기산
기개
기실
기식
기포
기교
기단
기년
기여금
기중기
긴데
길수
김규
김남
김응
김병기
김귀영
김갑수
깁니까
깃털
깉은
까라
까딱
까짓
깎이
깜박
깨워서
꺼진
꺼낼
꺼졌
꺽지
꺾이
껍니까
께요
꼬라
꼬락
꼴값
꾸중
끈기
끈끈
끊김
끝자락
끼쳐
나면
나눈
나뭇
나빴
나들이
남상
남대
남다른
낭독
내손
내전
내통
내안
내쉬
내빼
내레이션
내맘대로
냐니까
널어놓
넓힌
넓이
넘사
네이
넥타이
년차
년놈
노림
노땅
노컷
노라고
논현동
놀부
놀람
농정
놔둔
놨다는
뇌파
뇌사자
누려
누차
눈쌀
뉘우
느지
는고
는디
늘여
늘일
늦쳐
니가
닉슨
다도
다각
다져
다움
다마스
닥달
닥쳐
단자
단군
단타
단종
닫히
달랬
담가
담론
담날
담수
담겼
답지
당겨서
대갈
대증
대디
대승
대본
대림
대랑
대잔치
더듬
더우
더딘
덕지
던대
덤터
덮치
덮혀
도자
도탄
도량
도색
도곡
도룡
도읍
도사리
독주
돈벌레
돈스코
돌지
돌출
돌림
돌멩
돕니다
동족
동내
동색
동떨
되갚
두부
두터
두벌
둔기
뒤쪽
뒷말
뒷구멍
드로
득공
들른
들추
들뜬
등불
등석
등극
딧나요
따끔
딱딱
딸아
딸린
땅장사
때메
때립니다
떠다
떡값
떡볶
떨려
떨쳐
떨려서
또렷
똥칠
똥파리
뜁니다
뜨거
뜬구름
뜯긴
뜻밖
라리
라스
라식
라스트
란다고
랍디다
래야
램프
레지
레트
레슬링
렌의
력도
로인
로만
로컬
로이터
록과
론스타
루가
루즈
리재
리요
리발
리아
리차
리온
리턴
리셋
리벤
리만큼
린치
립시
마법
막차
막아내
막아주
막아서
만치
만장
만수
말주
말차
말랐
맛없
맞선
맞닥
맞닿
매인
매서
매맞
매시간
맥스
맹이
맹세
맺히
먹여서
먹잇감
먼곳
면장
면연
면면
면모
면박
명실
명하
명석
몆번
모신
모태
목재
몰표
몸보
못해서
무연
무로
무조
무드
무난
무취
무응
무뎌
무안군
묶인
문지
문조
문짝
물릴
물대
물심
물체
물값
물꼬
물방울
뭣하
뮤직
미대
미심
미쓰
미설
미녀
미뤘
미쳐서
민도
민지
민병
민유
밀기
밀러
밀약
밀림
밀가루
밀입국
밍크
바그
바나
바침
박동
박하
박태
박아지
박혀서
박성동
반고
반동
반주
반열
발인
발화
발고
발렌
발톱
발칵
밤중
방불
방점
방약
방석
방망
방배
배너
백운
백의
밸리
번져
벌일
벌컥
법국
법폐
베기
베트
베크
벽체
변인
변방
변종
변양
별장
별게
병증
보서
보트
보비
보나
보철
보란
보합
보컬
보냄
복선
복불
복날
본선
본이
본디
본심
볼려면
볼라고
볼께요
부직
부국
부연
부시
부란
부질
부글
부석
부룩
부침
부갑
부엌
부러운
부귀영
북아
북돋
북조선
분분
분재
분발
분원
분상
분주
분내
불고
불손
불결
불호
불완
불벌
불패
불붙
불승인
붙여야
블리
블라우스
비데
비니
비조
비품
비레
비즈
비랑
빅뱅
빈소
빌렸
빛바
빵점
뺏길
뺏겼
뻥긋
뼈져
뽀뽀
뽑혔
뽑아내
삐끼
사선
사개
사하
사타
사약
사절
사취
사림
사별
사랍
사보험
사들이
산선
산학
산양
살핀
살폈
살린다는
삼진
삼송
상영
상선
상연
상패
상활
상쾌
색약
생판
생맥
샴푸
서산
서브
서포
서든
서커
서클
서러워서
석자
석적
석기
석위
석수
석회
선적
선각
선위
선릉
선라이
선순위
설화
설탕
설겆
섬세
섬뜩
섭니
성시
성황
성수기
세다
세나
세움
세외
세븐
섹션
셋방
소파
소공
소실
소취
소풍
소대장
속편
속전속
손보
솔로
송고
송강
쇄국
수해
수권
수범
수대
수식
수포
수축
수생
수별
수양
수검
순사
순순
순조
순시
순하
순종
순회
숱하
쉰다는
스리
스면
스와
스님
스탭
슬리
슬러
슬플
습격
시려
시라
시화
시고
시구
시무
시부
시들
시식
시차
시종
시건
시황
시몬
시유지
시베리아
식상
식권
식모
식후
신보
신형
신비
신학
신현
신태
실신
실선
실임
실타
실테
실려면
실래요
심증
십중
십자매
썩히
썬팅
쏙쏙
쓰여서
쓰다듬
쓸려
쓸어
쓸까요
씁시다
씌운다
씻겨
아등
아보
아선
아식
아크
아반
아키
아십니다
아신다면
악폐
안기
안지
안함
안드
안명
안종
안태
앉힐
알량
알린다
압살
앙갚
앞면
앞바다
애리
애사
애드
애용
애교
애걸
액자
액도
액티브
야자
야가
약조
약시
약과
얌체
양치
양여
양적
양기
양원
양로
양당
양품
양정
양다리
얘긴
얘깁니다
어금
어구
어따
어쩝
어덯
언재
얼라
얼릉
얼떨
얼뜨기
엄령
엄숙
없인
없는
없앰
에여
에산
엑셀
엔디
엔딩
여만
여장
여차
여민
여든
여남
여느
여쭈
여긴다
역고
역일
역북
역겁
역방향
연마
연두
연다고
열릴
열열
열대어
염기
엿볼
였어요
영자
영창
영예
영육
영농
영호남
예결
예단
오나
오점
오션
오수
오매
오포
오간
오예
오합
옥구
옥시
온조
온의
온건
온갓
온겁니다
올까봐
올챙이
옮긴다
옹벽
완하
완충
왕자
왕당
외투
외람
요시
요거
요샌
욕지
욕보
용비
용임
용평
용암
우이
우현
우세
우왕
우크라
욱일
운다
운요
움푹
웃긴다
워드
웍스
원사
원법
원역
원일
원하
원임
원주시
월맹
월스트
월수입
위금
위난
위닉스
위압감
윈들
윗몸
유화
유구
유원
유당
유임
유태
유별
유충
유불리
유제품
유원지
육신
은하
을망정
음직
음대
음흉
의용
의례
이등
이려
이규
이희
이오
이한
이감
이철
이럼
이덕
이토
이집
이튿
이아이
이로운
이현실
이병원
이석기
익사
익산시
인트
인화
인법
인다면
일세
일색
읽히
임고
임정
임모
입술
입혀서
자여
자당
자린
자실
자루
자던
자건
작아
작심
잔해
잘랐
잠가
잠든
잡화
잡다
잡범
잡수
잡담
잡니다
잡아들이
장금
장상
장행
장미
장호
장안
장외
장황
장암
잦아지
재지
재일
재탕
재충
재방송
쟁기
저고
저역
저년
저극
적지
적십
전치
전비
전량
전언
전답
절정
절과
절충
젏은
점막
접착
정함
정히
정품
정률
정실
정족
정설
정약
정모
정안
정변
정회
정후
정근
정예
정표
정읍
젖병
제적
제화
제국
제스
제력
제휴
제네
제말이
졌으나
조업
조산
조연
조물
조나
조질
조향
조찬
조폐
족인
족건
존자
졸도
졸부
졸이
종부
종주
종대
종미
주리
주러
주상
주모
주검
주워서
준동
준단
줄려면
중아
중환
중진
중경
중력
중남
줬으며
쥐잡
쥐새끼
쥬니어
즉석
즐겼
증표
지웠
지그
지선
지러
지축
지프
지혁
직구
직격
직주
진구
진두
진면
진건
진취
진탕
진라면
질려고
짊어질
집결
집게
짓눌
짬짜
짬뽕
쪼금
쪼이
쪼가리
쪼르르
쪼들리
쫒는
찌그
찌든
찍혀서
찐빵
찜질
찢어질
차였
차범
차면
착안
찬의
찹니다
창이
창달
창간
채석
처서
처량
처넣
처다보
척축
천리
천직
천도
철장
철처
청건
쳐져
초정
초면
촌극
총론
총은
총소리
최영
최규
최다
최유
최윤
최남
최승호
추어
추하
추울
출항
출간
충신
충심
취한다
측도
층수
치웠
치즈
치위
치수
치약
치렀
친선
친다면
칠기
칠순
칠레
카자
카차
카톨
칼만
칼슘
캐치
커리
컬렉
케시
케네
켜져
코트
코뼈
콜비
콜레
쾌거
큐어
크랙
큰지
키퍼
타오르
탁하
탈황
탐내
태지
태연
태운다
택할
탱자
탱이
터울
털기
테슬
토요
토탈
토종
토모
토닥
통업
통관
통시
통폐
퇴화
퇴계
투혼
투매
투덜
튕겨
튜브
트래
트랜
티키
팀웍
파양
파와
파키스탄
판부
판박이
팔목
팔립니다
팔로우
팬클럽
팽개
퍼스
퍼온
펄펄
페로
편마비
평점
폐하
폐목
포트
포악
포옹
포스트
포메라
폼페이
표고
표상
표대
푯말
푼다
푼다는
풀렸
풀무원
풍조
피플
핑퐁
하만
하중
하임
하반
하태
하프
하류
학도
학무
학당
한경
한증
한은
한게
한걸
할만
할가
할테
함유
함게
함꼐
합한
해인
해직
해재
해궁
해역
해달
해충
해댔
해합니다
했을지도
행선
행대
행은
행건
향토
허투
허의
험난
헛소문
현격
현병
현준
혈통
혈의
혐연
혐을
협성
형수
호언
혼주
혼입
홍승
화인
화기
확연
환일
환하
황원
회하
횡설수
후레
후일
휘감
휘젓
휴강
휼륭
흉가
흑백
