<unk>	0
<s>	0
</s>	0
[BOS]	0
[EOS]	0
▁이	-3.65177
▁.	-3.6613
▁하	-3.74792
▁	-3.76037
▁는	-3.76962
▁을	-3.8174
▁고	-4.00716
▁에	-4.23542
▁의	-4.40957
▁은	-4.45239
▁,	-4.46227
▁가	-4.47824
▁를	-4.48045
▁들	-4.54097
▁있	-4.64804
▁도	-4.67794
▁한	-4.82653
▁습니다	-4.91341
▁지	-5.06968
▁다	-5.07246
▁으로	-5.0904
▁것	-5.2462
▁되	-5.28382
▁게	-5.28825
▁주	-5.32668
▁에서	-5.33096
▁로	-5.33399
▁만	-5.33435
▁수	-5.4199
▁없	-5.50411
▁어	-5.53546
▁적	-5.54857
▁과	-5.55777
▁?	-5.59932
▁해	-5.63761
▁합니다	-5.63934
▁일	-5.65775
▁기	-5.67057
▁그	-5.68564
▁입니다	-5.68777
▁않	-5.73978
자	-5.7543
▁면	-5.7587
▁인	-5.78103
▁할	-5.8162
▁국민	-5.82002
▁여	-5.87667
▁시	-5.9028
▁저	-5.90321
▁받	-5.95374
▁년	-5.95556
하	-5.96323
이	-6.01954
▁었	-6.03287
▁보	-6.03723
▁아	-6.05231
▁안	-6.06586
▁했	-6.08663
▁말	-6.08734
▁사람	-6.09588
서	-6.09811
▁와	-6.15241
▁나	-6.19405
▁에게	-6.21497
▁원	-6.24015
지	-6.24922
▁생각	-6.2523
▁1	-6.2582
▁자	-6.26792
기	-6.27081
히	-6.29424
▁많	-6.30558
▁같	-6.3106
▁겠	-6.31643
▁는데	-6.32914
▁제	-6.34512
▁다고	-6.42366
▁라고	-6.44064
▁세요	-6.44811
▁거	-6.45492
▁나라	-6.48869
▁며	-6.49482
▁등	-6.49484
▁전	-6.5013
▁사	-6.5168
▁대	-6.51699
▁까지	-6.53336
리	-6.53634
▁못	-6.53669
▁라	-6.56551
▁2	-6.58898
▁더	-6.60661
▁내	-6.60691
▁우리	-6.60865
▁정부	-6.63105
▁지만	-6.63106
▁아니	-6.63815
나	-6.6449
가	-6.64858
도	-6.68184
▁분	-6.6852
장	-6.70975
▁해야	-6.71989
▁법	-6.72652
▁라는	-6.73371
▁!	-6.73481
▁된	-6.74005
▁님	-6.75207
▁월	-6.75394
▁3	-6.75848
▁중	-6.78017
▁해서	-6.78601
▁면서	-6.79192
▁살	-6.79851
▁때	-6.81533
▁지금	-6.81824
들	-6.82961
인	-6.84908
▁이런	-6.86159
▁았	-6.86234
부	-6.86493
▁문제	-6.86948
▁...	-6.87525
▁대통령	-6.88135
▁였	-6.88271
▁알	-6.88399
▁다는	-6.90218
▁돈	-6.91181
▁던	-6.9149
▁서	-6.91636
대	-6.93476
▁성	-6.95151
사	-6.95384
구	-6.95524
▁좋	-6.96699
▁국가	-6.96705
로	-6.97689
▁대한	-6.98826
▁너무	-6.9916
▁무	-7.00347
▁니	-7.00545
시	-7.00864
▁모	-7.01044
▁으면	-7.02835
▁부	-7.04005
▁명	-7.04545
원	-7.04655
▁시간	-7.04754
▁비	-7.06897
▁도록	-7.07859
▁이상	-7.08082
한	-7.10529
▁왜	-7.11494
▁대한민국	-7.13832
고	-7.13894
▁개	-7.15088
▁차	-7.15551
▁달	-7.16792
▁그리고	-7.17809
▁남	-7.17913
▁세	-7.18018
▁때문	-7.18565
▁화	-7.18887
▁번	-7.20038
▁조	-7.20515
▁및	-7.2075
▁집	-7.21648
▁이나	-7.23285
수	-7.24398
▁아이	-7.26049
▁한다	-7.26187
▁청원	-7.26209
▁민원	-7.26935
든	-7.27175
▁사회	-7.27669
▁위	-7.28343
▁세금	-7.28833
▁경찰	-7.29533
▁정책	-7.29547
▁잘	-7.29981
▁위해	-7.30174
렇게	-7.30315
▁실	-7.30626
체	-7.30884
싶	-7.30917
▁4	-7.31436
▁필요	-7.31509
비	-7.31534
제	-7.31816
▁부터	-7.31999
▁후	-7.3244
▁보다	-7.32638
▁10	-7.32767
▁건	-7.33758
▁한국	-7.33769
▁경제	-7.33968
우	-7.34107
▁될	-7.34567
▁사건	-7.35156
▁5	-7.35321
▁는지	-7.35759
▁당	-7.36458
희	-7.36712
직	-7.36947
치	-7.37756
▁오	-7.37993
▁정말	-7.38132
▁물	-7.38176
▁불	-7.38214
▁다른	-7.38525
력	-7.39326
▁2018	-7.39399
▁현재	-7.40066
▁신	-7.41109
▁공무원	-7.42547
관	-7.42725
▁어서	-7.42757
▁길	-7.44015
▁이유	-7.452
차	-7.46136
▁권	-7.46898
▁바	-7.47418
의	-7.48996
▁두	-7.50157
▁됩니다	-7.51129
▁좀	-7.51266
▁다시	-7.5146
▁상황	-7.51623
▁글	-7.51881
▁사실	-7.52006
▁어야	-7.52076
▁먹	-7.52643
▁행정	-7.5289
▁또	-7.53095
▁사용	-7.53218
▁야	-7.53414
게	-7.53426
정	-7.54194
▁의원	-7.55255
소	-7.55363
▁경우	-7.55827
▁여성	-7.56024
▁기업	-7.56042
▁내용	-7.56429
일	-7.56733
▁복지	-7.57049
▁죠	-7.57589
▁연금	-7.57884
▁정도	-7.58006
▁지역	-7.58323
▁간	-7.58407
전	-7.59431
세	-7.59526
▁지원	-7.59706
▁약	-7.59858
음	-7.59892
▁사업	-7.60196
▁줄	-7.60589
야	-7.60624
▁네요	-7.61745
▁그러	-7.61759
▁데	-7.61867
▁상	-7.62492
▁없이	-7.62696
통	-7.6365
당	-7.6391
▁라도	-7.64191
금	-7.64358
▁요	-7.65011
▁병원	-7.65246
▁교육	-7.65312
지만	-7.65536
▁장	-7.65559
▁처리	-7.65829
▁곳	-7.65929
▁지급	-7.66637
▁6	-7.66747
▁또한	-7.67324
▁입	-7.67378
▁함	-7.67379
▁기관	-7.67415
▁처벌	-7.67683
▁마	-7.67688
▁공	-7.67707
▁맞	-7.68398
▁조사	-7.68946
▁처럼	-7.69266
▁한다고	-7.69347
▁날	-7.6938
주	-7.69525
▁관련	-7.69723
▁억	-7.70587
▁인데	-7.71174
면	-7.71221
해	-7.71671
▁제도	-7.71752
▁생활	-7.72351
▁몇	-7.72618
▁아무	-7.72791
▁범죄	-7.72893
▁모르	-7.72978
▁서울	-7.731
▁직	-7.73129
▁피해	-7.73155
▁재	-7.73306
만	-7.73334
▁소득	-7.73645
▁가지	-7.74008
▁모두	-7.74318
▁개인	-7.74584
▁회사	-7.74879
▁해결	-7.75035
▁뿐	-7.75379
상	-7.75417
▁쓰	-7.75738
▁자신	-7.76215
▁선	-7.76218
▁제발	-7.76316
▁죽	-7.76363
▁국	-7.76503
▁8	-7.77014
다	-7.77165
▁앞	-7.77183
▁그런	-7.77487
▁반	-7.77768
▁거나	-7.7821
▁보험	-7.78413
▁하나	-7.78788
▁유	-7.78871
▁가족	-7.78882
▁구	-7.79435
▁7	-7.79483
▁인지	-7.79735
▁습니까	-7.80389
▁국회의원	-7.80845
▁질	-7.80874
▁바랍니다	-7.81202
▁나요	-7.81274
어	-7.81309
▁20	-7.81772
▁께	-7.81975
▁급여	-7.82056
▁최	-7.8224
▁아야	-7.82301
안	-7.82685
▁문	-7.83093
▁그런데	-7.8387
▁해도	-7.84558
잘못	-7.84745
론	-7.84763
▁12	-7.84924
▁가능	-7.8504
▁청	-7.85069
▁위한	-7.8527
▁걸	-7.85477
진	-7.86322
▁미세먼지	-7.86381
▁이용	-7.86454
▁시키	-7.86677
저	-7.86752
후	-7.87065
▁일본	-7.87333
▁외	-7.87387
▁피	-7.87931
▁중국	-7.88061
▁다면	-7.89026
▁아닌	-7.8917
▁계속	-7.89526
국	-7.89661
법	-7.89698
▁으며	-7.90364
▁학교	-7.90367
▁드립니다	-7.90686
▁음	-7.9144
▁책임	-7.91968
보	-7.92188
▁셨	-7.92294
▁매	-7.92557
▁지방	-7.92707
▁큰	-7.92977
▁수사	-7.93177
▁부동산	-7.93496
▁답변	-7.93648
▁하루	-7.94247
▁사고	-7.9442
▁감사	-7.94462
는	-7.94532
명	-7.94707
▁관리	-7.94718
▁막	-7.94806
▁노	-7.95081
▁놓	-7.95133
▁생	-7.95389
▁문재인	-7.95804
▁얼마	-7.96032
▁군	-7.96134
질	-7.96156
위	-7.96319
▁냐	-7.96335
▁넘	-7.96433
▁친	-7.96705
▁정	-7.96739
▁대구	-7.96772
▁이제	-7.96992
▁밖	-7.97107
내	-7.97267
▁힘들	-7.97599
성	-7.97642
▁대해	-7.97773
▁피해자	-7.97778
▁정치	-7.979
▁일자리	-7.97965
▁단	-7.98307
청	-7.98712
것	-7.9898
감	-7.98982
▁그렇	-7.99278
▁근무	-7.99549
스	-8.0038
▁누	-8.00414
화	-8.00779
▁이러	-8.01056
▁소	-8.01107
▁현실	-8.01209
▁발생	-8.01242
▁형	-8.0139
▁마음	-8.01606
▁청와	-8.02117
물	-8.02278
▁미	-8.02907
▁생계	-8.03081
▁처	-8.03164
▁현	-8.03525
마	-8.03536
실	-8.03647
▁직원	-8.04855
동	-8.05014
▁계약	-8.05063
증	-8.05232
▁자기	-8.05711
심	-8.05795
▁치	-8.05921
근	-8.06554
▁아파트	-8.06579
▁확인	-8.06695
▁씨	-8.06766
행	-8.06851
태	-8.0689
▁최저	-8.07059
▁다가	-8.07496
▁본	-8.07528
분	-8.07557
▁대표	-8.07753
▁잡	-8.08424
▁부탁	-8.08476
▁본인	-8.08676
나오	-8.09016
▁학생	-8.09028
▁전화	-8.09302
▁신청	-8.09374
▁운영	-8.09418
▁서민	-8.09505
▁온	-8.09818
▁겁니다	-8.10136
▁발	-8.10199
▁점	-8.10202
▁북한	-8.1029
▁감	-8.10338
▁정신	-8.10446
연	-8.10633
▁금액	-8.11242
▁9	-8.11302
▁부모	-8.11749
▁힘	-8.11933
▁따라	-8.12
움	-8.12355
▁각	-8.12359
▁관	-8.1244
▁30	-8.12469
식	-8.12535
선	-8.12782
▁임금	-8.1306
점	-8.13144
▁그냥	-8.13154
▁통	-8.13216
▁아서	-8.13278
▁예	-8.13362
료	-8.13396
▁동안	-8.13694
종	-8.13753
▁기사	-8.13945
▁방법	-8.14309
복	-8.14594
▁참	-8.14609
▁당장	-8.14755
처	-8.1506
▁정권	-8.15288
▁뭐	-8.15352
▁그래서	-8.15374
약	-8.16164
▁속	-8.16555
▁기간	-8.16709
▁타	-8.16814
▁손	-8.17432
▁제대로	-8.17852
▁자유	-8.17946
▁항	-8.18035
에	-8.18535
순	-8.18734
▁한다는	-8.18822
택	-8.19178
▁된다	-8.19258
▁주택	-8.19266
▁보호	-8.19459
▁식	-8.19547
▁높	-8.19686
▁의무	-8.19832
▁억울	-8.20062
▁해당	-8.20188
▁신고	-8.20204
▁바로	-8.20276
▁결과	-8.20355
▁입니까	-8.20588
▁인간	-8.21253
▁장애	-8.21375
▁대출	-8.21935
▁한테	-8.2194
▁정보	-8.22062
접	-8.22111
▁번호	-8.22341
▁갈	-8.22397
▁도와	-8.22534
▁십시오	-8.22545
▁진행	-8.22845
▁봅니다	-8.22876
니	-8.22884
▁업무	-8.23005
▁청년	-8.23043
회	-8.23239
▁불법	-8.23328
▁시장	-8.23429
품	-8.23677
▁란	-8.23693
슨	-8.23888
단	-8.23929
▁기준	-8.24075
요	-8.24177
▁꼭	-8.24357
업체	-8.24679
▁이해	-8.24749
▁다니	-8.24768
▁시민	-8.24823
▁위해서	-8.24839
▁준	-8.25456
▁일반	-8.25536
▁건강	-8.25567
▁려고	-8.2558
불	-8.25597
▁기초	-8.25622
▁미국	-8.25774
▁개월	-8.25896
▁뉴스	-8.26037
역	-8.26358
조금	-8.26446
말	-8.26533
대로	-8.27061
▁죄	-8.27109
용	-8.27291
▁11	-8.27671
▁천	-8.27737
▁호	-8.27983
▁초	-8.28027
민	-8.28348
▁이번	-8.28434
▁행위	-8.28598
생	-8.28975
▁채	-8.29075
간	-8.29263
▁검사	-8.29909
▁여러	-8.30073
▁요청	-8.30211
▁임	-8.30371
떻게	-8.30603
아	-8.30717
과	-8.30736
▁편	-8.30796
적	-8.30929
할	-8.30962
▁상태	-8.31235
▁병	-8.31899
▁시작	-8.31917
▁배	-8.32196
운	-8.32324
거	-8.32438
▁차량	-8.32485
▁애	-8.32554
▁어요	-8.32773
▁어느	-8.33043
은	-8.33053
속	-8.33476
▁반대	-8.33541
신	-8.33622
중	-8.33754
▁진	-8.33971
죄	-8.34031
래	-8.34033
▁부분	-8.34266
▁언론	-8.3455
▁이것	-8.34588
▁남성	-8.34602
▁당시	-8.34664
▁어떤	-8.34899
▁가정	-8.35239
▁안전	-8.35416
▁심	-8.35506
▁인해	-8.35722
▁방송	-8.35952
르	-8.36053
▁별	-8.36079
▁용	-8.36234
▁방	-8.36268
▁폐지	-8.36332
혀	-8.36574
각	-8.36589
편	-8.36645
▁또는	-8.36657
▁안녕	-8.36828
▁100	-8.36915
▁이게	-8.36948
▁조치	-8.37392
▁가장	-8.37397
▁동물	-8.37658
▁아닙니다	-8.37672
▁요구	-8.37836
▁든	-8.38027
급	-8.3805
▁국회	-8.38705
▁동	-8.38732
▁재산	-8.38865
▁계	-8.39463
율	-8.3953
▁주민	-8.39653
▁대책	-8.39916
▁역	-8.39982
▁시행	-8.40015
집	-8.40062
▁지난	-8.40096
▁라면	-8.4018
녀	-8.40282
▁볼	-8.4032
▁믿	-8.40377
판	-8.40862
▁특	-8.40864
▁환경	-8.41037
▁이미	-8.41194
▁통해	-8.41575
▁파	-8.41771
▁김	-8.4241
▁찾	-8.42453
▁중구	-8.42589
▁대학	-8.42631
▁개선	-8.42935
▁여기	-8.43197
혜	-8.43202
▁의사	-8.43422
어디	-8.43449
▁이야기	-8.43463
▁시켜	-8.43661
▁작	-8.43795
엇	-8.43827
▁눈	-8.44218
▁먼	-8.44282
난	-8.44338
계	-8.44357
▁규	-8.44669
▁지요	-8.4526
▁연	-8.45277
▁십시요	-8.45416
▁된다고	-8.4572
▁으니	-8.45748
▁씩	-8.45914
▁공정	-8.45995
▁투기	-8.46027
산	-8.46114
▁문화	-8.4617
▁혜	-8.46516
▁인가	-8.46643
▁악	-8.46684
량	-8.46839
▁벌	-8.47221
액	-8.47293
주의	-8.47455
▁교	-8.4761
▁손혜원	-8.47689
▁나가	-8.47941
▁가격	-8.48018
방	-8.48019
▁왔	-8.48056
▁당연	-8.4808
▁치료	-8.4813
▁환자	-8.48395
▁강력	-8.48809
▁기본	-8.4891
▁네	-8.49066
오	-8.4928
▁급	-8.4935
▁월급	-8.49376
▁끝	-8.49791
▁근로	-8.49846
▁택시	-8.49857
▁발전	-8.49864
▁비용	-8.4988
애	-8.50024
▁변	-8.50138
▁폭	-8.5015
▁활동	-8.50243
▁양	-8.5048
▁해외	-8.50909
외	-8.50966
▁세계	-8.51085
▁대해서	-8.51109
▁인권	-8.51376
▁공사	-8.51381
▁판결	-8.5173
▁보내	-8.51768
범	-8.51854
▁인정	-8.52185
▁인상	-8.5219
▁적용	-8.52362
▁보이	-8.52367
▁요즘	-8.52605
발	-8.52851
▁세상	-8.52923
두	-8.53057
▁검찰	-8.53278
▁짓	-8.53384
▁2019	-8.53692
적폐	-8.54474
▁건설	-8.54846
▁늘	-8.54876
▁백	-8.54911
극	-8.55014
영	-8.55047
▁미래	-8.55171
▁평	-8.55514
▁말씀	-8.55531
▁열	-8.55608
▁듯	-8.56198
▁새	-8.56227
라	-8.56297
악	-8.56447
▁어도	-8.56638
▁재판	-8.5667
▁권리	-8.56691
▁결국	-8.56878
▁중요	-8.57284
▁취업	-8.57304
령	-8.57349
▁예산	-8.57598
▁민주당	-8.57639
▁더니	-8.57763
▁산업	-8.57767
▁대부분	-8.57826
▁사기	-8.58321
▁핵	-8.58337
▁얘	-8.58388
▁가입	-8.58473
▁민주	-8.58602
▁뒤	-8.58634
트	-8.58705
▁종	-8.58755
▁부담	-8.58853
▁단체	-8.58866
▁비리	-8.58964
▁강	-8.59303
▁니까	-8.59303
▁추	-8.59369
▁올리	-8.59406
▁농	-8.59762
▁함께	-8.60443
▁올	-8.60456
▁의료	-8.60746
부터	-8.6079
▁언제	-8.61262
▁증거	-8.61606
▁개발	-8.61648
▁강제	-8.61665
▁오늘	-8.62022
▁근로자	-8.62082
▁따	-8.62496
▁폭행	-8.62506
▁소리	-8.6268
▁시설	-8.62728
▁더군요	-8.62753
란	-8.62855
▁운동	-8.63026
드	-8.63319
▁투자	-8.63619
▁000	-8.63897
문	-8.639
▁50	-8.63975
▁입장	-8.64164
▁공개	-8.64252
출	-8.64481
▁차별	-8.64985
다고	-8.6501
▁어렵	-8.65037
▁관계	-8.65148
▁크	-8.65306
▁고용	-8.65324
건	-8.65623
▁마다	-8.65703
▁거래	-8.65724
▁누가	-8.65823
▁판사	-8.65839
▁열심	-8.65903
▁현장	-8.65921
▁교사	-8.65934
▁을까요	-8.65991
▁구속	-8.66041
▁합	-8.66054
▁수당	-8.66073
▁더라도	-8.66209
▁수준	-8.66236
▁팔	-8.66303
▁선수	-8.66434
▁드리	-8.66457
날	-8.66492
▁주장	-8.66501
▁자리	-8.66511
추	-8.66585
▁나이	-8.66661
▁삶	-8.66796
▁노동	-8.66871
▁경	-8.67032
▁돌	-8.67242
▁절대	-8.67517
▁센터	-8.67519
▁당신	-8.67745
입	-8.67786
▁동의	-8.67798
조	-8.67846
▁심각	-8.67866
▁오히려	-8.68179
박	-8.68207
▁바라	-8.68307
▁그럼	-8.68386
▁출	-8.68469
▁듣	-8.68587
▁행동	-8.68602
▁기술	-8.69102
▁일부	-8.69109
▁답	-8.69176
▁산	-8.69225
▁사법	-8.69314
런	-8.69337
객	-8.69343
▁거짓	-8.69347
▁세대	-8.69626
▁뽑	-8.69683
▁만큼	-8.69959
▁평등	-8.70008
▁국내	-8.70498
▁박	-8.70521
▁결정	-8.70674
▁운전	-8.71078
군	-8.7109
▁측	-8.7122
▁연락	-8.71342
값	-8.71397
▁증	-8.71406
▁법원	-8.71431
꾸	-8.71598
▁반드시	-8.71703
▁설치	-8.71746
▁마련	-8.71816
▁http	-8.72048
학교	-8.72364
▁갖	-8.7237
▁됐	-8.7251
▁진짜	-8.726
을	-8.72622
▁진정	-8.72631
등	-8.72675
▁난	-8.72774
▁서비스	-8.72787
버리	-8.72793
▁엔	-8.7289
손	-8.72976
향	-8.7299
월	-8.73157
▁합니까	-8.73595
▁도시	-8.73716
▁몸	-8.73757
▁행	-8.7385
▁분명	-8.73915
▁선거	-8.74004
터	-8.74271
▁시대	-8.74314
미	-8.74518
▁이익	-8.74797
▁특히	-8.74811
▁한다면	-8.7493
협	-8.75005
▁2017	-8.75131
▁카드	-8.75232
▁시험	-8.75801
무	-8.75867
파	-8.75899
▁혈	-8.75965
양	-8.7627
▁등록	-8.76346
▁사항	-8.76382
▁여야	-8.76628
▁채용	-8.76735
번	-8.7684
▁어떻	-8.76851
▁공공	-8.76918
권	-8.77276
▁국방	-8.77285
▁교통	-8.77369
▁키	-8.77415
▁부족	-8.77468
▁려	-8.77472
.	-8.7778
▁엄	-8.77852
견	-8.77938
▁40	-8.77966
▁A	-8.78199
▁욕	-8.78454
▁자료	-8.78714
초	-8.78866
▁목적	-8.789
▁봤	-8.7913
▁빼	-8.79292
▁이건	-8.7937
자영업	-8.79434
▁판단	-8.79707
데	-8.79787
▁변경	-8.79918
▁의견	-8.7993
경	-8.79957
배	-8.80106
류	-8.80245
▁엄청	-8.80461
▁건물	-8.80554
▁즉	-8.80592
▁준비	-8.80646
스럽	-8.80693
재	-8.80791
▁고소	-8.81081
▁술	-8.81217
▁총	-8.81306
▁15	-8.81334
임	-8.81428
▁게임	-8.81533
▁대상	-8.81539
▁헌법	-8.81609
▁폭력	-8.81644
▁정당	-8.81918
▁권력	-8.82264
활	-8.82368
▁평가	-8.82468
▁직장	-8.82786
▁접수	-8.8308
▁갑	-8.83313
▁똑같	-8.83433
▁불구	-8.83659
▁여러분	-8.83698
▁상대	-8.83874
때	-8.83917
▁전국	-8.84047
▁회	-8.84124
▁영	-8.84247
▁은행	-8.843
▁실제	-8.84457
▁쉽	-8.84503
이트	-8.84831
거리	-8.84951
▁삼	-8.85043
▁그만	-8.85105
▁보상	-8.85281
대체	-8.85415
▁땅	-8.85499
▁해라	-8.85591
층	-8.85918
▁노인	-8.86027
▁위험	-8.86095
▁갔	-8.8634
▁정의	-8.86355
▁유지	-8.86562
▁보여	-8.86838
업	-8.87036
▁복	-8.87175
▁으로서	-8.87211
▁방식	-8.87279
넣	-8.8728
▁힘든	-8.87327
▁자동차	-8.87392
▁어려운	-8.87401
▁더욱	-8.87439
▁법률	-8.87536
▁능력	-8.87611
▁규정	-8.87997
▁낮	-8.88125
▁포함	-8.88129
▁셔	-8.88256
▁잠	-8.88491
▁최소	-8.88511
해자	-8.89194
▁정상	-8.89291
▁개혁	-8.89416
▁학	-8.89847
검	-8.89884
피	-8.9005
▁건가요	-8.90112
▁전문	-8.90201
▁군대	-8.90275
▁지켜	-8.90407
▁금	-8.90475
교	-8.90503
▁알려	-8.90513
▁으나	-8.90617
▁G	-8.90704
▁표	-8.90844
▁모습	-8.9097
▁추가	-8.91141
▁0	-8.9147
▁과거	-8.91544
▁담당	-8.91838
▁자금	-8.91917
현	-8.91931
▁올라	-8.92053
▁자식	-8.92116
▁기회	-8.92221
▁주변	-8.92409
▁지나	-8.92701
▁문재	-8.92747
▁소송	-8.92766
▁원인	-8.92921
▁인터	-8.93129
모	-8.93395
▁체	-8.93516
▁보장	-8.93546
▁근	-8.93764
▁관심	-8.93768
▁종교	-8.9405
▁드	-8.94066
s	-8.94306
▁계획	-8.94388
▁행복	-8.94418
▁인가요	-8.94534
▁시스템	-8.95076
▁시급	-8.95201
▁업	-8.95202
▁제출	-8.95242
▁중소기업	-8.95259
락	-8.95317
▁박근	-8.95396
▁째	-8.95458
▁귀	-8.95458
▁묻	-8.95521
▁퇴	-8.95648
목	-8.95667
끼	-8.95738
▁금융	-8.96138
▁잇	-8.96145
▁버	-8.96248
▁올려	-8.96346
▁몰	-8.96375
▁경기	-8.96572
▁조작	-8.96771
▁우	-8.96825
▁놈	-8.96929
▁우선	-8.97054
▁담배	-8.97123
글	-8.97176
▁겁니까	-8.9723
▁살아	-8.97369
▁존재	-8.9747
▁아주	-8.97487
▁개정	-8.97493
▁외국인	-8.97664
▁는가	-8.97675
여	-8.97893
▁은데	-8.97999
압	-8.97999
▁보도	-8.98017
▁태	-8.98164
▁공부	-8.98203
▁값	-8.98346
▁걱정	-8.98348
▁수술	-8.98616
▁려는	-8.98754
▁빚	-8.9885
▁18	-8.9894
▁분양	-8.98942
▁제공	-8.98944
▁무시	-8.99134
▁목	-8.99166
▁구조	-8.99174
▁선택	-8.99369
▁건지	-8.99549
▁꿈	-8.9979
▁생명	-8.99843
▁지지	-9.00075
▁조합	-9.00122
▁진술	-9.00167
▁망	-9.00209
▁어린이	-9.00353
▁사이	-9.00564
▁임대	-9.00731
립	-9.00787
천	-9.01104
노	-9.01121
▁복무	-9.01161
넷	-9.01222
▁서로	-9.01267
▁강화	-9.01504
▁터	-9.01531
유	-9.01652
반	-9.01813
▁결혼	-9.0193
님	-9.02469
▁위원회	-9.0251
▁빨리	-9.02608
▁대로	-9.02695
망	-9.02783
▁토지	-9.0279
▁행사	-9.02827
예	-9.0301
▁운	-9.0307
▁인사	-9.0312
▁작성	-9.03222
▁확	-9.03228
▁봐	-9.03284
폰	-9.03721
▁경쟁	-9.0396
률	-9.04023
▁부산	-9.04152
▁역사	-9.04349
▁코	-9.0439
▁수급	-9.04513
▁풀	-9.04543
석	-9.04549
병	-9.04669
▁제한	-9.04715
루	-9.04806
▁희망	-9.05033
▁특별	-9.05105
▁이전	-9.05552
▁못한	-9.05594
▁형사	-9.05639
▁진실	-9.05831
합	-9.05899
임금	-9.05909
▁절	-9.06106
▁불편	-9.06112
▁싸	-9.06113
▁버스	-9.0614
▁19	-9.06411
▁참여	-9.0661
▁고자	-9.0678
▁시청	-9.0698
형	-9.07111
▁이름	-9.07422
호	-9.07488
▁아들	-9.07574
▁서류	-9.07661
길	-9.0768
▁읽	-9.07739
▁금지	-9.07792
▁밥	-9.0787
▁허	-9.07978
▁쪽	-9.08114
어가	-9.08158
▁매일	-9.08183
▁숨	-9.08324
▁직업	-9.08332
▁영업	-9.08368
▁등등	-9.08429
뀌	-9.08445
▁추진	-9.08529
▁돼	-9.08582
▁댓	-9.08694
▁싫	-9.08781
▁감독	-9.08818
▁답답	-9.09045
▁60	-9.09144
▁구요	-9.09397
▁철저	-9.09505
라도	-9.09654
▁딸	-9.09661
익	-9.09695
▁민	-9.09734
▁아닙니까	-9.09746
▁어린	-9.09873
▁안정	-9.10159
▁설명	-9.10196
▁찍	-9.10361
전부	-9.1042
지키	-9.10544
▁젊	-9.10567
▁자격	-9.10653
▁줘야	-9.1093
▁십니까	-9.10958
놓	-9.11397
를	-9.11416
▁기자	-9.11543
본	-9.11648
개	-9.11666
▁거리	-9.1176
▁제안	-9.11794
나라	-9.11805
▁단속	-9.11863
년	-9.11891
▁카	-9.11958
▁여행	-9.12052
▁군인	-9.12534
▁검	-9.12752
▁검토	-9.1281
▁담당자	-9.12913
▁층	-9.13002
▁신경	-9.13117
▁14	-9.1324
▁작년	-9.13263
▁써	-9.13316
▁으면서	-9.13386
▁을까	-9.13545
▁통신	-9.13598
▁얻	-9.1369
▁고발	-9.13825
▁아닌가요	-9.13839
▁집단	-9.13868
▁만든	-9.13903
철	-9.13997
▁외국	-9.14316
▁투	-9.14933
▁잃	-9.14964
▁검색	-9.14991
▁조직	-9.15005
▁낭비	-9.15136
▁신속	-9.15146
▁사과	-9.1531
먹	-9.15365
▁따른	-9.15392
▁살인	-9.15756
▁쉬	-9.15776
▁지정	-9.15839
▁부당	-9.15839
▁느	-9.15861
▁환	-9.15897
▁노동자	-9.16285
▁B	-9.16544
▁아도	-9.16739
언	-9.16748
▁국제	-9.16976
▁요금	-9.17083
릴	-9.17275
▁탈	-9.1728
책	-9.17587
▁가진	-9.17674
무조건	-9.17777
▁자살	-9.17808
▁쓰레기	-9.17808
니다	-9.1791
려	-9.17988
▁만드	-9.18007
▁200	-9.1809
▁천만	-9.18214
▁기재	-9.18316
공단	-9.1838
▁출산	-9.18579
원장	-9.18689
황	-9.18727
▁아요	-9.18757
▁첫	-9.18781
▁조건	-9.18852
▁충분	-9.18978
▁간호	-9.1901
▁스스	-9.19046
▁도로	-9.19116
▁절차	-9.19137
▁전기	-9.19253
능	-9.1952
▁놀	-9.19644
▁으로써	-9.19776
▁너	-9.19827
▁허위	-9.1993
▁성장	-9.20049
▁취	-9.20059
▁조선	-9.20253
득	-9.20864
▁근데	-9.20901
▁러	-9.20964
▁입주	-9.21065
▁가치	-9.21101
▁거부	-9.21194
▁혼자	-9.21258
▁유치원	-9.21273
으로	-9.21389
결	-9.2147
▁기존	-9.21622
▁듯이	-9.21626
▁려면	-9.21765
▁공기	-9.21811
▁아래	-9.22074
▁사랑	-9.22164
▁부탁드립니다	-9.22173
▁연수	-9.22212
▁북	-9.22283
록	-9.22345
▁위반	-9.22378
▁인하	-9.22593
▁com	-9.22635
▁전환	-9.23038
소리	-9.23067
투	-9.23304
럽	-9.23341
▁영상	-9.23459
▁의혹	-9.23694
▁판매	-9.23714
▁정액	-9.23843
▁독	-9.23881
▁십	-9.24073
▁위원	-9.24382
▁납부	-9.24469
▁공장	-9.24475
▁관광	-9.24646
▁자연	-9.24688
달	-9.24798
▁전체	-9.24803
티	-9.25068
▁조두	-9.25083
▁그래	-9.25113
▁된다는	-9.25135
롭	-9.25148
▁news	-9.25182
▁내려	-9.25292
역시	-9.25365
▁2016	-9.25378
▁13	-9.25533
▁소음	-9.25603
▁강남	-9.25779
▁신용	-9.2583
▁25	-9.25859
▁이루	-9.25964
▁폐	-9.25972
▁긴	-9.26047
▁공급	-9.26056
▁올립니다	-9.26192
▁정확	-9.2626
열	-9.26274
▁발표	-9.26582
▁초등	-9.26612
설	-9.26656
▁새로	-9.26781
타	-9.26835
▁나왔	-9.26868
▁이동	-9.2691
▁완전	-9.26918
해서	-9.26998
▁사유	-9.27028
▁징역	-9.2706
축	-9.27095
▁머리	-9.2713
▁합의	-9.27209
▁확실	-9.27273
훈	-9.27274
쪽	-9.27425
담	-9.27694
▁논	-9.27708
▁청산	-9.27724
▁포기	-9.27847
겪	-9.27855
어나	-9.27932
▁던지	-9.28116
▁커	-9.28135
▁기록	-9.28179
남	-9.28446
▁수많	-9.2848
▁아동	-9.28527
▁국정	-9.28693
▁장기	-9.28771
북	-9.2886
▁아버	-9.28896
▁평화	-9.29196
낳	-9.29236
▁상승	-9.2924
▁발행	-9.29384
▁청소년	-9.29388
▁꺼	-9.29475
▁광고	-9.29548
▁연구	-9.29549
▁도입	-9.29783
▁공약	-9.29818
격	-9.29818
▁전세	-9.29947
▁조정	-9.29948
▁성폭행	-9.30081
▁협박	-9.30153
▁보수	-9.30755
▁제기	-9.31051
▁효과	-9.31242
▁명예	-9.31269
▁는다	-9.31276
표	-9.31468
▁돌려	-9.31982
▁생산	-9.32183
폐	-9.323
▁더불	-9.32308
러	-9.32379
▁혼	-9.32459
▁육	-9.32529
▁상당	-9.32566
▁정치인	-9.32636
▁늦	-9.32638
▁오르	-9.32641
▁취소	-9.32678
▁24	-9.32714
▁주인	-9.32786
▁판	-9.32824
▁01	-9.32852
▁상담	-9.32853
▁어떠	-9.3296
패	-9.33
▁철	-9.33024
▁m	-9.33063
▁증가	-9.33093
▁취지	-9.33114
▁으시	-9.33175
▁대체	-9.33235
▁계산	-9.33246
▁의회	-9.33296
▁어찌	-9.33335
▁축	-9.33496
▁성실	-9.33574
▁외교	-9.33588
▁범	-9.33606
▁변호사	-9.33626
▁들어	-9.33783
정규직	-9.33827
▁실시	-9.33836
▁돌아가	-9.33955
▁손해	-9.34341
▁사망	-9.34352
름	-9.34486
▁졸업	-9.34611
▁소유	-9.34679
▁체육	-9.34786
▁의심	-9.34973
▁촛	-9.35132
▁사진	-9.3521
▁효	-9.35305
▁오래	-9.35447
▁전쟁	-9.3558
▁평생	-9.3559
▁와서	-9.35644
▁방안	-9.35712
▁인식	-9.35783
▁방문	-9.3582
▁스트레	-9.35982
▁사례	-9.35988
▁청구	-9.36081
▁전자	-9.3611
러나	-9.36229
▁부디	-9.36324
▁거주	-9.36353
▁언	-9.36432
▁연봉	-9.36444
▁다르	-9.36577
▁인력	-9.36614
▁으	-9.36831
▁밝혀	-9.36858
▁빠	-9.36895
▁입원	-9.36903
▁라며	-9.36904
살	-9.36943
▁양심	-9.37061
▁점점	-9.37063
▁심지	-9.37079
린	-9.373
▁의미	-9.37333
취	-9.37451
▁고요	-9.37589
꾼	-9.37699
▁듭니다	-9.37719
답	-9.37725
▁충	-9.37827
▁회장	-9.37854
▁법인	-9.37885
받	-9.37964
▁부정	-9.38133
▁김정	-9.38247
▁16	-9.387
▁당한	-9.38862
마디	-9.38997
▁인천	-9.39105
▁공제	-9.39126
포	-9.39162
▁울	-9.39345
▁인구	-9.39388
▁집행	-9.39538
▁수도	-9.39662
▁국토	-9.39669
▁는데요	-9.39689
▁보유	-9.39824
▁게시	-9.3991
▁항공	-9.39953
▁문의	-9.40015
▁져	-9.40049
▁민족	-9.40055
▁된다면	-9.40065
▁냐고	-9.40148
▁차이	-9.40158
갖	-9.40195
▁불안	-9.40222
째	-9.4028
▁공시	-9.40369
▁일정	-9.40559
송	-9.40922
▁갚	-9.40965
▁포	-9.41125
절	-9.41161
▁경기도	-9.41166
▁축구	-9.41209
▁테	-9.41286
▁수입	-9.41319
▁팀	-9.41514
▁훈련	-9.41693
▁부과	-9.41716
▁율	-9.4182
▁였으나	-9.41921
▁선진	-9.41959
▁비정규직	-9.41992
▁23	-9.42007
▁아침	-9.42101
스크	-9.42126
▁옆	-9.42173
▁잔	-9.42272
▁흡연	-9.423
▁실업	-9.42521
탄	-9.42545
▁벌금	-9.42846
공	-9.42949
▁단순	-9.43048
▁약속	-9.43102
▁영향	-9.43183
▁17	-9.433
▁목숨	-9.43331
▁공동	-9.43387
▁빠른	-9.43532
▁목포	-9.43559
▁맘	-9.43724
▁토	-9.43726
▁처분	-9.43818
▁검찰청	-9.43992
▁수십	-9.44002
▁C	-9.44198
▁담	-9.44388
▁기대	-9.44392
▁대신	-9.44431
▁인원	-9.44503
▁창출	-9.44543
▁대비	-9.44642
폭력	-9.44714
▁밤	-9.44838
▁근거	-9.44851
▁공직	-9.44852
▁민간	-9.44862
▁학원	-9.45041
▁경력	-9.45111
휴	-9.45595
▁대응	-9.45704
▁무기	-9.45783
▁소비자	-9.45827
하루	-9.45852
▁어머니	-9.45854
▁둘	-9.45895
족	-9.45983
▁났	-9.45983
▁의문	-9.45991
▁맡	-9.46013
폭	-9.46066
▁동일	-9.46073
▁시절	-9.46076
깝	-9.46102
▁간곡	-9.46794
▁명백	-9.46844
▁결	-9.46883
씨	-9.469
했	-9.46958
탈	-9.46989
▁아닌가	-9.46997
▁구청	-9.47
▁스포츠	-9.47304
▁원전	-9.47361
▁마치	-9.47417
념	-9.47512
▁확대	-9.47542
▁발언	-9.47629
▁인생	-9.47992
▁그동안	-9.48306
그	-9.48465
▁읍니다	-9.48547
▁얼굴	-9.48629
▁독립	-9.48696
▁쳐	-9.48794
▁저런	-9.49057
▁나쁜	-9.49072
▁메	-9.49104
▁여론	-9.49131
▁마지막	-9.4914
▁고려	-9.4921
▁먼지	-9.49263
▁양육	-9.49269
아무것	-9.49294
▁규모	-9.49344
▁반영	-9.49387
더	-9.49482
▁70	-9.49812
▁프로	-9.49834
▁학대	-9.50121
▁궁금	-9.50123
함	-9.50134
봉	-9.50177
▁이혼	-9.50226
▁입학	-9.50259
머니	-9.50348
▁승	-9.505
▁노후	-9.50519
▁바꿔	-9.50819
수록	-9.50982
▁방해	-9.511
▁기에	-9.51214
▁회신	-9.51246
▁다며	-9.51265
▁요양	-9.51313
▁최대	-9.51361
▁바람	-9.51379
▁단지	-9.51386
없이	-9.5148
버지	-9.51541
국민	-9.5157
칠	-9.51739
쯤	-9.51746
▁21	-9.5177
▁명확	-9.5189
▁반려	-9.5212
▁떠나	-9.52148
짜	-9.52208
▁암	-9.5224
▁짜	-9.52383
▁설	-9.52477
▁공유	-9.52614
▁삼성	-9.52626
▁김천	-9.52954
▁신재	-9.53109
▁졌	-9.53167
▁매년	-9.53276
며	-9.53418
▁주차	-9.53418
왔	-9.53502
쁘	-9.53584
▁중앙	-9.53598
▁최고	-9.53761
▁줄어	-9.53797
▁현대	-9.54036
끔	-9.54103
▁침해	-9.54525
▁00	-9.54535
▁견	-9.54538
▁배우	-9.5454
▁에선	-9.54626
▁랑	-9.54649
▁허가	-9.54683
소인	-9.54829
▁내부	-9.54998
▁그저	-9.54999
▁기억	-9.55372
▁국채	-9.55614
억	-9.55627
독	-9.55641
▁격	-9.55718
습	-9.55757
▁순	-9.55802
▁혹은	-9.55814
▁걸로	-9.55893
▁밝	-9.56005
있	-9.56228
▁죽이	-9.56248
▁넘어	-9.56351
었	-9.56407
▁뜻	-9.56732
▁폐기	-9.5674
▁여부	-9.56764
▁낸	-9.56845
▁희생	-9.56953
▁2015	-9.57092
항	-9.57172
아빠	-9.57191
▁첨부	-9.57192
▁구미	-9.57313
▁소속	-9.57317
▁존경	-9.57384
▁니다	-9.57422
▁병역	-9.57478
▁마찬가지	-9.57523
규	-9.57564
▁심사	-9.57594
▁통화	-9.576
기타	-9.57619
▁퇴직	-9.5785
▁표현	-9.57863
▁사정	-9.5787
▁만족	-9.57978
▁웃	-9.5836
▁노조	-9.58475
▁X	-9.58555
▁봉사	-9.58596
울	-9.58712
▁갑자	-9.58738
▁수행	-9.58786
▁협의	-9.58842
▁아프	-9.59053
▁진료	-9.59069
▁공항	-9.59122
▁수소	-9.59138
▁일자	-9.59148
▁80	-9.5916
▁므로	-9.59212
▁솔직	-9.59229
▁취해	-9.59464
▁관계자	-9.59571
▁작업	-9.59629
▁시기	-9.5965
▁예정	-9.5973
▁부서	-9.5988
지르	-9.59921
▁든지	-9.60053
▁침	-9.60203
▁L	-9.60438
▁꼴	-9.60553
동생	-9.60622
▁걷	-9.60691
▁활용	-9.60896
▁특정	-9.6096
▁끊	-9.61039
▁남북	-9.61208
학	-9.61347
▁음주운전	-9.61487
▁직무	-9.6158
▁탄핵	-9.61581
▁한국인	-9.61808
▁kr	-9.6184
▁수익	-9.61888
▁연장	-9.61903
창	-9.62022
▁투표	-9.62097
▁연말	-9.62225
다가	-9.62324
▁구매	-9.62366
▁면제	-9.62396
▁창	-9.62417
▁재정	-9.62507
찰	-9.62509
습니다	-9.62595
▁쓸	-9.62624
▁누군가	-9.62664
▁무고	-9.62752
키	-9.62802
▁보건	-9.62889
가짜	-9.62901
▁월세	-9.62952
▁통보	-9.63052
줄	-9.63176
▁퇴근	-9.63299
▁티	-9.63355
어도	-9.63363
토	-9.63427
다리	-9.63491
▁개입	-9.63524
른	-9.63578
벌	-9.63664
▁경험	-9.6375
,	-9.63898
▁봐야	-9.63974
▁구성	-9.64011
▁나온	-9.6403
▁나와	-9.64173
▁자세	-9.64201
▁위법	-9.64282
▁방지	-9.64318
림	-9.6455
▁출근	-9.64565
▁지시	-9.64615
▁어쩔	-9.6473
▁칼	-9.64756
▁가져	-9.64762
▁세입	-9.64767
▁제시	-9.64778
려고	-9.64845
섭	-9.64897
촌	-9.64925
▁31	-9.65011
▁안내	-9.65038
▁통합	-9.65105
▁케	-9.6526
▁자본	-9.65292
별	-9.65321
▁민국	-9.65479
▁혐의	-9.65491
다는	-9.65493
▁이사	-9.65566
▁대기	-9.65636
강	-9.65655
▁연결	-9.65759
▁당했	-9.65794
국장	-9.65836
▁유기	-9.65877
▁학년	-9.65883
▁삭제	-9.65972
▁순간	-9.66022
▁합시다	-9.66081
▁한데	-9.66183
▁자치	-9.66223
▁공익	-9.66561
▁문화재	-9.66598
▁500	-9.66645
▁중심	-9.66812
▁찾아	-9.66814
수료	-9.66844
▁갑니다	-9.66927
▁지원금	-9.67266
례	-9.67275
녕	-9.67281
▁준다	-9.67489
▁마을	-9.67512
▁주식	-9.6757
▁실행	-9.67578
렸	-9.67601
▁군사	-9.6762
▁공인	-9.67645
▁산정	-9.6765
▁감정	-9.67656
▁몰라	-9.6785
다수	-9.67858
▁까	-9.67973
▁우려	-9.68046
▁수석	-9.68055
아가	-9.68055
▁화장	-9.68111
▁300	-9.68198
▁중단	-9.68253
▁당사	-9.68275
▁홍	-9.68278
▁원칙	-9.6834
▁가슴	-9.68376
w	-9.68406
▁발급	-9.68615
쟁	-9.68626
▁교수	-9.68657
▁패	-9.68803
▁노예	-9.68819
아내	-9.69105
▁그러면	-9.69145
▁논리	-9.69209
칭	-9.69521
▁해요	-9.69663
▁좌	-9.69747
색	-9.69756
▁뒷	-9.69794
▁건데	-9.69894
시점	-9.69953
▁푼	-9.69959
정작	-9.69961
▁둔	-9.70001
▁공매	-9.70028
▁고민	-9.70052
▁줬	-9.70172
디	-9.70332
▁편의	-9.70354
▁의식	-9.70421
▁상식	-9.70456
▁지도	-9.70457
▁스	-9.70485
▁위치	-9.70507
삼	-9.70729
▁필	-9.70803
코	-9.71078
▁못했	-9.71209
매	-9.71232
▁실수	-9.71308
▁챙	-9.71308
▁등급	-9.71347
▁하늘	-9.71505
롯	-9.71582
▁납니다	-9.71609
▁앉	-9.71689
▁확보	-9.71887
▁광	-9.71913
평	-9.72031
▁주도	-9.72123
▁늘어	-9.72244
▁김경	-9.72249
▁시킨	-9.72266
신문고	-9.72334
▁봐도	-9.72346
▁괴롭	-9.72367
▁남녀	-9.72394
▁자고	-9.72417
▁적법	-9.7272
▁됨	-9.72764
▁훨	-9.72813
▁아마	-9.72826
▁보고	-9.72835
▁홈	-9.7284
프	-9.72923
▁새벽	-9.72956
▁늘려	-9.72998
▁경영	-9.73044
▁사퇴	-9.73161
납	-9.73369
▁동네	-9.73414
▁훼	-9.73496
▁살려	-9.73507
씬	-9.73545
다면	-9.73603
▁야당	-9.73606
암	-9.7364
▁계시	-9.73685
A	-9.73709
▁증명	-9.73744
▁강요	-9.73882
▁썩	-9.74
▁K	-9.74012
▁의해	-9.74037
▁휴대	-9.74083
▁그걸	-9.74085
▁반성	-9.74156
생활	-9.74157
이젠	-9.7416
▁어려움	-9.74161
▁옳	-9.74207
▁공평	-9.74274
▁입법	-9.74433
▁장사	-9.7451
▁호소	-9.74652
▁줄여	-9.74842
▁예비	-9.74936
▁예천	-9.7494
척	-9.74946
▁신뢰	-9.75089
▁덜	-9.75136
▁됩니까	-9.75175
▁선고	-9.7519
▁사무관	-9.75275
▁대우	-9.75296
없	-9.75374
▁수단	-9.75452
▁끌	-9.75579
▁면접	-9.75592
▁오염	-9.75668
▁는지요	-9.75765
▁면허	-9.75922
▁는다고	-9.7594
▁유공	-9.75973
▁권한	-9.76087
▁방치	-9.76199
▁동시	-9.76319
▁달리	-9.76503
▁질문	-9.7662
▁왕	-9.76678
▁모아	-9.76719
▁이루어	-9.76725
▁이명	-9.76766
▁논란	-9.77042
▁라서	-9.77109
▁트	-9.77112
▁제재	-9.77132
▁파일	-9.77132
▁본다	-9.77303
▁생리	-9.77308
▁떨	-9.77367
슈	-9.77457
▁주거	-9.77512
▁평균	-9.77518
▁건축	-9.77524
▁선정	-9.77536
▁시켜야	-9.77612
▁출신	-9.77671
▁보조	-9.78085
▁아니면	-9.7815
▁응급	-9.78151
▁으신	-9.78182
▁문제점	-9.78192
▁화물	-9.7822
졌	-9.78263
▁식당	-9.78451
▁28	-9.78474
▁시킬	-9.78535
▁음식	-9.78651
충	-9.78667
▁내리	-9.78737
▁느냐	-9.78773
▁친절	-9.78774
갈	-9.78811
▁딱	-9.78835
▁현상	-9.7885
▁제일	-9.79113
▁통일	-9.79165
▁애국	-9.79178
▁물건	-9.79236
막	-9.79422
▁빨	-9.79464
▁밀	-9.79533
▁우편	-9.79598
돈	-9.79721
▁더라구요	-9.79745
▁소중	-9.79785
▁즉시	-9.79841
물가	-9.79868
▁이곳	-9.79946
▁나올	-9.79987
▁남용	-9.80019
▁배상	-9.80033
▁마땅	-9.80137
▁가구	-9.80448
▁010	-9.80652
으면	-9.80727
▁밑	-9.80806
▁차례	-9.80831
TX	-9.80911
▁정산	-9.8126
id	-9.81287
▁불과	-9.8131
▁반환	-9.81319
변	-9.81333
▁허용	-9.81341
▁이랑	-9.81404
▁텐데	-9.81467
▁귀하	-9.81618
▁성매매	-9.81671
겟	-9.81718
▁붙	-9.8191
▁집안	-9.81959
환	-9.81995
▁보통	-9.82016
▁그래야	-9.82091
▁매매	-9.82097
기업	-9.82147
▁카풀	-9.82151
▁자는	-9.82158
▁현금	-9.82186
S	-9.82258
▁후보	-9.82263
▁성인	-9.82278
▁프로그램	-9.82294
▁협	-9.8243
▁예상	-9.82441
▁버렸	-9.82502
▁종합	-9.82548
탓	-9.82603
▁퍼	-9.82734
▁네이버	-9.82833
▁비례	-9.82949
▁손실	-9.82953
▁소비	-9.83075
▁일단	-9.83111
▁눈치	-9.83273
▁통해서	-9.83289
▁차라	-9.83332
▁성공	-9.834
▁엔진	-9.83436
▁시술	-9.83439
▁끼	-9.83455
학생	-9.83471
▁결론	-9.83689
▁대형	-9.83747
혹	-9.83764
▁물질	-9.8379
▁겨울	-9.83793
욕	-9.838
크	-9.83993
▁매출	-9.84045
▁끼리	-9.84048
▁협회	-9.84064
래도	-9.84163
▁위기	-9.84167
▁고등	-9.84214
▁일까요	-9.84281
▁극	-9.84376
▁허리	-9.84533
▁경유	-9.84639
▁싸움	-9.84715
▁지하철	-9.84922
▁대리	-9.84946
▁불만	-9.84953
▁떨어	-9.84975
▁성범죄	-9.84988
업자	-9.85033
▁신분	-9.85295
▁naver	-9.85301
션	-9.85324
▁상품	-9.85384
곡	-9.85455
와	-9.85624
▁일방	-9.85739
▁윤	-9.85765
▁종사	-9.85841
▁해제	-9.85843
▁할까요	-9.8591
▁보육	-9.85914
▁도둑	-9.85936
▁입금	-9.85995
▁자주	-9.86166
▁불량	-9.8628
▁정리	-9.86592
▁교체	-9.86621
무실	-9.86745
▁여전	-9.86801
▁수령	-9.87005
▁신규	-9.87046
▁뭘	-9.87072
▁집중	-9.873
▁52	-9.87315
▁참고	-9.87354
▁통지	-9.87434
▁그나마	-9.8745
▁줘	-9.87466
▁소장	-9.87601
▁나머지	-9.87662
▁척	-9.87765
져	-9.87825
▁활성	-9.87899
▁취급	-9.87931
▁엄중	-9.87963
▁타당	-9.88135
▁26	-9.88163
▁비교	-9.88167
▁홍보	-9.88248
▁못해	-9.8853
▁힘듭니다	-9.88646
▁따로	-9.88687
▁황	-9.88764
▁니깐	-9.88823
▁할지	-9.88903
▁그리	-9.89037
귀	-9.8904
▁셔야	-9.8929
▁장소	-9.89401
▁에너지	-9.89531
▁회의	-9.89693
▁접	-9.8972
▁미리	-9.89826
▁무리	-9.89917
발전소	-9.89918
▁다녀	-9.90022
▁나타	-9.90038
▁경남	-9.90131
술	-9.90149
▁착	-9.90215
▁제목	-9.90231
▁대중	-9.90291
로서	-9.90302
▁뿌리	-9.90455
총리	-9.90542
▁90	-9.90552
▁카페	-9.90569
▁비서	-9.90795
숙	-9.90835
▁눈물	-9.90945
▁자꾸	-9.91074
▁고양이	-9.91118
▁동원	-9.91276
일보	-9.91319
▁여서	-9.91361
▁명의	-9.91437
▁는다면	-9.91502
▁인증	-9.91674
▁빌	-9.91688
▁전달	-9.91794
▁형태	-9.91928
▁1000	-9.9195
정부	-9.9208
페이	-9.92124
▁도저	-9.92181
▁인건비	-9.92401
▁소방	-9.9241
▁불러	-9.92556
▁본사	-9.92713
▁닫	-9.92827
▁보안	-9.9296
▁빈	-9.92989
▁박탈	-9.92989
▁시위	-9.9304
▁카카오	-9.9305
▁수정	-9.93054
▁내역	-9.93081
▁일제	-9.93126
▁는다는	-9.93235
▁져야	-9.93335
▁22	-9.93473
온	-9.93503
▁양승	-9.93635
갑	-9.9376
침	-9.93918
▁09	-9.93928
▁어라	-9.93945
▁대처	-9.93973
▁예방	-9.94029
▁액	-9.94059
▁지구	-9.9407
▁불가	-9.94076
▁겨우	-9.94125
▁지휘	-9.94188
채	-9.94192
착	-9.94234
의자	-9.94346
▁깨	-9.94402
▁최종	-9.94514
랑	-9.94755
▁햇	-9.94782
▁스러운	-9.94786
▁송	-9.94816
▁공감	-9.95011
▁곧	-9.95132
▁회원	-9.95132
▁했었	-9.95135
곳	-9.95194
▁한심	-9.95234
▁돌아	-9.95353
만큼	-9.95459
▁슈퍼	-9.95667
TV	-9.95725
▁내일	-9.95751
▁미군	-9.9577
▁빛	-9.95817
▁자원	-9.95823
▁기능	-9.9586
▁제정	-9.95984
▁그럴	-9.96051
정호	-9.96186
▁27	-9.96236
▁구역	-9.96288
▁책	-9.96329
▁아기	-9.9634
▁비해	-9.96504
▁ww	-9.96674
▁기부	-9.96716
▁응	-9.96838
▁명목	-9.96893
▁오토	-9.97015
▁감소	-9.97058
▁누리	-9.97115
▁일상	-9.97151
▁정지	-9.97205
▁깨끗	-9.97292
▁굳	-9.97326
탕	-9.97333
▁바란다	-9.97426
▁저녁	-9.97428
▁공격	-9.9748
사고	-9.97481
로써	-9.97593
어지	-9.97678
▁비슷	-9.9773
바이	-9.9784
준	-9.97898
▁이행	-9.97917
무소	-9.98157
▁지자	-9.98279
▁가난	-9.98338
▁생겼	-9.98351
▁어제	-9.98422
▁헌	-9.98472
▁양성	-9.9852
▁간절히	-9.98521
널	-9.98594
렴	-9.98644
▁채무	-9.98665
▁감염	-9.98691
▁클	-9.98765
▁수용	-9.98776
▁떠	-9.98838
▁포상	-9.98924
▁합격	-9.99172
▁매입	-9.9918
톡	-9.99208
▁영화	-9.99262
▁시켰	-9.99288
▁법정	-9.9933
껏	-9.99339
▁제보	-9.99339
▁맨	-9.9961
▁어려워	-9.99653
▁조국	-9.99775
▁직권	-9.99929
▁필수	-9.99954
▁염	-9.99968
▁올바른	-10.0015
▁빠져	-10.0016
▁비싼	-10.0019
▁광주	-10.002
칙	-10.0032
▁매장	-10.0034
▁혹시	-10.0046
▁부지	-10.0052
▁옷	-10.0057
▁실망	-10.006
▁2014	-10.0077
▁지침	-10.0078
▁장난	-10.008
▁혁명	-10.0081
▁달라	-10.0086
▁김태	-10.0092
▁비행	-10.0097
▁무능	-10.0099
▁청소	-10.011
▁잖아요	-10.0122
▁뭔	-10.0127
▁창업	-10.0128
▁형편	-10.0129
작	-10.0133
▁co	-10.0143
▁어쩌	-10.0173
탁	-10.0176
권력	-10.0193
▁정원	-10.0194
▁부르	-10.0215
▁틀	-10.0219
▁생존	-10.0223
▁존중	-10.0224
▁고위	-10.0232
▁시도	-10.0233
▁대선	-10.0238
▁안타	-10.0254
▁설계	-10.0258
참	-10.0262
해야	-10.027
▁가까운	-10.0273
▁보입니다	-10.0281
▁취득	-10.0284
▁횡포	-10.029
▁경비	-10.0296
▁어르	-10.0316
▁흐	-10.0321
출산	-10.033
▁신문	-10.033
▁짐	-10.0332
▁배려	-10.0334
요일	-10.0344
광	-10.0349
▁노무	-10.0349
승	-10.0352
▁가이드	-10.0355
▁곤	-10.0368
놈	-10.0372
▁핑	-10.0383
▁당선	-10.04
▁대안	-10.0409
▁숙	-10.043
▁뻔	-10.043
▁구분	-10.0446
카	-10.0447
▁지적	-10.0468
▁촉구	-10.0473
▁낼	-10.0482
▁연예인	-10.0483
▁임기	-10.0494
▁알아	-10.0494
▁알리	-10.0506
▁냄새	-10.0512
▁뛰	-10.0519
▁멀	-10.0524
▁황당	-10.0552
▁묵	-10.0567
▁진심	-10.0568
▁뇌	-10.0574
▁가해	-10.0582
▁해소	-10.0592
▁계약직	-10.0599
▁TV	-10.0614
▁수백	-10.0624
잡	-10.0626
▁화재	-10.0632
▁숫	-10.0638
▁전용	-10.0639
▁단계	-10.0647
튜브	-10.066
▁민정	-10.0663
▁범위	-10.068
레	-10.0685
▁지경	-10.0692
겐	-10.0698
스트	-10.0701
▁집권	-10.0703
존	-10.071
▁감시	-10.0716
▁인도	-10.0724
▁악용	-10.0749
▁소식	-10.0755
▁합법	-10.0759
핵	-10.0767
싸	-10.0779
▁휴가	-10.0789
▁유학	-10.0802
▁였으며	-10.0809
▁신호	-10.082
▁플	-10.0825
▁보좌	-10.0833
합니다	-10.0837
▁납	-10.0838
▁차단	-10.084
▁도박	-10.0851
쓰	-10.0864
▁에요	-10.088
▁택	-10.0893
마트	-10.0893
▁계신	-10.0898
▁모집	-10.0901
틀	-10.0901
▁했으나	-10.0901
▁차리	-10.091
됬	-10.0927
▁CC	-10.0932
새	-10.0935
▁퇴직금	-10.0939
▁대전	-10.0942
▁분위	-10.0944
▁매달	-10.0952
▁한지	-10.0953
▁속도	-10.0953
▁회생	-10.0958
▁감옥	-10.0959
▁경북	-10.096
▁황교	-10.0962
▁방학	-10.0966
아지	-10.0976
커	-10.098
▁하락	-10.0983
▁현행	-10.0983
▁독재	-10.1004
▁세워	-10.1006
▁회견	-10.1009
▁쓴	-10.101
어오	-10.1012
광역시	-10.1025
좌	-10.1025
▁안락	-10.1029
▁자랑	-10.1031
▁둘째	-10.1039
▁기획	-10.1047
▁깊	-10.1049
▁신설	-10.1053
아이	-10.1054
▁소상	-10.1059
▁사형	-10.1071
팅	-10.1077
▁충격	-10.1079
▁알바	-10.1081
▁당당	-10.1089
▁토론	-10.1092
▁상관없	-10.1095
와대	-10.1101
▁느라	-10.1119
▁으려고	-10.1124
▁심판	-10.1138
▁녹	-10.1144
응	-10.1171
▁대화	-10.118
▁600	-10.1186
▁미성년	-10.1204
▁명령	-10.1207
▁즐	-10.1211
▁안타까	-10.122
▁이르	-10.1226
▁자면	-10.1233
▁봉	-10.1237
▁승인	-10.1237
▁불리	-10.1241
▁부작	-10.1254
▁옛	-10.1255
▁국세	-10.1273
▁지출	-10.1273
▁버린	-10.1289
▁심한	-10.1298
▁제조	-10.1304
▁다수	-10.1307
▁간단	-10.1324
▁생겨	-10.1328
▁다름	-10.1335
▁다운	-10.1337
▁사무	-10.1351
▁조성	-10.136
▁미루	-10.1364
▁적자	-10.1365
▁미친	-10.1381
▁괜찮	-10.1393
▁불쌍	-10.1394
▁완화	-10.1396
▁수사관	-10.1403
▁실패	-10.1409
▁박원	-10.141
▁이웃	-10.141
▁배정	-10.1416
▁올린	-10.1418
반도	-10.1429
풍	-10.1432
▁떼	-10.1433
▁올랐	-10.1433
▁유리	-10.144
▁집니다	-10.1442
▁초과	-10.1449
▁십니다	-10.1451
▁자격증	-10.1451
▁결제	-10.1463
▁지식	-10.1464
▁유도	-10.147
▁중간	-10.1476
▁광화문	-10.1483
▁자동	-10.1488
▁짧	-10.15
▁김송	-10.152
빨리	-10.1529
가요	-10.1531
▁으려	-10.1539
▁잊	-10.1547
▁수업	-10.1549
▁던가	-10.156
▁부여	-10.157
▁고생	-10.1587
▁못할	-10.1589
영상	-10.1592
▁바보	-10.1594
▁회계	-10.1613
▁아파	-10.1617
▁풍	-10.1619
▁버려	-10.162
질환	-10.1644
▁정비	-10.1645
▁흔	-10.1653
▁머	-10.1656
되	-10.1658
▁움직	-10.1676
▁29	-10.1679
▁징계	-10.1679
▁부대	-10.1684
으며	-10.1688
▁심정	-10.1689
▁체계	-10.1694
▁나와서	-10.1696
▁임신	-10.1701
▁무료	-10.1702
▁현지	-10.171
▁탄	-10.1723
▁똥	-10.1746
▁쌓	-10.1748
▁워	-10.1782
▁회복	-10.1783
▁32	-10.1785
▁아닌데	-10.1786
▁통제	-10.1796
▁조기	-10.1809
라인	-10.1818
▁이자	-10.1823
▁영세	-10.1829
▁성추	-10.1846
였	-10.1847
맹	-10.1852
▁구나	-10.1853
은행	-10.1868
▁2013	-10.187
▁통신사	-10.1886
봄	-10.1893
▁과학	-10.1894
져야	-10.1897
▁유출	-10.191
▁살펴	-10.193
▁유일	-10.1932
▁향후	-10.1934
누	-10.1939
▁실태	-10.1944
▁부자	-10.1946
▁휴	-10.1949
▁벗어	-10.1955
▁베	-10.1955
▁당해	-10.1964
▁KT	-10.1971
▁특수	-10.1993
▁S	-10.1998
측	-10.1999
종일	-10.2003
▁걸려	-10.2009
▁압박	-10.2026
▁던데	-10.2026
▁법무	-10.2046
▁마세요	-10.2049
친	-10.2051
▁돕	-10.208
▁품	-10.21
▁밝혔	-10.2104
▁이렇	-10.2106
▁가까	-10.2119
▁으니까	-10.2123
▁비하	-10.2138
▁추천	-10.2153
▁친일파	-10.2155
▁목사	-10.2189
▁그날	-10.2191
▁핸드	-10.2197
▁사립	-10.2202
▁통계	-10.2211
니까	-10.2213
▁슬	-10.2233
▁엄벌	-10.2236
▁헤	-10.2237
▁학부모	-10.2243
▁로운	-10.2249
▁출입	-10.2249
▁강원	-10.2255
바	-10.2261
▁대상자	-10.2274
▁투입	-10.2283
▁재벌	-10.2286
▁협상	-10.2295
▁35	-10.2298
▁수치	-10.2322
▁석	-10.2326
▁기득	-10.2332
▁이럴	-10.2334
킹	-10.2343
▁운용	-10.2352
냥	-10.2359
▁압	-10.2373
▁박테리	-10.2374
▁링크	-10.2377
▁디	-10.2383
▁일관	-10.2408
▁철도	-10.2413
▁상환	-10.2422
▁아닐	-10.2429
싱	-10.2435
▁훈	-10.2444
▁제거	-10.2456
▁대변	-10.2458
▁울산	-10.2458
▁그랬	-10.2464
▁얼	-10.2467
에서	-10.247
웠	-10.2471
▁덕	-10.2477
입니다	-10.2494
찬	-10.25
▁몰랐	-10.2505
▁공원	-10.2509
▁페	-10.2511
▁페미	-10.2521
▁골	-10.2541
졸	-10.2552
▁출퇴근	-10.2553
효	-10.2554
▁고등학	-10.2557
▁촬	-10.257
▁공고	-10.2575
▁제약	-10.2595
▁셧	-10.2595
▁들어와	-10.2596
▁제주	-10.2598
▁경고	-10.2603
▁협력	-10.2606
식별	-10.2608
사안	-10.2609
▁블랙	-10.2634
▁단위	-10.2639
▁우울	-10.264
▁구제	-10.2641
▁대법원	-10.2647
▁명시	-10.2655
는데	-10.2661
▁현역	-10.2677
▁부천	-10.2677
▁흉	-10.2685
▁연기	-10.2686
▁모릅니다	-10.2695
▁직장인	-10.2696
▁미치	-10.2698
▁자라	-10.2702
▁순위	-10.2705
▁끝나	-10.2708
▁나갈	-10.2712
▁기소	-10.2734
▁용산	-10.2741
▁드렸	-10.2751
▁컴	-10.2752
▁용인	-10.2753
달리	-10.2754
시간	-10.2761
▁가운데	-10.2773
▁유명	-10.278
▁가요	-10.2808
▁아닌지	-10.2809
▁짖	-10.281
▁털	-10.2814
▁여도	-10.2836
▁양산	-10.2845
▁채권	-10.2846
▁임시	-10.285
▁준다는	-10.2867
▁조재	-10.2869
▁빌려	-10.2874
▁일시	-10.2877
▁초등학생	-10.2882
돌	-10.2885
▁바닥	-10.2886
▁자산	-10.2894
▁고의	-10.2896
▁가스	-10.2915
공사	-10.2928
▁안보	-10.2945
▁비밀	-10.2949
▁성적	-10.295
▁보증	-10.2952
▁혁신	-10.2958
▁설립	-10.2961
▁빙	-10.2964
▁포장	-10.2967
n	-10.2984
▁파괴	-10.2986
버	-10.2987
▁페미니	-10.2989
▁앞서	-10.2997
▁폐쇄	-10.3006
▁정해	-10.3016
▁연령	-10.302
▁가만	-10.3035
▁금전	-10.3038
벌써	-10.3041
▁대단	-10.3043
▁성과	-10.305
▁형제	-10.3052
▁찬성	-10.3056
▁대충	-10.3057
사람	-10.306
▁이걸	-10.3071
▁출장	-10.3086
e	-10.3088
▁보고서	-10.3106
가족	-10.3124
▁장려	-10.3126
▁니까요	-10.3135
▁느껴	-10.3143
▁음주	-10.3149
▁담보	-10.3153
▁아픈	-10.3154
▁도덕	-10.3158
▁강조	-10.3163
▁답니다	-10.3178
▁임명	-10.3181
▁엉	-10.3181
1	-10.3185
▁나무	-10.3188
▁청약	-10.3194
▁등기	-10.3203
▁차선	-10.3207
▁집회	-10.321
▁시정	-10.3211
▁인재	-10.3219
픔	-10.3222
▁보냈	-10.3239
여금	-10.3241
▁셋	-10.3275
▁부양	-10.3298
▁올렸	-10.33
형성	-10.33
▁감찰	-10.3301
▁취직	-10.3316
▁냈	-10.3344
▁스마트	-10.3352
▁진단	-10.3354
▁맞춰	-10.3356
▁양주	-10.3365
▁150	-10.3371
▁기계	-10.3376
자리	-10.3376
공식	-10.3377
▁제작	-10.3385
▁느낌	-10.3391
▁이끌	-10.3396
▁폐업	-10.3401
▁통한	-10.3412
▁판정	-10.3419
▁w	-10.3423
련	-10.3434
▁베트남	-10.3438
▁과세	-10.3454
▁html	-10.3455
▁예술	-10.3457
▁임대료	-10.346
▁상속	-10.3489
▁쥐	-10.3494
▁브	-10.3503
▁공산주의	-10.3506
▁국립	-10.3511
J	-10.3515
▁교도	-10.3547
▁여유	-10.3547
▁선동	-10.3557
▁인물	-10.3564
▁미세	-10.3577
▁소수	-10.3585
▁상관	-10.3591
▁전두환	-10.3599
▁맞벌이	-10.3601
▁오로	-10.3607
퇴	-10.3607
어야	-10.3609
▁확정	-10.3615
▁사상	-10.362
츠	-10.3637
▁난리	-10.3639
징	-10.3647
▁더러	-10.3652
▁배달	-10.3661
▁민사	-10.3664
▁문서	-10.3671
▁주요	-10.3682
▁KB	-10.369
▁더라고요	-10.3708
▁나옵니다	-10.3711
▁챙겨	-10.3728
▁용서	-10.374
▁추락	-10.3749
▁수출	-10.375
▁국무총리	-10.3755
▁뜯	-10.3759
▁애기	-10.3759
▁고작	-10.3786
▁돼지	-10.379
▁피부	-10.3792
▁결재	-10.3798
▁심석	-10.3802
▁공문	-10.3802
▁부채	-10.3813
▁망신	-10.3816
딩	-10.3818
▁여름	-10.382
은이	-10.383
▁지사	-10.3831
▁기여	-10.3833
필	-10.3857
▁유통	-10.386
▁설정	-10.3861
▁청정	-10.3872
▁비자	-10.3872
로운	-10.3874
자력	-10.3875
▁쉴	-10.3876
▁상상	-10.3885
렵	-10.3896
꺼	-10.3897
▁소개	-10.3903
▁보증금	-10.391
▁배치	-10.3916
▁태양	-10.3922
▁뺏	-10.3925
▁으라고	-10.3932
몇	-10.3936
▁차지	-10.394
▁천안	-10.3942
▁비상	-10.3942
▁좁	-10.395
▁윗	-10.3956
▁압류	-10.3957
▁취약	-10.3959
▁나아	-10.3969
▁대법원장	-10.3975
르바	-10.3976
염	-10.3976
▁세무	-10.3985
▁부실	-10.3989
▁아이디	-10.3989
▁주차장	-10.4002
▁못합니다	-10.4023
▁일어	-10.4027
옥	-10.4029
▁신다면	-10.4031
▁첨	-10.4042
▁빼앗	-10.4051
▁과태	-10.4057
▁접근	-10.4065
▁캐	-10.4087
링	-10.41
환경	-10.4101
▁과실	-10.4106
▁목표	-10.4108
▁강한	-10.411
▁전형	-10.4121
버스	-10.4123
▁입시	-10.4125
▁2012	-10.4133
▁파산	-10.4136
▁해석	-10.4141
▁위안	-10.4141
3	-10.4142
▁2000	-10.4166
▁살아갈	-10.417
▁단어	-10.4186
▁뇌물	-10.4215
▁주소	-10.4216
X	-10.4234
▁할까	-10.4237
▁소외	-10.4241
▁세비	-10.4248
▁가산	-10.4253
▁관료	-10.4255
▁45	-10.4265
▁중소	-10.4267
▁굴	-10.4272
▁노선	-10.4272
▁책정	-10.4276
▁공포	-10.4285
▁공무	-10.4289
▁막대	-10.4291
곤	-10.4302
에도	-10.4302
▁신상	-10.4308
▁이하	-10.4309
램	-10.4311
▁될지	-10.4315
▁저질렀	-10.4326
▁억지	-10.4327
▁압력	-10.4332
짜증	-10.4334
릇	-10.4335
▁뭔가	-10.4345
▁쇼	-10.4348
네	-10.4351
▁심리	-10.4351
▁내년	-10.4353
까요	-10.4357
▁차관	-10.4368
▁멀쩡	-10.4371
▁전원	-10.4376
▁키워	-10.438
악화	-10.4385
▁아닐까요	-10.4389
▁O	-10.439
롱	-10.4397
BC	-10.4398
▁08	-10.4398
▁적절	-10.4398
▁M	-10.4405
▁km	-10.4406
▁경찰청	-10.4407
낫	-10.4408
힘	-10.4412
▁국고	-10.4418
▁소용	-10.442
▁저소득	-10.4425
▁긴급	-10.4433
▁골목	-10.447
걸	-10.4477
▁균형	-10.448
▁시골	-10.4502
▁힘없	-10.4504
▁부평	-10.4505
▁길래	-10.4518
▁다리	-10.4526
▁SBS	-10.4544
▁저지른	-10.4545
▁지연	-10.4546
▁마무리	-10.4553
▁모욕	-10.4554
퓨	-10.4557
▁D	-10.4558
▁질병	-10.4569
▁김현	-10.4583
▁리라	-10.4589
▁투쟁	-10.4592
▁어이없	-10.4603
ww	-10.4615
▁해야지	-10.4617
▁명절	-10.4617
▁주범	-10.4624
▁뜨	-10.463
▁빵	-10.4635
▁채우	-10.4644
▁징	-10.4644
첩	-10.465
▁65	-10.4674
▁겨	-10.468
균	-10.4709
▁덮	-10.4713
럭	-10.472
▁될까요	-10.4721
▁벤	-10.4733
▁I	-10.4745
▁대회	-10.4754
▁옥	-10.4754
▁간절	-10.4756
▁후원	-10.476
▁센	-10.4766
▁걸까요	-10.4772
▁러시아	-10.4773
▁축소	-10.4776
▁인격	-10.4779
▁식품	-10.4794
랐	-10.4818
▁보완	-10.4821
▁거쳐	-10.4835
▁식사	-10.4836
▁라니	-10.4837
▁아라	-10.4839
▁59	-10.4839
춘	-10.484
▁모른	-10.4842
▁캠	-10.4849
▁일으	-10.4872
▁벌어	-10.4872
▁으므로	-10.4875
▁Y	-10.4878
힌	-10.4884
H	-10.4889
▁800	-10.49
튼	-10.4903
▁먹이	-10.4915
▁떠들	-10.4916
▁다행	-10.4924
▁팬	-10.4925
운전	-10.4926
교육	-10.4926
▁어떨까	-10.4937
▁부가	-10.4978
▁줍니다	-10.4986
▁두려워	-10.4997
▁광역	-10.4998
▁넓	-10.5015
▁레	-10.5018
까	-10.503
▁read	-10.503
▁강사	-10.5035
▁나눠	-10.5043
▁분리	-10.5045
▁우롱	-10.5045
겁	-10.5051
▁MB	-10.5051
▁입대	-10.5055
▁유럽	-10.5059
▁분열	-10.5063
▁언어	-10.5071
▁상공	-10.5073
▁선임	-10.5073
▁팀장	-10.5078
▁실력	-10.5079
▁태어	-10.5083
갱이	-10.5092
▁체포	-10.5102
▁심의	-10.5104
덕	-10.5117
흘리	-10.5119
CD	-10.5123
▁보건복지	-10.5126
▁저축	-10.513
▁연합	-10.5147
▁시공	-10.5148
▁도착	-10.5149
▁분석	-10.517
또	-10.5173
▁항목	-10.5173
사관	-10.5175
▁일어난	-10.5176
▁농민	-10.5179
더욱	-10.5192
▁공화	-10.5193
▁어처구니	-10.5202
▁존	-10.5222
▁해외여행	-10.5234
▁휴게	-10.5235
▁만료	-10.5236
▁특권	-10.5238
▁성명	-10.5242
▁변명	-10.5249
▁400	-10.5251
▁소재	-10.5255
▁제주도	-10.5258
▁가리	-10.5291
▁독립운동	-10.5293
▁배출	-10.5296
지가	-10.5297
▁OE	-10.5302
주민	-10.5314
▁지났	-10.5327
▁소년	-10.533
▁가계	-10.5341
므로	-10.5341
라고	-10.5343
▁강북	-10.5345
▁고시	-10.5349
▁조속	-10.536
▁호텔	-10.5367
▁비대	-10.5367
▁재단	-10.5379
▁부인	-10.5379
▁콜	-10.5383
너무	-10.5398
▁표준	-10.5401
▁바뀐	-10.5404
▁02	-10.541
▁소지	-10.5413
▁사라	-10.5415
봐	-10.5419
즘	-10.5423
▁수리	-10.5426
▁바른	-10.5428
▁남한	-10.5448
▁몰아	-10.5459
APT	-10.546
▁전력	-10.5464
▁트럼프	-10.5466
겹	-10.5467
▁마리	-10.5467
▁농업	-10.5469
▁구축	-10.5477
▁o	-10.5477
▁도심	-10.5492
룹	-10.5508
▁강간	-10.5515
▁임원	-10.5516
▁함부	-10.5521
▁계기	-10.5524
▁후원금	-10.5534
업주	-10.554
▁대학생	-10.5542
▁완	-10.5558
▁가질	-10.5578
▁부끄	-10.5588
왕	-10.5592
▁떨어져	-10.5593
▁영원	-10.5596
▁절실	-10.5598
▁무상	-10.56
▁article	-10.5602
▁동료	-10.5612
▁법조	-10.5617
▁면담	-10.5631
▁향상	-10.5646
▁상호	-10.565
▁가르	-10.5664
▁바다	-10.567
▁은폐	-10.5672
▁소액	-10.5675
지사	-10.568
▁총선	-10.5682
▁가상	-10.5683
▁앱	-10.5689
▁전반	-10.5694
메라	-10.5695
▁혐오	-10.5698
▁순수	-10.5717
▁수원	-10.5723
▁2020	-10.5731
▁전면	-10.5747
▁멈	-10.5749
▁써야	-10.5754
▁굉장	-10.5765
▁엄격	-10.5771
▁회피	-10.5775
▁수시	-10.5777
▁곳곳	-10.5778
교통	-10.5786
괴	-10.579
경원	-10.5791
▁조절	-10.5792
▁헬	-10.5793
▁공산	-10.5797
▁손님	-10.5809
▁들여	-10.5814
▁농사	-10.5827
▁롯데	-10.5827
▁진다	-10.583
▁달려	-10.5831
▁궁	-10.5842
긴	-10.5845
묵	-10.5847
즈	-10.5847
▁묶	-10.5851
C	-10.586
▁오른	-10.5863
▁킹	-10.5873
괄	-10.5891
▁다를	-10.5894
무리	-10.5895
▁횡령	-10.5902
▁치매	-10.5902
▁낙	-10.5907
▁c	-10.5912
▁지옥	-10.5914
▁수요	-10.5919
아먹	-10.5934
▁상실	-10.5936
조사	-10.5943
뇌	-10.5946
▁끔찍	-10.5953
금연	-10.5955
천군	-10.5966
▁위탁	-10.5967
▁원합니다	-10.598
▁유치	-10.5984
▁선발	-10.599
▁연동	-10.5991
▁살해	-10.5993
▁유발	-10.5997
▁고문	-10.6001
▁부담금	-10.6002
▁깔	-10.6007
켓	-10.601
▁땐	-10.602
▁환급	-10.603
▁여의도	-10.6043
▁36	-10.6051
으	-10.6053
앓	-10.6074
데리	-10.6075
뜻	-10.6075
▁보호법	-10.6083
▁전략	-10.6089
혼	-10.6102
▁드릴	-10.6104
기소	-10.6107
▁항생	-10.6114
대금	-10.6114
▁고속도	-10.6122
▁점심	-10.6123
▁청문	-10.6124
▁썼	-10.6138
▁징병	-10.6138
▁언니	-10.6139
2	-10.6141
▁조심	-10.6141
▁중고	-10.6141
▁모양	-10.6142
찮	-10.6145
▁오랜	-10.6147
▁감싸	-10.6152
▁간부	-10.6165
▁제대	-10.6174
▁04	-10.6182
▁고소장	-10.6186
▁유사	-10.6195
▁중대	-10.6203
쳐서	-10.6207
차별	-10.6208
▁뻔뻔	-10.621
▁체험	-10.6211
▁회수	-10.622
▁막막	-10.6221
쳐	-10.6223
▁기다	-10.6225
▁종로	-10.625
▁매각	-10.6255
▁근절	-10.6282
▁파탄	-10.6283
올	-10.6291
▁욕심	-10.6296
뚱	-10.6299
▁색	-10.6306
▁처방	-10.631
조리	-10.6315
▁사교육	-10.6331
머리	-10.634
쳤	-10.6344
▁점수	-10.6345
▁07	-10.6347
▁일어날	-10.635
▁무주택	-10.636
▁으셨	-10.6367
▁이중	-10.6368
▁내사	-10.6368
G	-10.637
▁아십니까	-10.6376
▁99	-10.6383
▁보낸	-10.6389
벨트	-10.6408
▁생긴	-10.641
주일	-10.6418
▁싹	-10.6419
▁손가락	-10.643
▁불행	-10.6431
▁줄일	-10.6434
▁외유	-10.6437
▁생길	-10.6437
▁팩	-10.6455
분별	-10.6463
▁습	-10.6464
▁청장	-10.6467
▁섬	-10.6467
철수	-10.6469
▁겁	-10.6477
▁걸쳐	-10.6492
창호	-10.6499
택시	-10.6501
▁기만	-10.6517
▁무단	-10.6526
▁맑	-10.6529
▁추정	-10.6532
▁심해	-10.6534
▁거든	-10.6537
▁스타	-10.6543
▁경매	-10.6553
▁진주	-10.6564
털	-10.6568
▁바로잡	-10.6569
직원	-10.6608
▁석탄	-10.661
던	-10.6611
▁임차	-10.6636
▁출발	-10.6638
▁기피	-10.6643
▁일당	-10.6655
▁옵니다	-10.6663
▁소위	-10.6672
▁넥	-10.6672
거나	-10.6679
났	-10.6681
▁충전	-10.6684
으니	-10.6687
▁드라	-10.6688
▁정착	-10.6688
▁모자라	-10.669
▁입찰	-10.6693
볼	-10.6695
백	-10.671
▁흘러	-10.6731
▁당국	-10.6745
업소	-10.6746
▁톤	-10.6746
▁진출	-10.677
▁무너	-10.6773
▁유아	-10.6775
▁진보	-10.6778
픈	-10.6783
▁고쳐	-10.6786
▁반응	-10.6792
륜	-10.6796
▁농지	-10.6804
▁애견	-10.6811
▁기름	-10.6814
▁측정	-10.6821
▁왜냐하면	-10.6829
건축	-10.683
흡연	-10.6838
▁건의	-10.6838
▁겸	-10.6839
▁국적	-10.6841
▁의뢰	-10.6845
▁정화	-10.6847
다니	-10.6849
벽	-10.6862
▁호흡	-10.6874
된	-10.6878
▁창문	-10.6891
▁뭡니까	-10.6892
▁프랑스	-10.6892
▁내수	-10.6899
▁테러	-10.6907
▁응원	-10.6909
동안	-10.6911
이프	-10.6918
▁독일	-10.6921
▁굶	-10.6927
프라	-10.6931
▁방관	-10.6932
▁기념	-10.6939
▁야간	-10.6941
밀	-10.6951
▁간다	-10.6953
▁보인다	-10.6956
▁앞장	-10.6956
▁빙상	-10.6962
나가	-10.6971
저기	-10.6973
▁졸	-10.6975
▁진입	-10.6983
▁호주	-10.6986
▁사연	-10.6994
▁이내	-10.6996
▁모른다	-10.7003
▁위장	-10.7003
▁33	-10.7005
힐	-10.7007
▁산다	-10.7012
▁땀	-10.7015
▁05	-10.7021
혔	-10.7022
▁꾸준	-10.7025
▁사회주의	-10.7027
▁연체	-10.7032
▁파렴치	-10.7033
벌이	-10.7035
▁일용	-10.7051
▁전철	-10.7058
▁2010	-10.7081
▁조세	-10.7103
무기	-10.7105
▁앗	-10.712
▁나온다	-10.712
▁영구	-10.7139
▁노릇	-10.714
p	-10.7141
▁전수	-10.7151
▁버젓	-10.7166
▁설득	-10.717
▁도중	-10.717
▁큽니다	-10.7175
▁퇴출	-10.7177
렬	-10.7179
충돌	-10.7183
▁쇼핑	-10.7187
▁유전	-10.7199
▁잖	-10.72
▁소득세	-10.7201
몸	-10.7202
N	-10.7206
▁증권	-10.7207
퍼	-10.7211
▁늙	-10.722
골	-10.7226
▁미사	-10.7236
▁홀	-10.7239
▁객관	-10.7243
▁새끼	-10.7245
▁동남아	-10.7248
▁태어난	-10.725
▁징수	-10.7253
둥	-10.7257
개인	-10.7262
▁중독	-10.7265
▁세종	-10.7269
슬	-10.727
▁어리	-10.7281
▁하청	-10.7287
▁남겨	-10.729
맞	-10.7291
▁극단	-10.732
▁조카	-10.7322
▁맛	-10.7328
▁상습	-10.7332
시아	-10.735
▁당할	-10.7351
▁옮	-10.7354
▁추운	-10.7354
▁콘	-10.7355
▁병무	-10.7355
▁셈	-10.7365
▁올릴	-10.7367
▁5000	-10.7379
쇄	-10.7383
▁올림	-10.7389
▁119	-10.7389
5	-10.739
▁무서운	-10.7394
▁범법	-10.7408
▁상해	-10.741
짐	-10.7413
검찰청	-10.7423
▁노래	-10.743
▁다닐	-10.7438
▁대행	-10.744
▁전통	-10.7441
▁초계	-10.7447
▁이때	-10.7456
▁삭감	-10.7458
aid	-10.7464
▁매도	-10.7474
핑	-10.7474
▁엄연	-10.7479
▁가중	-10.7479
▁감수	-10.7482
▁방어	-10.7486
▁지구대	-10.7494
▁흔들	-10.7497
▁전공	-10.7505
▁정신병	-10.7509
▁소문	-10.752
▁횡단	-10.7532
View	-10.7535
▁복잡	-10.7536
▁개헌	-10.7539
빙	-10.7542
▁x	-10.7553
▁출석	-10.7562
▁자국	-10.7563
▁인데요	-10.757
▁인성	-10.7578
차례	-10.7582
▁예요	-10.7594
▁찬	-10.7596
▁육군	-10.7612
▁아시	-10.7612
▁한계	-10.7613
▁캐나다	-10.7615
▁수천	-10.7617
▁일찍	-10.7622
▁각하	-10.7627
▁SK	-10.7632
▁갓	-10.7632
▁112	-10.7645
헌	-10.7647
▁수신	-10.7651
▁모여	-10.7655
▁시켜서	-10.766
상식	-10.7672
▁43	-10.7675
▁뼈	-10.7685
▁탈락	-10.7687
▁장학금	-10.7691
▁급격	-10.7692
▁배당	-10.7698
▁헛	-10.7701
▁특례	-10.7701
▁참석	-10.7704
▁외출	-10.7724
▁드러	-10.7724
▁지국	-10.7726
▁라면서	-10.7734
위주	-10.7735
깐	-10.7747
▁임산	-10.7755
▁당첨	-10.7758
▁아닐까	-10.7762
줌	-10.7766
▁아울러	-10.7767
▁데이터	-10.7767
▁신년	-10.7775
▁장애인	-10.778
▁압수	-10.7782
▁박종	-10.7782
?	-10.7789
체육회	-10.779
▁39	-10.7802
▁모를	-10.7809
▁인공	-10.781
▁F	-10.7815
▁영장	-10.7829
▁꼼수	-10.7833
▁강도	-10.7839
▁입증	-10.7842
▁그랜드캐	-10.7847
▁펴	-10.7864
▁임의	-10.7868
▁정체	-10.7875
▁멋	-10.7883
▁무지	-10.7885
▁무장	-10.7893
▁씁니다	-10.7934
MF	-10.7935
▁일어났	-10.7937
▁EC	-10.7938
y	-10.7942
▁그라	-10.7946
▁몰래	-10.795
▁사면	-10.7957
▁지켜야	-10.7958
▁실무	-10.797
▁꼬박	-10.7971
▁영국	-10.7972
총	-10.7974
▁군데	-10.7983
회사	-10.7984
▁옹호	-10.7987
▁약한	-10.7989
▁마감	-10.7993
▁배운	-10.7997
▁벽	-10.8006
▁부풀려	-10.8007
▁민생	-10.8011
동참	-10.8018
뷰	-10.802
▁예외	-10.8022
▁친일	-10.8027
▁환경부	-10.803
▁영리	-10.8032
대표	-10.8037
▁시켜라	-10.8043
▁v	-10.8045
십시오	-10.8047
▁실명	-10.8049
뒤	-10.8052
▁양도	-10.8069
유투	-10.807
▁착취	-10.8075
▁신혼	-10.8076
▁정년	-10.8078
▁들어갔	-10.8079
▁인해서	-10.8081
▁거듭	-10.8086
빠	-10.809
▁조상	-10.81
▁서영	-10.8103
▁여권	-10.8109
플	-10.811
▁2011	-10.8111
▁다면서	-10.8118
▁달러	-10.8118
▁보였	-10.8119
▁06	-10.8119
▁봐라	-10.8131
▁닭	-10.8132
짓	-10.8138
려야	-10.8143
▁공영	-10.8146
▁놀이	-10.8151
▁지킬	-10.8154
▁사각지	-10.8158
▁밟	-10.8164
▁120	-10.8165
▁적당	-10.8172
▁내렸	-10.8174
▁증여	-10.8178
▁였을	-10.8178
▁지하	-10.8182
바닥	-10.8183
▁2009	-10.8188
▁2008	-10.8193
▁예약	-10.8193
▁토요	-10.8215
▁추첨	-10.8224
▁메시	-10.8233
▁물리	-10.8242
땀	-10.8243
▁선언	-10.8268
않	-10.8274
▁흥	-10.8278
▁케이	-10.8301
▁서명	-10.8303
▁치밀	-10.8308
▁군요	-10.8309
▁운송	-10.8311
▁위조	-10.8313
대한	-10.8315
▁주권	-10.8319
멸	-10.8323
소년	-10.8326
▁탐	-10.833
▁가동	-10.8333
실상	-10.8334
▁구형	-10.8339
▁파업	-10.8346
▁평택	-10.835
▁바꿀	-10.8351
▁붙여	-10.8351
▁재활	-10.8356
▁대가	-10.8365
▁뛰어	-10.8371
▁우대	-10.8397
▁될까	-10.8399
▁기울	-10.841
▁힘드	-10.8413
▁세탁	-10.842
▁출연	-10.8429
▁일까	-10.8432
▁도서관	-10.8445
▁방위	-10.8446
랜드	-10.8452
▁쏟	-10.8457
▁받아들	-10.8457
▁실내	-10.8457
▁분류	-10.8477
▁벗	-10.8487
▁몰려	-10.8491
붙이	-10.8492
등학생	-10.8495
▁배제	-10.8498
▁조문	-10.85
▁view	-10.8501
▁개별	-10.8504
둔	-10.8506
▁넘쳐	-10.8514
▁매수	-10.8516
▁떨어진	-10.8516
▁고서	-10.8525
▁역대	-10.8525
긍	-10.8525
▁체력	-10.8528
▁공연	-10.8529
어마	-10.8536
▁느낄	-10.8547
따	-10.8548
▁급한	-10.8551
▁완료	-10.8559
▁청사	-10.8563
▁기아	-10.8568
▁마포	-10.857
▁b	-10.8574
훼	-10.8574
▁판결문	-10.8578
▁주행	-10.8584
보내	-10.8593
▁이란	-10.8604
▁무려	-10.8614
▁어마	-10.8629
▁빈곤	-10.8631
▁구간	-10.8635
▁개판	-10.8635
▁청량리	-10.8639
▁그린	-10.864
▁살아왔	-10.8645
▁간접	-10.8646
▁소원	-10.8682
▁놀라	-10.8689
조용히	-10.8693
▁김영	-10.8694
▁계류	-10.8696
텐	-10.8699
▁솜	-10.8702
▁유포	-10.8705
▁메세지	-10.8723
▁거지	-10.8723
▁칠	-10.8737
▁순환	-10.8742
▁방사	-10.8747
▁승용	-10.8755
▁채워	-10.8756
▁랍니다	-10.8759
▁절감	-10.8761
▁물류	-10.8762
어서	-10.8762
▁관리비	-10.8765
▁피우	-10.8765
흥	-10.8767
▁처지	-10.8774
8	-10.8774
맛	-10.8775
동결	-10.8784
▁박정	-10.8798
▁지배	-10.8798
▁어려울	-10.8808
▁귀족	-10.8811
▁무력	-10.8818
▁방탄	-10.8819
메	-10.8822
▁으라는	-10.883
▁지점	-10.8834
▁괴	-10.884
숨	-10.885
▁보상금	-10.885
▁미터	-10.8852
▁김성	-10.8855
▁컨	-10.8858
▁과감	-10.8861
몰	-10.8863
▁권고	-10.8871
▁단말	-10.8878
▁연관	-10.8884
▁헌신	-10.889
▁휴식	-10.889
▁적정	-10.8901
▁철거	-10.8901
▁빠진	-10.8913
▁34	-10.8913
▁휴직	-10.8916
듯	-10.8917
어차	-10.892
▁공중	-10.8921
▁다는데	-10.8922
▁수고	-10.893
▁유산	-10.8938
여서	-10.8943
▁시선	-10.8956
▁으려는	-10.8957
▁작전	-10.8964
▁직전	-10.8967
▁똑똑	-10.8975
▁맺	-10.898
▁창원	-10.898
▁살아온	-10.8981
리카	-10.8985
▁응시	-10.8998
▁나갔	-10.8998
▁으세요	-10.9
▁연계	-10.9002
▁족	-10.9019
▁과도	-10.9019
▁요건	-10.9023
▁장병	-10.9027
▁중계	-10.903
▁조제	-10.9052
남기	-10.9056
▁끌려	-10.9074
▁영양	-10.9074
▁처해	-10.9085
▁봄	-10.9088
▁어머	-10.9097
▁성희	-10.9103
▁수년	-10.9108
▁보험금	-10.9112
▁주주	-10.9119
▁장군	-10.9119
▁지능	-10.9119
▁교대	-10.9122
▁땜	-10.9122
▁후반	-10.9124
겨	-10.9127
듭	-10.9127
대통령	-10.9131
▁감사원	-10.9133
▁특허	-10.9138
▁보급	-10.914
▁각자	-10.9146
▁해군	-10.9148
▁흘려	-10.915
▁조롱	-10.9153
▁그린벨트	-10.9155
▁LG	-10.916
튜버	-10.916
▁nh	-10.9162
▁경계	-10.9174
▁건가	-10.9181
▁들어간	-10.9181
세요	-10.9185
▁잡혀	-10.919
▁깁니다	-10.9192
▁긍	-10.9194
엄	-10.9198
라지	-10.9201
▁잣	-10.9202
▁겉	-10.9203
▁흙	-10.9212
▁익	-10.9216
혐	-10.923
▁통행	-10.9235
▁꾸	-10.9241
▁오죽	-10.9242
▁고스란히	-10.9243
▁sec	-10.9246
▁전락	-10.9247
▁가득	-10.9247
▁소요	-10.9248
▁내린	-10.9255
▁s	-10.9261
다운	-10.9266
▁물려	-10.9271
▁견제	-10.9275
▁연간	-10.9277
▁정한	-10.9281
▁배워	-10.9282
딴	-10.9295
▁나간	-10.9299
▁경로	-10.9309
▁이송	-10.931
러운	-10.933
▁태극	-10.9332
▁놔	-10.9338
부러	-10.9343
▁불신	-10.9344
워	-10.9348
▁주사	-10.935
▁동아	-10.9356
▁번지	-10.9359
▁수학	-10.9374
▁표기	-10.9379
▁현제	-10.9401
▁때려	-10.9401
풀이	-10.9402
▁동부	-10.9423
▁똑바	-10.9424
▁다친	-10.9431
▁나빠	-10.9448
▁대법	-10.9469
눈물	-10.9471
▁뒤집	-10.9476
v	-10.9482
▁느꼈	-10.9496
▁재앙	-10.9498
▁마약	-10.9499
▁정기	-10.9509
▁후회	-10.9513
▁기원	-10.9514
▁이루어져	-10.9516
▁쉬운	-10.9517
▁박물	-10.9544
▁로그	-10.9567
▁더럽	-10.9568
▁대강	-10.9574
▁을지	-10.9575
▁찌	-10.9578
no	-10.9582
▁무릎	-10.9587
▁무식	-10.9589
▁엉망	-10.9589
▁미납	-10.9598
▁옵	-10.9604
쓸	-10.9609
m	-10.9611
▁폭등	-10.9618
▁설비	-10.9623
▁셀	-10.9623
▁번호판	-10.9628
▁경상	-10.9629
▁따져	-10.9631
▁물러	-10.9642
겼	-10.9644
▁똑	-10.9644
▁잠재	-10.9646
▁원금	-10.9648
▁컵	-10.9648
▁부도	-10.9656
텔	-10.9664
▁렌	-10.9679
▁이래서	-10.9684
▁단기	-10.9687
▁체크	-10.9687
▁cc	-10.9695
려면	-10.9698
▁공소	-10.9747
D	-10.977
▁보관	-10.9782
▁징병제	-10.9792
생각	-10.98
▁법제	-10.9801
아갔	-10.9808
복지	-10.9816
▁소설	-10.9817
▁문정부	-10.9827
▁경위	-10.9827
▁배신	-10.983
▁03	-10.9851
쉽	-10.9856
▁쏘	-10.9863
▁언젠	-10.9865
▁교묘	-10.9866
O	-10.9867
면서	-10.9867
▁42	-10.9868
▁깡	-10.9872
▁올림픽	-10.9874
▁마구	-10.988
잠	-10.9886
▁금감	-10.9901
▁양아	-10.9903
▁건너	-10.9918
▁붕	-10.993
▁부추	-10.9933
▁성남	-10.9942
▁편안	-10.9953
▁짝	-10.9956
▁척결	-10.9962
쩍	-10.9966
sid	-10.9981
상가	-10.9981
▁이승	-10.9985
▁추방	-10.9987
▁페이스	-10.9999
외과	-11.0008
▁건전	-11.0014
떡	-11.0015
▁주체	-11.002
한다면	-11.0027
최	-11.0042
▁중산	-11.0043
▁엿	-11.0044
▁대대	-11.0059
▁이재	-11.0059
▁모금	-11.0061
▁장점	-11.0062
▁부상	-11.0064
▁탈세	-11.0089
▁2002	-11.009
▁엘	-11.0093
꼬박	-11.0112
▁전투	-11.0138
▁신입	-11.0142
▁몫	-11.0148
▁낮춰	-11.015
▁윈	-11.0152
▁하소	-11.0156
▁옮겨	-11.0157
▁발의	-11.0158
▁저질러	-11.0164
▁기다려	-11.0167
부모	-11.017
▁끊임없	-11.0176
체불	-11.0181
▁찾아보	-11.0182
▁연애	-11.0185
▁들어갈	-11.0189
▁미수	-11.019
틱	-11.0196
▁제게	-11.0201
▁군산	-11.0204
▁전해	-11.0204
BS	-11.0209
1812	-11.0214
다른	-11.0231
T	-11.0232
▁접대	-11.0233
▁텔레	-11.0237
▁관여	-11.0242
▁했으며	-11.0243
▁봉급	-11.0253
▁항소	-11.0256
▁목록	-11.0257
▁괴롭혔	-11.0257
▁실비	-11.0262
▁계십니다	-11.0263
▁youtu	-11.0265
▁동사	-11.0266
▁참모	-11.0266
▁단돈	-11.0272
▁공지	-11.0282
▁쿠	-11.0285
▁a	-11.0286
리스트	-11.0291
▁식용	-11.0306
▁n	-11.0313
계약	-11.0313
유소	-11.0333
▁재개	-11.0344
▁떳떳	-11.0345
▁승차	-11.0348
▁필리핀	-11.0354
▁종류	-11.0366
▁k	-11.037
▁독점	-11.0374
닿	-11.0374
▁623	-11.0374
▁가르쳐	-11.0378
가지	-11.039
▁교환	-11.0391
▁홀로	-11.0399
▁저항	-11.04
▁못한다	-11.0408
▁전파	-11.0409
▁활	-11.0411
▁덩어리	-11.0412
▁라인	-11.0419
▁110	-11.0421
▁위임	-11.0426
▁식민	-11.0438
▁중개	-11.0463
▁꼬	-11.0468
▁공휴	-11.0471
▁idx	-11.0473
블	-11.0479
▁지표	-11.0484
TE	-11.0488
▁할아	-11.0492
E	-11.0497
▁보낼	-11.0512
지요	-11.0523
▁더군	-11.0529
▁실험	-11.0544
▁해지	-11.0546
▁산림	-11.0551
▁연료	-11.0552
0	-11.0554
▁불가피	-11.0558
▁리	-11.0568
▁마디	-11.0572
방망	-11.0577
▁감면	-11.061
▁발상	-11.0617
▁류	-11.0619
▁죽여	-11.0624
엔	-11.0626
낼	-11.0632
▁둥	-11.0641
▁훌륭	-11.0645
같	-11.0653
▁탑	-11.0657
▁청렴	-11.0658
찌	-11.0671
▁리그	-11.0671
순환	-11.0672
▁종목	-11.0673
▁스러	-11.0677
▁고층	-11.0685
짝	-11.0689
7	-11.069
세금	-11.0694
▁부총	-11.0698
▁살림	-11.0717
▁서해	-11.0747
▁바쁜	-11.075
브	-11.075
▁간첩	-11.075
▁모니터	-11.0756
여야	-11.0757
▁기다렸	-11.0758
▁빽	-11.0766
▁불법행위	-11.0766
컴	-11.0768
현실	-11.0772
▁강구	-11.0774
▁심장	-11.0776
▁침체	-11.0777
▁전월	-11.0782
▁365	-11.0786
▁동반	-11.0791
▁향해	-11.0794
▁소멸	-11.0808
애인	-11.0808
▁보일러	-11.081
▁월드	-11.0812
6	-11.0818
▁밀려	-11.082
▁주제	-11.0826
▁내세	-11.083
▁해산	-11.0834
▁소급	-11.0838
▁신고자	-11.0841
▁IT	-11.0841
▁마당	-11.0847
▁꽃	-11.0848
▁다녔	-11.0851
▁정수	-11.0856
▁짤	-11.0856
먼	-11.0858
▁깍	-11.086
▁쓸데없	-11.0864
▁육성	-11.087
▁유독	-11.0871
▁으니까요	-11.0879
너	-11.0891
▁수험	-11.0892
▁무서워서	-11.0894
▁자마	-11.0894
▁37	-11.0894
▁신문고	-11.0901
▁급식	-11.0908
▁아실	-11.0911
▁약사	-11.0917
▁레이	-11.0919
구나	-11.0926
▁만만	-11.0931
보증	-11.095
냐	-11.0953
미세	-11.0956
▁발굴	-11.0958
▁춘천	-11.0965
▁모델	-11.0965
▁이른	-11.0966
▁아베	-11.0966
▁이민	-11.0972
▁진학	-11.0972
혈	-11.0975
▁풍선	-11.0983
▁걸린	-11.0988
▁시킨다	-11.099
▁전과	-11.099
9	-11.0991
▁유해	-11.0993
▁앤	-11.0994
▁좋아	-11.1
▁방조	-11.1
시각	-11.1006
▁교정	-11.1007
▁소모	-11.1012
콜	-11.1015
카드	-11.1019
▁올라와	-11.1023
▁정호	-11.1024
▁맞이	-11.1025
웨이	-11.1029
▁용도	-11.1035
으나	-11.1046
▁누굴	-11.1063
▁송파	-11.1065
▁동맹	-11.1067
람	-11.1072
▁틱	-11.1075
▁불공정	-11.1077
▁시내	-11.1078
▁농산	-11.109
뱉	-11.1096
▁55	-11.1106
▁능	-11.1106
▁명세	-11.1116
▁무언	-11.1118
구요	-11.112
▁법치	-11.1121
▁3000	-11.1123
▁했으니	-11.1138
▁구해	-11.114
▁기도	-11.1144
▁뉴	-11.1154
보호	-11.1156
▁JT	-11.1166
▁접촉	-11.1166
▁목격	-11.1176
be	-11.1178
▁힘써	-11.1178
▁전시	-11.1179
닫	-11.1182
크로	-11.1194
▁치과	-11.1194
016	-11.1196
수증	-11.1198
▁관공	-11.1202
▁흡	-11.1204
▁250	-11.1205
라면	-11.1207
랄	-11.1212
▁누워	-11.1221
담임	-11.1224
▁칩	-11.1226
▁그대	-11.1232
▁묘	-11.1237
▁중도	-11.1243
▁턱없	-11.1248
▁씻	-11.1251
▁치명	-11.1265
▁사직	-11.1269
▁원내	-11.1273
▁스러워	-11.1281
▁뺑소니	-11.1282
▁만연	-11.1283
고양이	-11.129
▁송금	-11.1292
▁경호	-11.1301
▁엇	-11.1307
▁신축	-11.1315
앞	-11.1328
▁데려	-11.1334
017	-11.1343
에게	-11.1344
▁스토	-11.1348
구역	-11.135
▁탕	-11.1358
▁연대	-11.1365
▁190	-11.1365
▁한다며	-11.1368
▁부위	-11.137
▁적립	-11.1373
한다고	-11.1377
▁부합	-11.1377
▁기밀	-11.1378
▁일지	-11.138
▁동상	-11.1381
▁영웅	-11.1383
▁난다	-11.1384
▁48	-11.139
▁골프	-11.1394
▁바이오	-11.1394
▁유승	-11.1397
▁137	-11.1404
▁디스	-11.1406
우미	-11.1407
드리	-11.142
▁드린	-11.143
▁tv	-11.1432
▁명단	-11.1448
▁인기	-11.1449
▁루	-11.1449
▁후진	-11.145
▁사라져	-11.1455
▁종이	-11.1456
▁승리	-11.1464
▁심합니다	-11.1467
▁위로	-11.147
▁갱	-11.1474
▁고령	-11.1475
머	-11.1481
토대	-11.1484
▁동력	-11.1488
▁정무	-11.1499
▁맥	-11.1504
굴	-11.1511
▁십쇼	-11.1513
▁연루	-11.1514
▁주문	-11.1514
▁무관	-11.1516
▁게이트	-11.152
알	-11.1521
▁멀리	-11.1534
나마	-11.1543
▁오만	-11.1548
▁버릴	-11.1552
▁폰	-11.1564
륙	-11.158
쟁이	-11.1585
▁구급	-11.1585
▁페이	-11.1587
▁011	-11.159
▁미용	-11.16
때리	-11.1603
▁기독교	-11.1612
▁키울	-11.1612
▁절망	-11.1614
▁절박	-11.1618
▁실효	-11.1621
▁줘라	-11.1622
▁경조사	-11.1623
구심	-11.1624
못	-11.1625
▁건축물	-11.1627
▁파출	-11.1633
무지	-11.1674
▁비웃	-11.1679
▁700	-11.1683
▁샀	-11.1697
단지	-11.1697
▁행정관	-11.1705
테	-11.1707
▁칸	-11.171
▁플라	-11.1717
▁멍청	-11.1718
▁과잉	-11.1718
▁부풀	-11.1719
▁들어온	-11.1719
소득	-11.1722
▁녹음	-11.173
략	-11.1731
▁N	-11.1733
▁하위	-11.1734
▁소환	-11.1734
▁송치	-11.1739
▁찾아와	-11.1747
맥	-11.175
▁공모	-11.1752
▁뚫	-11.1759
▁위생	-11.1774
▁진단서	-11.1776
▁해양	-11.1778
▁몽	-11.1781
▁일산	-11.1787
방과	-11.1805
▁살릴	-11.1814
▁오랫	-11.183
▁나랏	-11.1831
▁서슴	-11.1831
엘	-11.1836
▁학자	-11.1837
▁미혼	-11.1837
▁나타났	-11.1839
▁들어서	-11.1841
▁누리집	-11.1846
▁어깨	-11.1847
▁도망	-11.1849
▁54	-11.1851
▁방화	-11.1852
▁의존	-11.1853
▁현저	-11.1858
▁신중	-11.186
▁그림	-11.186
자금	-11.1865
▁안겨	-11.1866
▁창조	-11.1867
▁ph	-11.1881
▁쌀	-11.1885
▁반도	-11.1887
밥	-11.19
타운	-11.1903
▁창의	-11.1904
▁였으면	-11.1905
▁획	-11.191
▁변제	-11.1914
▁걸어	-11.1923
▁괜	-11.1924
발전	-11.1927
▁나경	-11.1927
규모	-11.1932
▁짓밟	-11.1944
▁침략	-11.1944
▁열람	-11.1946
▁변호	-11.1947
▁방침	-11.1954
▁노숙	-11.1957
▁취임	-11.1959
▁탁상행정	-11.1959
뉴스	-11.1964
▁타격	-11.1966
▁부착	-11.1981
▁구멍	-11.1984
▁선처	-11.1986
DM	-11.1988
▁봅시다	-11.1999
▁음란	-11.2
▁넘겨	-11.2
▁P	-11.2008
▁발령	-11.201
▁부적	-11.2012
▁허덕	-11.2013
▁딜	-11.2014
▁수저	-11.2015
▁신탁	-11.202
▁막혀	-11.2021
▁차려	-11.203
▁으라	-11.2033
문체	-11.2037
▁고정	-11.2047
디어	-11.2062
▁놔두	-11.2063
동탄	-11.2072
▁부끄러운	-11.2076
▁취재	-11.2079
▁계정	-11.2082
▁go	-11.2087
▁아웃	-11.2092
러스	-11.2096
▁협정	-11.2097
▁독과	-11.2099
읍	-11.2107
▁아퍼	-11.2107
▁계급	-11.2108
▁내몰	-11.2109
▁임종	-11.2115
▁인수	-11.2118
▁해질	-11.2122
▁착용	-11.2124
▁이기	-11.2129
▁과제	-11.2136
▁는구나	-11.2138
▁뿌	-11.2142
위대	-11.2144
▁교과	-11.2152
▁그야	-11.2164
▁학력	-11.2164
▁먹여	-11.2166
컵	-11.2176
▁구경	-11.2183
▁영토	-11.2186
▁납품	-11.2187
▁시끄	-11.2191
▁사설	-11.2193
▁마드	-11.2195
날리	-11.2196
▁다릅니다	-11.2208
▁충청	-11.2212
▁시요	-11.2214
▁탁	-11.2229
▁채움	-11.2231
▁중성	-11.2239
▁자존	-11.2249
▁사다리	-11.2251
▁문구	-11.2256
▁정경	-11.2268
농	-11.2279
▁거두	-11.228
▁끄	-11.228
▁싼	-11.2281
▁완벽	-11.2297
▁누르	-11.2297
▁횟수	-11.2298
갔	-11.2309
▁극복	-11.2312
턴	-11.2322
▁김포	-11.2324
죽	-11.2325
통상	-11.233
▁완성	-11.2337
▁부친	-11.2347
▁더라	-11.2349
▁사학	-11.235
▁바르	-11.2357
납니다	-11.2359
즌	-11.236
▁우연	-11.2361
▁이래	-11.2381
▁복직	-11.2383
무관	-11.2383
▁분담	-11.2383
▁공론	-11.2391
▁측면	-11.2393
▁가담	-11.2398
▁계실	-11.2401
▁바이	-11.2402
▁권위	-11.2411
▁전주	-11.2414
쉬	-11.2419
빈	-11.2432
▁휴무	-11.2433
▁아픕니다	-11.2433
▁늘어날	-11.2435
▁취한	-11.2438
▁여태	-11.2438
▁터져	-11.2444
▁LP	-11.2446
▁획기	-11.2447
▁누락	-11.2449
▁분당	-11.2455
지역	-11.246
▁헐	-11.2465
댐	-11.247
툼	-11.247
▁반박	-11.2473
▁소형	-11.249
고생	-11.2497
▁등장	-11.2498
동기	-11.25
▁41	-11.2509
▁자가	-11.252
▁고속	-11.2523
▁인류	-11.2528
▁은퇴	-11.253
▁비닐	-11.254
▁숨쉬	-11.254
▁참가	-11.2547
▁신도림	-11.2549
▁빌라	-11.2555
▁이순신	-11.2556
▁다섯	-11.2557
▁줍	-11.2561
▁줄줄	-11.2574
▁우월	-11.258
▁조용	-11.2583
▁안양	-11.2588
▁무한	-11.259
▁독거	-11.259
▁OO	-11.2593
▁47	-11.2596
▁침대	-11.2598
▁연속	-11.2598
▁자제	-11.2598
▁개탄	-11.2608
▁할인	-11.2609
▁터무니없	-11.2612
▁매국	-11.2613
▁350	-11.2618
▁라니요	-11.2633
SD	-11.2637
▁계열	-11.264
▁젖	-11.2644
▁mod	-11.2645
▁둘러	-11.2647
▁감기	-11.265
▁95	-11.2652
붙	-11.2656
▁멸	-11.2659
▁모바일	-11.2671
▁실직	-11.2672
▁틈	-11.2675
약관	-11.2676
▁앵	-11.2677
▁충실	-11.2691
▁미지급	-11.2693
섰	-11.2697
한다	-11.2708
뇨	-11.2711
▁구할	-11.2712
늄	-11.2718
거래	-11.2726
▁전산	-11.2727
▁희	-11.2737
▁웃음	-11.2741
▁박소	-11.2744
회전	-11.2744
▁높여	-11.2746
내려오	-11.2751
묘	-11.276
사업	-11.2764
▁들어야	-11.2766
▁코스	-11.2772
정신	-11.2772
부림	-11.278
▁애완	-11.2789
▁쫒겨	-11.2789
▁대마	-11.2796
▁삽니다	-11.2798
▁복사	-11.28
▁여지	-11.2804
▁켜	-11.281
▁면책	-11.2811
▁저리	-11.2819
▁계란	-11.2827
갑니다	-11.2834
▁생일	-11.284
▁헬기	-11.284
산지	-11.2854
▁강경	-11.2856
▁재미	-11.2857
▁구호	-11.2859
느	-11.286
라는	-11.2872
▁블	-11.2885
▁드려	-11.2893
▁63	-11.2893
밭	-11.2895
바로	-11.2902
▁98	-11.2904
▁올린다	-11.2909
▁첩	-11.2911
▁라고요	-11.2916
▁가벼운	-11.2923
병사	-11.2924
▁성과급	-11.2931
▁동조	-11.294
▁치우	-11.294
▁마주	-11.2954
▁분배	-11.2955
▁대여	-11.2964
▁가졌	-11.2972
꽤	-11.2973
▁촌	-11.2973
▁46	-11.298
▁느낀	-11.298
▁계단	-11.2982
▁암사	-11.2985
▁당직	-11.299
▁참으	-11.2995
템	-11.2995
▁납입	-11.2996
글로	-11.3
만행	-11.3009
▁6000	-11.3021
▁꼬리	-11.3022
▁날라	-11.3026
▁폐차	-11.3027
▁정정	-11.3031
▁자재	-11.3032
▁전라	-11.3042
▁스페인	-11.3052
▁고치	-11.3059
렇	-11.3061
▁탄생	-11.3065
▁주관	-11.3069
▁출생	-11.3087
▁주기	-11.3093
▁2007	-11.3098
찿	-11.3103
잔	-11.3106
▁대사	-11.3115
▁녹지	-11.3122
▁강의	-11.3127
▁어야지	-11.3135
▁할려면	-11.3137
▁소인	-11.3139
▁냉	-11.3141
▁음악	-11.3142
4	-11.315
▁친화	-11.3152
▁EB	-11.3153
▁맹	-11.3157
▁패스	-11.3157
▁뱃	-11.3159
빛	-11.3163
냈	-11.3169
▁돌아다	-11.3171
▁구인	-11.3171
▁홍준	-11.3175
▁사냥	-11.3179
▁송영	-11.318
▁필터	-11.3182
▁어째서	-11.319
▁인용	-11.3197
▁V	-11.3199
▁떨어졌	-11.32
▁차역	-11.32
▁cct	-11.3207
▁놓여	-11.321
▁광진	-11.3211
▁재학	-11.3213
▁우두	-11.3216
▁바뀔	-11.3221
▁여사	-11.3225
▁219	-11.3232
▁019	-11.3236
▁윤창	-11.3245
▁으리라	-11.3251
▁올려야	-11.3257
▁난방	-11.3261
▁천국	-11.3263
덧	-11.327
▁테이	-11.3272
미디어	-11.3274
김	-11.3287
▁지상	-11.3289
▁쾌	-11.329
배상	-11.33
▁국군	-11.3304
▁혹	-11.3305
▁드러났	-11.3313
▁모범	-11.3316
▁동창	-11.3319
▁이루어진	-11.3319
▁골절	-11.3331
▁합병	-11.3331
▁수습	-11.3335
▁향	-11.3336
▁루시	-11.3337
▁전입	-11.3344
▁막힌	-11.3354
하나	-11.3357
▁면적	-11.3357
▁그랜드	-11.3366
됀	-11.3368
▁견인	-11.3368
▁농장	-11.3369
네요	-11.3375
문제	-11.338
▁격리	-11.3381
▁원활	-11.3383
▁중재	-11.3388
맙	-11.3389
▁이모	-11.339
▁쳐다	-11.3393
대중	-11.3395
tv	-11.3396
플루	-11.3403
영향	-11.3415
▁총기	-11.3418
▁든다	-11.3421
▁소신	-11.3422
▁전후	-11.3425
돼지	-11.3427
B	-11.3441
▁끈	-11.3443
▁쌍	-11.3444
▁시중	-11.3451
일비	-11.3456
▁용돈	-11.3456
▁화성	-11.3468
아보	-11.347
▁학점	-11.3475
▁kb	-11.3475
▁외상	-11.3476
▁엠	-11.3481
▁청주	-11.3482
닉	-11.3485
▁다소	-11.3489
병원	-11.349
▁강점	-11.3491
룸	-11.3492
▁다닙니다	-11.3493
타워	-11.3501
궁	-11.3501
▁상하	-11.3502
빕	-11.3503
욱	-11.3507
▁향한	-11.3511
▁위함	-11.3513
▁다름없	-11.3515
▁보편	-11.3526
▁물어	-11.3528
▁장악	-11.3531
낙	-11.3545
볍	-11.3545
▁강대	-11.355
의사	-11.3575
많	-11.3577
▁빈번	-11.358
▁사육	-11.3584
천만	-11.3589
▁대략	-11.3591
압류	-11.3591
쇠	-11.3596
▁수수	-11.3607
사회	-11.3608
가리	-11.361
▁불평	-11.3611
▁걸렸	-11.3614
▁드림	-11.3617
▁시비	-11.3617
▁유류	-11.3627
랬	-11.3637
▁분신	-11.3639
풀	-11.3648
▁무서워	-11.3667
려움	-11.3667
▁가려	-11.3669
▁공군	-11.3672
▁무소	-11.3686
▁돈벌	-11.3696
▁웹	-11.3703
▁대놓	-11.3704
▁수상	-11.3708
▁묵묵	-11.3709
▁불쾌	-11.3712
▁탁상	-11.3715
▁계셨	-11.3716
▁빌미	-11.3716
▁작동	-11.3718
▁복구	-11.3719
▁사라졌	-11.3723
기반	-11.3723
▁상징	-11.3723
▁어려우	-11.3724
▁노동조합	-11.3726
국은	-11.3727
▁GT	-11.3729
▁접속	-11.373
▁냐구요	-11.373
▁닥	-11.3734
▁중환자	-11.3739
저당	-11.3743
▁수법	-11.375
▁한글	-11.3759
▁배경	-11.3761
▁나와야	-11.3772
▁분식	-11.3772
팍	-11.3773
M	-11.3773
▁p	-11.3777
▁해온	-11.3789
▁좌절	-11.379
▁무역	-11.3791
▁인종	-11.3792
▁의해서	-11.3794
▁안경	-11.3796
▁띄	-11.3807
▁쇠	-11.3809
▁뭉	-11.3813
▁박사	-11.3814
육	-11.3816
▁동해	-11.382
▁왠	-11.382
사건	-11.3824
▁끝난	-11.3825
밀리	-11.3834
▁당해야	-11.3842
▁읍	-11.3848
어머니	-11.3848
다나	-11.3849
낸	-11.3854
▁무거운	-11.3857
▁농어촌	-11.3858
▁옥상	-11.386
▁950	-11.3865
▁결단	-11.3872
▁커피	-11.3873
▁금강	-11.3877
▁마취	-11.3886
▁하도급	-11.3897
▁즐거	-11.3908
▁줍시다	-11.391
조선	-11.391
휘	-11.3911
룰	-11.3912
▁경각	-11.3916
DP	-11.3917
기간	-11.3923
▁선호	-11.3929
▁펼	-11.3935
처리	-11.3939
▁진지	-11.395
한다는	-11.3968
▁꽉	-11.397
▁타이	-11.397
▁중립	-11.3972
▁딴	-11.3975
▁유용	-11.398
통일	-11.3981
우리	-11.3984
▁칭찬	-11.3988
▁존엄	-11.3989
▁사단	-11.3992
▁떠넘	-11.3997
콤	-11.3999
뼈	-11.4001
이스	-11.4004
▁신다고	-11.4009
▁손석	-11.4019
▁터질	-11.4024
▁철학	-11.4028
▁폭발	-11.4028
▁싱	-11.4034
▁관해	-11.4035
닥	-11.4035
▁멍	-11.4047
▁무작	-11.4049
▁교섭	-11.4065
렁	-11.4072
▁상업	-11.4078
▁환영	-11.4085
적절	-11.4088
▁h	-11.4089
▁노태	-11.4091
▁씌	-11.4101
▁E	-11.412
국가	-11.4132
P	-11.4139
▁75	-11.4139
▁아껴	-11.414
▁199	-11.4143
▁피고인	-11.4151
▁포인	-11.4151
▁서초	-11.4152
▁헤어	-11.4162
▁링	-11.4164
촉	-11.4166
▁마이너	-11.4169
▁아닌지요	-11.4171
TN	-11.4171
▁재고	-11.4176
▁예의	-11.4178
▁광복	-11.4178
그마	-11.4188
셨	-11.4188
▁그러니까	-11.4191
▁태국	-11.4194
▁까요	-11.4198
▁헛소	-11.4208
▁화학	-11.4208
근무	-11.4219
▁사채	-11.4224
K	-11.4231
▁쳤	-11.4233
▁받아들여	-11.4233
▁공범	-11.4233
▁발주	-11.4243
▁모은	-11.4245
수색	-11.4249
▁으실	-11.4264
▁180	-11.4268
▁그런지	-11.4278
▁주먹	-11.4285
▁프리미	-11.4286
▁였음에도	-11.4291
ain	-11.4291
▁전명	-11.4293
▁올라갈	-11.4293
높	-11.4293
▁온전	-11.4293
나무	-11.4297
▁신세계	-11.4297
▁입소	-11.43
▁기다려야	-11.4301
▁펼쳐	-11.4308
그만	-11.4331
▁신세	-11.4332
▁처먹	-11.4333
▁83	-11.4342
▁넷	-11.4364
▁38	-11.4367
▁국공	-11.4372
이버	-11.4375
▁근대	-11.4376
아이돌	-11.4378
매도	-11.4381
▁봐요	-11.4383
처분	-11.4388
▁상인	-11.4393
▁상한	-11.4397
▁모자	-11.44
▁구직	-11.4401
▁국민연금	-11.4411
▁개미	-11.4413
찾아오	-11.4415
▁멈춰	-11.4423
▁안일	-11.4427
▁담배꽁	-11.4432
▁모병제	-11.4432
▁유엔	-11.4433
▁신흥	-11.4435
▁헤아려	-11.4438
▁56	-11.4445
▁내세워	-11.4451
무사	-11.4457
▁호기	-11.4459
▁무방	-11.4462
▁유세	-11.4464
▁어선	-11.4464
시민	-11.4476
▁74	-11.4477
친절	-11.4479
테리	-11.4479
▁복원	-11.4485
▁강행	-11.4489
의원	-11.45
▁위약	-11.4503
▁휘	-11.4507
땅	-11.4511
▁빠져나	-11.4514
▁자유민주	-11.4515
▁절도	-11.4516
▁이바지	-11.4525
▁간병	-11.4527
탑	-11.4533
▁쓰여	-11.4544
허가	-11.4545
겠	-11.4549
까지	-11.455
▁앙	-11.4553
▁쌈	-11.4553
▁보충	-11.4558
다며	-11.4558
즈음	-11.4563
▁아름다	-11.4567
▁남부	-11.4567
▁눌러	-11.4571
▁결탁	-11.4576
▁혹여	-11.4578
무원	-11.4581
▁할당	-11.4585
▁적응	-11.459
▁고집	-11.4595
▁늘어난	-11.4601
▁전상	-11.4602
▁학습	-11.4602
▁깎	-11.4607
▁주치	-11.461
▁인턴	-11.461
▁재능	-11.4612
▁요리	-11.4625
▁곁	-11.4626
▁양자	-11.4629
뉘	-11.4632
▁전남	-11.4634
경찰	-11.4639
▁건립	-11.4648
▁공과	-11.4648
▁간다면	-11.4656
▁따위	-11.4663
반대	-11.4671
▁노총	-11.4673
업장	-11.4674
▁sn	-11.4675
▁T	-11.4676
▁믿음	-11.4677
스터	-11.4686
▁올바	-11.4692
▁껀	-11.4705
▁거친	-11.4708
▁급행	-11.471
▁지극	-11.4713
▁170	-11.4716
▁지쳐	-11.4718
▁기울여	-11.4719
팔	-11.4721
▁기조	-11.4726
추측	-11.4727
▁장인	-11.4736
▁속여	-11.4737
▁시킵니다	-11.4738
▁느낍니다	-11.4738
▁주의	-11.4745
ri	-11.4746
뜩이	-11.4747
▁책상	-11.4752
▁한시	-11.4754
찾	-11.4758
▁순진	-11.4761
▁생사	-11.4769
라구요	-11.4775
▁체육회	-11.4776
▁점유	-11.4783
▁처한	-11.4785
▁연방	-11.4785
▁102	-11.4789
산업	-11.4797
d	-11.4804
▁차익	-11.4812
렀	-11.4815
▁경성	-11.483
▁U	-11.4832
▁온다	-11.4838
▁내려야	-11.4842
▁해졌	-11.4855
▁소각	-11.4858
▁공통	-11.4864
놀	-11.4865
가스	-11.4865
10	-11.4869
I	-11.4874
▁51	-11.4877
▁튼튼	-11.4877
▁배웠	-11.4886
▁남양주	-11.4889
▁보일	-11.4893
▁예고	-11.4897
▁대학원	-11.4898
짖	-11.4909
▁혈액	-11.4909
▁앞당겨	-11.4909
▁좌석	-11.4914
▁박수	-11.4916
▁상급	-11.4919
▁선도	-11.4928
▁대졸	-11.4933
실거	-11.4934
▁재심	-11.4935
▁어려	-11.4936
▁기한	-11.4941
▁걸릴	-11.4953
▁김용	-11.4955
왓	-11.4965
곽	-11.4967
킨	-11.4976
▁내려와	-11.4983
▁e	-11.4994
▁버립니다	-11.4999
▁생태	-11.5002
▁균	-11.501
news	-11.5014
▁호구	-11.502
▁유행	-11.5025
▁깜짝	-11.5033
▁촉진	-11.5036
연대	-11.5043
▁동대문	-11.5043
▁벌어졌	-11.5045
▁어지럽	-11.5045
▁001	-11.5046
▁평창	-11.5046
▁의학	-11.5058
혁	-11.5066
▁부러	-11.5066
▁주무	-11.5068
개발	-11.507
▁걸러	-11.5072
▁해져	-11.5075
쁨	-11.5089
▁군수	-11.509
주시	-11.5117
▁섭	-11.5126
널리	-11.513
▁올라온	-11.5134
▁낙하	-11.5135
▁파주	-11.5146
▁동호	-11.5154
용지	-11.5154
▁노약	-11.5154
▁이윤	-11.5158
▁펜	-11.5159
▁애당	-11.5167
▁춥	-11.5188
▁양천	-11.5189
▁간신	-11.5191
▁냅니다	-11.5195
▁누나	-11.5195
▁상세	-11.5196
▁부딪	-11.5204
▁어울	-11.5207
▁엘리베이터	-11.521
▁꽁	-11.5211
▁빨간	-11.5211
▁전방	-11.5211
▁알려졌	-11.5211
▁방통	-11.5223
▁냅	-11.5234
셔야	-11.5236
▁출처	-11.5247
▁꺼리	-11.5247
▁그치	-11.5252
▁쌓여	-11.5257
강국	-11.5264
▁메디	-11.5265
▁44	-11.5267
▁벌어진	-11.5272
게임	-11.5279
▁no	-11.5286
멘	-11.5289
▁누군	-11.5289
▁옴	-11.529
천지	-11.529
벨	-11.5293
▁당진	-11.53
컬	-11.5306
미지	-11.531
▁치안	-11.531
▁껴	-11.531
▁무수	-11.5316
▁유권	-11.5317
▁korea	-11.5318
▁성형	-11.5319
12	-11.532
▁연재	-11.5326
▁사인	-11.5334
▁잠수	-11.5335
호사	-11.5335
▁상임	-11.5343
▁예금	-11.5343
▁흑	-11.5343
싼	-11.5343
▁018	-11.5348
▁멤버	-11.5353
▁메뉴	-11.5353
▁는대	-11.5354
▁뒤늦	-11.5355
▁징벌	-11.5356
▁징집	-11.5361
▁수두룩	-11.5362
▁만호	-11.5363
▁분실	-11.5374
부분	-11.5375
▁2004	-11.5378
▁환산	-11.5379
▁장착	-11.5382
▁유정	-11.5385
▁포용	-11.5385
▁기쁨	-11.5389
▁소설가	-11.5399
▁인민	-11.5404
▁백수	-11.5406
▁랍	-11.5406
보험	-11.541
▁중반	-11.5411
▁붙잡	-11.5412
▁총회	-11.5418
사원	-11.5419
▁억제	-11.5423
▁그리하	-11.5425
아니	-11.5428
검사	-11.5431
▁만듭니다	-11.5431
그램	-11.5433
▁응답	-11.5435
룡	-11.5437
칼	-11.5439
▁합동	-11.545
▁무척	-11.545
▁지진	-11.5457
▁저러	-11.5458
▁룰	-11.5459
▁나날	-11.5461
리사	-11.5467
▁이야	-11.5467
▁넌	-11.5468
▁쟁이	-11.5477
▁저장	-11.5482
▁교원	-11.5498
L	-11.5501
▁부검	-11.5501
▁널	-11.5501
PC	-11.5502
▁오리	-11.5514
▁밤낮	-11.5518
▁휘두	-11.552
▁탈퇴	-11.5521
▁돌아갈	-11.5522
▁심야	-11.5527
▁포항	-11.5528
▁원치	-11.5531
▁동승	-11.5532
▁생깁니다	-11.5533
▁만난	-11.5534
▁미칠	-11.5542
▁중앙선	-11.5557
▁프레	-11.5566
▁내지	-11.5579
▁원수	-11.558
998	-11.5584
▁돼야	-11.5591
우선	-11.5597
▁상향	-11.5604
구석	-11.5607
샵	-11.5616
▁도청	-11.5619
▁득	-11.5634
▁160	-11.5637
▁후유	-11.5647
▁661	-11.5651
턱	-11.5655
▁원본	-11.5658
▁정해져	-11.5658
경미	-11.5668
▁책임져	-11.5682
로드	-11.5682
▁급속	-11.5683
▁우윤	-11.5686
리자	-11.5688
정희	-11.5691
ode	-11.5692
▁펑	-11.5699
▁차상	-11.5701
▁일치	-11.5703
▁한다니	-11.5704
▁맡겨	-11.5716
▁왜냐	-11.5716
▁드립	-11.5719
▁탔	-11.5726
직자	-11.5731
▁재료	-11.5731
▁나전	-11.5734
▁교차	-11.5738
수사	-11.574
▁변기	-11.5741
랍	-11.5761
▁대리인	-11.5761
▁고교	-11.5771
W	-11.5771
▁관리사	-11.5781
오스	-11.5781
▁금고	-11.579
▁강성	-11.5795
log	-11.5798
▁초미	-11.5801
의로	-11.5803
기부	-11.5804
▁위태	-11.5806
지원	-11.5808
▁블로	-11.581
▁조현	-11.5814
▁d	-11.5818
▁4000	-11.5819
▁재해	-11.582
▁사모	-11.5821
▁복지부	-11.5825
시다	-11.5828
▁은데요	-11.5836
▁무마	-11.5838
▁유물	-11.5846
▁다네요	-11.5859
▁순찰	-11.5861
▁괴물	-11.5861
▁석유	-11.5862
▁체납	-11.5865
▁부를	-11.5876
▁세여	-11.588
▁무사	-11.5882
▁현행법	-11.5882
▁쓴다	-11.5886
▁소화	-11.5888
▁원고	-11.5897
▁달성	-11.5909
라리	-11.5912
▁잦	-11.5912
▁합쳐	-11.5927
▁할려	-11.5934
▁보살	-11.5938
▁안건	-11.5946
▁노리	-11.5948
▁어긋	-11.5949
▁2006	-11.5961
▁관념	-11.5963
▁강동	-11.5966
부심	-11.5967
▁전망	-11.5974
▁걸음	-11.5975
▁부재	-11.5975
뜨	-11.598
atch	-11.5987
▁시원	-11.5989
01	-11.599
평가	-11.5995
▁가져다	-11.6
18	-11.6
▁전제	-11.6002
▁달린	-11.6025
▁꾸며	-11.6033
▁우체국	-11.6035
er	-11.6035
▁무너뜨	-11.6036
▁알려져	-11.6045
▁벌금형	-11.6046
▁내릴	-11.6048
▁출판	-11.6056
▁씌워	-11.6061
▁허무	-11.6066
▁1500	-11.6066
▁f	-11.6079
▁저작	-11.6082
▁콩	-11.6084
▁빅	-11.6086
▁근간	-11.6089
▁해준다	-11.6091
▁항문	-11.6094
▁피고	-11.6096
▁도리	-11.61
▁머무	-11.6105
세대	-11.6122
당선	-11.6126
썪	-11.6133
▁서부	-11.6135
▁큰일	-11.6137
집니다	-11.6145
▁숙박	-11.6161
료비	-11.6164
▁군부	-11.6167
▁은닉	-11.6169
▁요약	-11.6183
▁금일	-11.6183
▁는군요	-11.6186
▁이어	-11.6191
▁꿀	-11.6193
장난	-11.6198
▁놨	-11.62
▁띠	-11.6202
▁빗물	-11.6203
재단	-11.6204
▁남발	-11.6207
드신	-11.6207
▁관람	-11.6209
▁서둘러	-11.6212
▁죽일	-11.6215
▁지나친	-11.6219
▁날아오	-11.622
▁속상	-11.6222
▁053	-11.6222
▁사라질	-11.6223
솟	-11.6229
▁유동	-11.6231
▁통학	-11.6235
▁국산	-11.6242
▁연습	-11.6244
▁견적	-11.6246
t	-11.6246
▁잖아	-11.6256
▁SN	-11.6261
▁전염	-11.6262
몽	-11.6265
▁푸	-11.6273
▁오락	-11.629
도록	-11.6293
▁선의	-11.6293
▁오피스	-11.6313
▁조중	-11.6317
▁왼	-11.6319
▁전전	-11.6324
▁900	-11.633
▁운수	-11.6334
▁진동	-11.635
▁가방	-11.6354
회비	-11.6358
▁숲	-11.6359
▁폄	-11.636
▁수호	-11.6369
▁목포시	-11.6373
단체	-11.6374
▁수임	-11.6376
▁플랫	-11.6379
▁쪼개	-11.638
노총	-11.6383
▁브랜	-11.6384
▁낙태	-11.6388
▁여동생	-11.6388
▁천문학	-11.6389
▁한미	-11.639
▁기증	-11.6393
▁산소	-11.6405
▁생색	-11.6408
▁숙련	-11.6412
▁갑니까	-11.642
경기	-11.6421
▁삼성전	-11.6421
▁밭	-11.6422
▁밴	-11.6423
▁김해	-11.6425
▁번거	-11.6426
▁충성	-11.6427
▁설사	-11.643
▁전년	-11.6433
▁폼	-11.644
릿	-11.6444
▁증대	-11.645
거지	-11.6451
리어	-11.6452
▁파란	-11.6461
▁배움	-11.6464
레이	-11.6466
▁표창	-11.6477
▁kt	-11.6484
i	-11.6486
▁려다	-11.6493
▁나마	-11.6497
▁노회	-11.65
집행	-11.6504
▁과천	-11.6516
▁야구	-11.6517
▁낯	-11.6524
▁영사	-11.6525
▁환기	-11.6525
▁sk	-11.6542
아주	-11.6544
▁함정	-11.6554
십니까	-11.6554
행사	-11.6559
▁슬픈	-11.6562
▁독촉	-11.6562
▁급기	-11.6563
▁소홀	-11.6565
▁쫓겨	-11.6565
이즈	-11.6569
▁금메달	-11.657
▁아우성	-11.6573
▁으십니다	-11.6577
▁고령화	-11.6579
▁잔치	-11.658
▁윤용	-11.658
▁이해관계	-11.658
▁걸림	-11.6588
▁49	-11.6588
▁경과	-11.6589
▁net	-11.6596
▁언행	-11.6599
▁도급	-11.66
▁마케팅	-11.6602
▁우승	-11.6606
▁한정	-11.6609
탄소	-11.6609
쁜	-11.661
▁유흥	-11.6612
▁맞서	-11.662
▁우방	-11.6622
▁탈출	-11.6623
▁마석	-11.6629
▁전임	-11.6631
▁플레이	-11.6636
▁사령	-11.6637
▁잘라	-11.6641
▁끌어내	-11.6642
앉	-11.6644
▁구석	-11.6654
▁간통	-11.6658
▁프리	-11.6659
소송	-11.6662
▁타임	-11.6675
▁턱	-11.6679
댈	-11.6679
▁자립	-11.6685
▁전신	-11.6686
▁부유	-11.6687
져오	-11.6688
해도	-11.6693
▁허구	-11.6693
▁리스트	-11.6699
▁꼬라	-11.6699
▁찢어	-11.6702
▁튀	-11.6702
▁수갑	-11.6711
케	-11.6714
▁메달	-11.6718
봐도	-11.6718
▁착공	-11.6719
▁렀	-11.6727
짜르	-11.6728
▁준다면	-11.6731
▁유감	-11.6734
릭	-11.6735
▁버텨	-11.6746
▁생물	-11.6746
▁정몽	-11.6752
um	-11.6753
▁아랫	-11.6754
▁커뮤니	-11.6755
▁천주교	-11.6755
▁허탈	-11.6756
▁곡	-11.6758
▁읍니까	-11.676
▁들어올	-11.6765
▁위헌	-11.6766
▁양식	-11.6767
▁약정	-11.6775
▁산천	-11.6775
망가	-11.6777
▁무효	-11.678
▁생긴다	-11.678
▁안타까워	-11.6789
▁흠	-11.6796
▁재수	-11.6797
▁g	-11.6798
▁발사	-11.6807
▁접했	-11.6807
▁저렇	-11.6808
뜯	-11.681
...	-11.6812
방식	-11.6814
덤	-11.6814
▁친정	-11.6822
▁이뤄	-11.6823
▁황사	-11.684
▁망우	-11.6843
▁초년	-11.6844
▁잊혀	-11.6845
▁다닌다	-11.6846
▁대장	-11.6846
▁감금	-11.6852
▁터무니	-11.6854
나운	-11.6862
▁고모	-11.6865
갭	-11.6868
today	-11.6868
▁적혀	-11.6869
▁민간인	-11.6871
▁차입	-11.6877
▁do	-11.6879
▁사납	-11.6885
▁수감	-11.6892
▁자손	-11.6899
▁쓰러	-11.6915
▁면죄	-11.6916
▁속한	-11.6921
▁주간	-11.6925
상자	-11.6926
운용	-11.6926
▁주입	-11.6929
▁미흡	-11.6935
▁열린	-11.6936
▁오를	-11.694
▁정류장	-11.6947
▁서서	-11.6949
▁침입	-11.6953
▁승계	-11.6956
▁골라	-11.6957
▁아웅	-11.6958
▁개시	-11.6969
▁양반	-11.6975
▁바쳐	-11.6977
▁인명	-11.6981
범죄	-11.699
▁떡	-11.699
▁재배	-11.6993
▁누설	-11.6993
부주의	-11.6997
▁속출	-11.6998
▁IC	-11.6999
▁젠	-11.7
결심	-11.7006
▁모친	-11.7011
밍	-11.7017
▁수색	-11.7019
▁플러	-11.7024
워야	-11.7028
▁무인	-11.7029
▁에다	-11.7033
▁일보	-11.7034
▁금수	-11.7037
▁평양	-11.7037
법인	-11.7039
▁고리	-11.704
▁천연	-11.7054
▁쪼	-11.7058
깔	-11.706
▁마인	-11.7065
▁면밀	-11.7071
▁문정	-11.7085
줘야	-11.7088
▁영주	-11.7089
칫	-11.7091
▁김원	-11.7092
▁명문	-11.7097
▁팝	-11.7108
▁신성	-11.7116
▁융	-11.7121
▁워낙	-11.7127
▁부끄러	-11.7128
▁댄	-11.7135
▁엘리트	-11.7136
▁일회용	-11.7136
▁허울	-11.7139
▁카타	-11.7143
▁으니깐	-11.7143
▁부도덕	-11.7143
▁브로	-11.7143
▁역삼	-11.7145
위기	-11.715
립니	-11.7151
▁뭔가요	-11.7153
▁애매	-11.7155
▁결산	-11.7157
펑	-11.7159
▁PD	-11.7162
▁id	-11.7163
x	-11.7165
께	-11.7167
▁군함	-11.7172
▁초청	-11.7174
▁7000	-11.7176
행위	-11.7178
런지	-11.7189
▁척추	-11.7196
▁편입	-11.7198
▁영부	-11.7204
면제	-11.7207
▁빡	-11.7209
지금	-11.721
▁냄	-11.7225
g	-11.7227
지스	-11.7244
쫌	-11.7256
▁부녀	-11.7259
▁라디	-11.7259
관리	-11.7273
▁갑작스	-11.7273
▁한도	-11.7282
▁유료	-11.7283
▁무자	-11.7287
▁테크	-11.73
▁버린다	-11.7305
럼	-11.7307
▁se	-11.7308
▁농가	-11.7316
▁해병	-11.7317
▁탑승	-11.7323
▁흉악	-11.7331
▁박세준	-11.7332
▁섹	-11.734
▁려니	-11.734
자기	-11.7341
▁왕복	-11.7343
▁보여집니다	-11.7343
충분	-11.7347
▁우주	-11.7347
▁연탄	-11.7349
▁mai	-11.735
떼	-11.7355
▁국무	-11.7363
▁중부	-11.7373
띠	-11.7379
▁마친	-11.7379
▁불려	-11.7383
▁성폭	-11.7384
▁착수	-11.7391
▁입안	-11.7392
▁법무사	-11.7398
Y	-11.7398
원회	-11.7399
야기	-11.7405
▁일수	-11.7414
▁투성	-11.7414
▁198	-11.7423
흉	-11.7426
넘	-11.7432
▁싸이	-11.7435
기관	-11.7439
시장	-11.7444
▁망쳐	-11.7449
취업	-11.7454
▁노역	-11.7454
▁손자	-11.7458
▁부득	-11.7459
보험공단	-11.7461
▁인과	-11.7468
미터	-11.748
았	-11.7485
홀	-11.7485
▁구로	-11.7486
▁이어질	-11.7491
▁쏟아	-11.7497
콘	-11.75
▁재무	-11.7515
▁휘발	-11.7525
▁킬로	-11.7528
▁디젤	-11.7541
▁캐피	-11.7544
▁교장	-11.7544
▁호평	-11.7544
c	-11.7544
따위	-11.7554
▁58	-11.7555
러니	-11.7555
▁묻혀	-11.7556
▁말살	-11.7557
▁자궁	-11.7558
▁영수	-11.7559
▁이기주의	-11.7561
▁동작	-11.7562
▁파손	-11.7572
▁경보	-11.7576
▁내요	-11.7577
▁싸워	-11.7577
▁찰	-11.7581
▁계양	-11.7583
▁건조	-11.7583
▁메르	-11.7584
켜	-11.7586
▁지르	-11.759
조합	-11.759
▁공공연	-11.7592
▁추징	-11.7594
▁리더	-11.7597
▁저질	-11.76
▁67	-11.7603
▁77	-11.7611
▁돌아왔	-11.7612
▁통영	-11.7612
▁뭉쳐	-11.7621
▁구현	-11.7625
▁음모	-11.7626
▁구글	-11.7626
▁든가	-11.7632
켰	-11.7632
▁간다는	-11.7635
▁생성	-11.7639
▁위선	-11.764
▁분기	-11.765
▁칩니다	-11.7659
▁or	-11.766
▁H	-11.7663
▁팍	-11.7669
잖	-11.7671
▁내성	-11.7673
▁원리	-11.7684
▁국어	-11.7693
▁꼽	-11.7704
▁던져	-11.7704
▁얽	-11.7706
페인	-11.7708
▁휠	-11.7708
▁닦	-11.7708
▁맏	-11.7708
좋	-11.771
▁밝혀졌	-11.7713
▁들여다	-11.7716
▁84	-11.772
▁트라	-11.7726
▁깜	-11.773
▁포스코	-11.7736
▁회전	-11.7736
▁빗	-11.7738
▁올라갔	-11.774
▁옮겨라	-11.7743
▁선행	-11.7744
▁삽	-11.7744
▁느껴집니다	-11.7745
▁항암	-11.7748
▁전무	-11.7754
▁조명	-11.7756
▁운반	-11.7757
럿	-11.7759
▁극소	-11.7761
▁할수록	-11.7765
▁무너져	-11.7769
▁산출	-11.777
▁출범	-11.7773
▁XXXX	-11.7777
▁경주	-11.7783
▁캡	-11.7783
▁선별	-11.7783
▁한창	-11.7785
반기	-11.7788
▁굽	-11.7795
▁날려	-11.7797
▁벌점	-11.7805
▁저기	-11.781
▁김동	-11.781
▁거라	-11.7816
▁알려진	-11.7816
▁소나	-11.7819
특권	-11.782
▁위증	-11.7821
▁이어져	-11.783
▁수면	-11.7849
▁전가	-11.7853
성장	-11.7856
생명	-11.7861
이런	-11.7864
탱	-11.7867
▁김대	-11.787
z	-11.787
▁일으킨	-11.7875
▁무형	-11.7879
▁돌아와	-11.7879
기흥	-11.7881
▁내면	-11.7886
▁상모	-11.7887
▁곱	-11.7891
덜	-11.7891
▁부스	-11.7898
차장	-11.7898
포르	-11.7901
는지	-11.7902
▁안산	-11.791
▁웬	-11.7915
연료	-11.7921
▁온상	-11.7925
▁막내	-11.7926
▁중형	-11.7933
▁돌봐	-11.7936
▁갇혀	-11.7936
▁근육	-11.7943
▁영등포	-11.7943
▁asp	-11.7944
▁동북아	-11.7944
▁화이팅	-11.7945
▁서대문	-11.7948
▁틀린	-11.7957
▁험	-11.7957
유총	-11.7958
▁R	-11.796
든지	-11.7963
▁반말	-11.7966
의식	-11.7967
▁납세	-11.797
끈	-11.7982
▁스티	-11.7986
▁디자인	-11.7986
▁빠졌	-11.7988
▁갔다	-11.7992
U	-11.7997
▁유형	-11.8013
▁짱	-11.8014
▁벼	-11.8014
▁불통	-11.8025
▁대포	-11.8027
▁오른다	-11.8031
▁가맹	-11.8042
봐야	-11.8044
▁88	-11.8045
▁비워	-11.8045
▁공조	-11.8047
혜원	-11.8051
▁8000	-11.8054
아서	-11.8061
문화재	-11.8069
죠	-11.8071
▁이분	-11.8071
해임	-11.8074
▁죽인	-11.8077
재인	-11.8093
▁85	-11.8093
▁편한	-11.8097
▁편집	-11.8124
▁꾸려	-11.8126
개월	-11.8128
퇴직	-11.8143
데이	-11.8147
▁뚜렷	-11.8147
페	-11.8151
▁오가	-11.8151
▁갖춘	-11.8153
▁뉘우	-11.8155
▁칭	-11.8156
▁발버둥	-11.8156
▁순기능	-11.8157
▁불렀	-11.8157
경북	-11.8157
▁핀	-11.8157
삭	-11.816
▁라돈	-11.8161
▁빠짐없이	-11.8162
시대	-11.8162
▁내용증명	-11.8166
▁유인	-11.8173
▁미개	-11.8175
▁치마	-11.8177
▁외쳐	-11.8179
▁퍼센	-11.8181
▁여겨	-11.8184
▁렌트	-11.8193
클	-11.8193
▁69	-11.82
▁약탈	-11.8202
▁경향	-11.8217
▁김재	-11.8218
전거	-11.8218
▁무참	-11.8219
▁팅	-11.8219
▁어두	-11.8225
빌리	-11.8229
웅	-11.8235
▁관악	-11.8246
▁검정	-11.8247
▁이력	-11.8253
50	-11.8259
비방	-11.8262
▁프	-11.8273
▁지킨	-11.8274
▁안중	-11.8288
▁만세	-11.8288
▁국유	-11.8293
▁듬	-11.8294
00	-11.8298
낡	-11.8299
▁화상	-11.8302
▁동행	-11.8304
▁불거	-11.8305
▁보행	-11.8306
▁웅	-11.8326
▁계절	-11.8343
▁잃어버	-11.8343
▁쑈	-11.8346
▁생생	-11.8346
렉	-11.8351
▁터진	-11.8351
▁구상	-11.8354
▁랴	-11.8356
▁핸	-11.8363
▁내정	-11.8365
▁카테	-11.8369
▁어업	-11.8369
홍	-11.837
▁크레	-11.8371
▁썩어빠	-11.8374
▁소프트	-11.8374
▁활발	-11.8374
▁사방	-11.8375
▁낙인	-11.8378
▁인공강우	-11.8379
▁xx	-11.838
▁이벤트	-11.8382
▁무대	-11.8382
▁대항	-11.8385
▁대수	-11.8387
▁나섰	-11.8402
공업	-11.8403
▁돌파	-11.8405
▁진로	-11.8406
ong	-11.841
▁덤프	-11.8415
RE	-11.8419
톱	-11.842
▁성관	-11.8422
▁배임	-11.8427
▁기성	-11.8436
▁다녀온	-11.8438
제한	-11.8439
젝	-11.8445
▁단호	-11.8451
지능	-11.8452
▁아세	-11.8457
▁참조	-11.8459
▁유적	-11.8459
문화	-11.8468
▁추워	-11.8483
고쳐야	-11.8495
▁론	-11.85
▁대부	-11.85
▁유관	-11.8502
▁김명	-11.8502
▁살려야	-11.8508
보도	-11.8513
느니	-11.8513
리아	-11.8513
▁주둔	-11.8514
▁유력	-11.8518
영업자	-11.8521
늬	-11.8521
▁해진	-11.8527
▁뻔한	-11.853
▁베이	-11.8537
▁속아	-11.8541
▁선조	-11.8544
▁좌지	-11.8547
짱	-11.855
▁정문	-11.856
닝	-11.8581
▁갖춰	-11.8585
▁횡	-11.8596
▁쓰러져	-11.8596
▁셔야죠	-11.8599
▁터키	-11.8601
▁쓸모없	-11.8602
▁일으켜	-11.8606
▁녹화	-11.8609
▁탄원서	-11.8612
▁떨어질	-11.8621
▁트위	-11.8622
▁몬	-11.8624
▁단다	-11.863
▁관찰	-11.8635
▁한단	-11.8642
▁겁나	-11.8647
▁중개업	-11.865
상황	-11.865
1901	-11.865
▁잠자	-11.8651
▁대물	-11.8651
▁묶여	-11.8658
▁현관	-11.8658
▁도우	-11.8669
▁대립	-11.8674
승차	-11.8676
▁어렸	-11.869
먹이	-11.8691
레기	-11.8692
듬	-11.8705
웁	-11.8716
▁외래	-11.8717
▁지날	-11.8718
▁던가요	-11.8718
▁632	-11.8722
기차	-11.8723
▁공세	-11.873
본연	-11.8733
▁막연	-11.8741
▁96	-11.8742
hn	-11.8746
둘	-11.8755
▁원자	-11.8757
처럼	-11.8777
인지	-11.8778
▁미쳐	-11.8778
▁태워	-11.8784
▁화합	-11.879
▁신발	-11.8792
사자	-11.8794
▁훌	-11.8795
▁망가	-11.8795
▁마침	-11.8796
▁수혜	-11.8796
▁휘둘	-11.8807
▁비추	-11.8812
▁넉넉	-11.8813
▁팟	-11.8815
대한민국	-11.8819
▁어쨌든	-11.8824
▁포탈	-11.8824
▁넘어갔	-11.8826
윤	-11.8827
▁앞세워	-11.883
▁남겼	-11.8831
▁달라진	-11.8832
▁공업	-11.8833
▁걸립니다	-11.8834
▁질질	-11.8835
▁보냅니다	-11.8836
▁아까운	-11.8836
본인	-11.8838
덴	-11.8845
▁김일	-11.8846
▁내외	-11.8847
▁배울	-11.8848
오르	-11.8849
▁ca	-11.8849
▁까진	-11.8855
▁해집니다	-11.8856
▁반찬	-11.8857
▁할머	-11.8857
312	-11.886
시방	-11.8871
▁고지	-11.8871
000	-11.8871
▁사라진	-11.8874
교사	-11.8874
▁발병	-11.8875
이나	-11.8883
▁짊어	-11.8885
▁부각	-11.8885
▁스위	-11.8897
▁급등	-11.8899
▁시달	-11.8899
▁장년	-11.89
센	-11.8902
▁Wh	-11.8906
▁총수	-11.8908
▁일일	-11.8913
스쿨	-11.8917
기사	-11.8921
니깐	-11.893
!	-11.893
▁라는데	-11.8931
저리	-11.894
▁맙	-11.8941
▁내국	-11.8942
이드	-11.8947
▁md	-11.8951
▁낸다	-11.8952
▁부조	-11.8959
▁타협	-11.8962
NS	-11.8967
▁조리	-11.8974
▁긴장	-11.8975
▁이리	-11.8985
▁쫓아	-11.8986
og	-11.8987
▁개천	-11.9001
▁떄	-11.9001
▁빠뜨	-11.9003
▁드러난	-11.9007
▁국경	-11.9009
▁으셔	-11.9023
▁씁	-11.9025
▁건만	-11.9025
상생	-11.9026
19	-11.9033
▁결사	-11.9034
▁관세	-11.9042
▁본보	-11.9047
▁베네	-11.9048
▁낚시	-11.9048
▁사무직	-11.9051
▁오줌	-11.9053
▁팽	-11.9055
▁붙임	-11.9062
▁이뤄지	-11.9062
▁찾아갔	-11.9062
▁플랜	-11.9068
▁지우	-11.907
▁모를까	-11.907
▁등재	-11.907
▁신한	-11.9072
진흥	-11.9084
▁81	-11.9089
▁데려다	-11.909
▁터트	-11.909
▁신기	-11.909
▁맞춤	-11.9092
서라도	-11.9095
▁석면	-11.9095
▁살짝	-11.9096
▁유영	-11.9097
▁받아들일	-11.9103
▁성년	-11.9106
긋나	-11.9106
▁출고	-11.9112
▁뿌려	-11.9113
▁녀	-11.9121
▁도축	-11.9127
▁알림	-11.9138
▁발부	-11.9141
해진	-11.9148
▁솔	-11.9149
▁건설업	-11.915
▁SOC	-11.9152
해고	-11.9158
▁대통	-11.9169
▁속임	-11.917
▁파기	-11.9181
▁황금	-11.9181
▁심심	-11.9184
회의	-11.9187
비용	-11.919
▁지냈	-11.9194
▁미비	-11.9195
▁재래	-11.9196
인과	-11.9201
▁틀어	-11.9202
▁pc	-11.9205
꼬	-11.921
▁미숙	-11.9218
▁조달	-11.9223
ent	-11.9225
▁아까워	-11.923
청원	-11.9231
입구	-11.9232
▁어긴	-11.9237
▁즈	-11.9237
▁연세	-11.9246
▁냐면	-11.9251
▁벗어난	-11.9258
▁컸	-11.9265
영장	-11.9272
▁무임	-11.9274
OD	-11.9275
▁조만	-11.9279
워크	-11.9283
▁늦춰	-11.9284
▁물어봐	-11.9292
▁물으니	-11.9294
▁노골	-11.9297
▁찾아볼	-11.9297
▁토끼	-11.93
▁다닌	-11.9301
▁계승	-11.9304
▁혐한	-11.9305
▁130	-11.9306
▁산책	-11.9312
▁바랄	-11.9313
▁스모	-11.9315
▁교훈	-11.9315
와야	-11.9317
▁되돌려	-11.9319
▁불합격	-11.9321
▁외환	-11.9321
▁밤새	-11.9322
▁오릅니다	-11.9325
▁천지	-11.9325
▁연예	-11.9326
▁저지	-11.933
▁혐	-11.9336
▁501	-11.9339
▁는데도	-11.934
▁다쳐	-11.9341
티브	-11.9341
▁모조	-11.9345
▁바늘	-11.9351
▁정규	-11.9353
▁재결	-11.9355
▁삭	-11.9356
획	-11.9359
못해	-11.9365
멸시	-11.9367
fe	-11.9371
▁점령	-11.9375
▁청화	-11.9379
▁해진다	-11.9385
▁나설	-11.9393
이익	-11.9397
▁공용	-11.9397
회장	-11.9397
▁바래	-11.9402
▁풀려	-11.9406
ER	-11.9416
▁서양	-11.9416
▁진도	-11.9419
▁적어	-11.942
주주	-11.9436
엽	-11.9437
해졌	-11.9439
▁실려	-11.9443
▁배후	-11.9447
운동	-11.9448
▁졸라	-11.945
담금	-11.9451
쨋	-11.9463
▁본론	-11.9464
▁미뤄	-11.9465
▁조약	-11.9466
▁내각	-11.947
▁북부	-11.9471
콧	-11.9484
얼	-11.9484
서관	-11.9489
▁숨겨	-11.9493
▁갇	-11.9507
▁떨어진다	-11.9511
OUT	-11.9524
정책	-11.9525
경질	-11.9526
▁MH	-11.9528
▁지워	-11.953
▁자란	-11.9534
문서	-11.9536
▁창설	-11.9539
이상	-11.9539
▁사명감	-11.9539
▁떨어뜨	-11.954
▁조력	-11.9542
▁패배	-11.9545
호법	-11.9545
bs	-11.9546
▁교통안전	-11.9547
▁정한다	-11.9549
▁창녀	-11.9552
뉴	-11.9562
▁코리아	-11.9563
▁진작	-11.9565
▁납치	-11.9576
▁껄	-11.9578
▁커질	-11.958
▁실종	-11.9587
▁속인	-11.9588
▁종업	-11.9589
100	-11.9592
▁자비	-11.9594
▁큰소리	-11.9598
j	-11.9598
▁육지	-11.9599
▁은평	-11.9606
▁손잡	-11.9606
▁vs	-11.9609
▁더냐	-11.9611
▁신생	-11.9611
쥐	-11.962
샘	-11.9625
▁초월	-11.9626
바르	-11.9628
▁항공사	-11.964
▁델	-11.965
▁노사	-11.965
▁W	-11.9651
투기	-11.9652
▁리모	-11.9656
▁고장	-11.9658
으므로	-11.9673
▁자백	-11.9673
민감	-11.9678
▁숭	-11.9679
▁이어졌	-11.9682
▁브레이크	-11.9688
▁밝혀진	-11.9695
두리	-11.9697
▁이탈	-11.9715
BM	-11.9721
▁이단	-11.9722
▁연설	-11.9726
▁성동	-11.9731
▁메이	-11.9734
끄	-11.9736
▁줄어든다	-11.9741
▁퍼트	-11.975
렌	-11.9758
▁쉼	-11.9759
▁솔선	-11.9759
더니	-11.9761
▁굴뚝	-11.9777
▁바꿨	-11.9777
던지	-11.9779
▁파트	-11.9779
▁상용	-11.9782
▁찬양	-11.9783
▁이슬람	-11.9786
▁동서	-11.9787
▁착오	-11.9787
▁EBS	-11.9788
민국	-11.9788
▁껍니다	-11.9789
▁후쿠시마	-11.9792
▁다릅니까	-11.9794
▁포천	-11.9799
▁petition	-11.9802
▁지껄	-11.9803
▁케이블	-11.9812
▁떠안	-11.9821
▁죄책	-11.9821
푸	-11.9823
▁오버	-11.9823
▁텐데요	-11.9823
려는	-11.9824
▁반역	-11.9831
▁위계	-11.9831
in	-11.9842
▁하급	-11.9852
▁간담	-11.9853
▁젤	-11.9854
▁구직자	-11.9857
▁93	-11.9863
▁인감	-11.9867
▁공로	-11.9875
그리고	-11.9876
▁가까워	-11.9882
▁광명	-11.9885
▁주파	-11.9889
솔	-11.989
▁뻥	-11.99
▁번식	-11.9901
▁MR	-11.9904
▁붓	-11.992
▁스케	-11.9921
▁실용	-11.9944
F	-11.9945
이유	-11.9947
▁해피	-11.9949
▁돌아올	-11.9951
허	-11.9953
딱	-11.9958
▁기차	-11.9961
▁시달려	-11.9966
인데	-11.9967
쭉	-11.9969
험	-11.9972
▁노년	-11.9972
▁항고	-11.9979
▁유흥업	-11.9985
▁섞	-11.9987
20	-11.9991
▁불교	-11.9998
▁퍼뜨	-12.0003
자원	-12.0006
▁반인	-12.0008
▁놀아	-12.0009
▁못함	-12.0015
▁놀리	-12.0017
▁힐	-12.0028
▁고사하	-12.0029
2030	-12.003
어촌	-12.0032
부담	-12.0033
▁스펙	-12.0033
▁비제	-12.0035
▁질까	-12.0038
눈	-12.0039
▁땡	-12.0039
▁냉각	-12.0039
▁어떨	-12.0041
▁생략	-12.0042
▁비닐봉	-12.0044
▁민방위	-12.0044
▁무얼	-12.0045
▁텐	-12.0047
▁최후	-12.0047
▁흔들려	-12.0047
▁2523	-12.0052
▁밀린	-12.0053
▁kg	-12.0054
▁계십니까	-12.0057
▁은지	-12.006
▁만기	-12.0061
스레	-12.0071
a	-12.0071
▁미술	-12.008
▁750	-12.0081
립니다	-12.0083
▁주방	-12.0084
▁의정부	-12.0088
놨	-12.0089
▁진다는	-12.009
큰	-12.0094
▁끝날	-12.0097
▁원상	-12.0098
▁난치	-12.0099
와서	-12.0105
▁57	-12.0106
균등	-12.011
▁검거	-12.0112
▁동양	-12.0116
▁드려요	-12.0128
▁식량	-12.0129
▁개업	-12.0131
▁천재	-12.0134
▁야만	-12.0137
▁감독관	-12.0146
▁척하	-12.0147
▁벌어질	-12.0156
▁한답니다	-12.0156
▁정성	-12.016
▁꺼려	-12.0167
품위	-12.0169
▁벙	-12.0175
▁깨우	-12.0177
점주	-12.0185
▁부려	-12.0186
▁더라고	-12.0188
25	-12.019
▁승부	-12.0194
▁53	-12.021
▁산다는	-12.0211
고리	-12.0217
o	-12.0219
▁NL	-12.0219
랜	-12.0227
▁정형	-12.0229
셔	-12.0229
▁관계없	-12.0229
▁선관	-12.0237
▁174	-12.0238
▁건국	-12.0243
▁삐	-12.0251
▁지랄	-12.0262
봇	-12.0262
▁개소	-12.0266
▁요지	-12.0274
▁sb	-12.0281
▁해치	-12.0283
▁볼까	-12.0283
1811	-12.0295
▁커넥	-12.0296
왜	-12.0298
▁쌍방	-12.03
▁스러울	-12.0308
▁보너스	-12.0311
▁펀	-12.0312
▁띄워	-12.0313
떨어진	-12.0316
십	-12.0323
▁얼른	-12.0326
▁현충	-12.0331
▁활력	-12.0332
▁어딜	-12.0335
▁공백	-12.0337
▁이뤄지지	-12.0338
▁남짓	-12.0346
▁해운대	-12.0349
▁선전	-12.0352
▁장례	-12.0353
▁힙	-12.0357
잘	-12.0361
▁산부	-12.0362
패스	-12.0365
▁상주	-12.0367
NG	-12.0374
▁일개	-12.0376
▁뜨거	-12.0378
▁죄악	-12.0381
주소	-12.0384
▁합계	-12.0396
▁바퀴	-12.0399
▁권영	-12.0406
플레이	-12.041
▁XX	-12.0413
▁인쇄	-12.0414
▁인신	-12.0422
건설	-12.0426
▁모름	-12.0428
▁느니	-12.0428
▁기흥	-12.0431
자료	-12.0438
▁독서	-12.0443
▁근원	-12.0458
댁	-12.0459
▁구독	-12.0461
▁어떤지	-12.0462
▁알릴	-12.0464
무시	-12.0464
▁매트	-12.0471
▁라구	-12.0482
▁처참	-12.0488
▁콘서트	-12.0488
▁얹	-12.0491
뢰	-12.0503
▁느냐고	-12.0506
▁미화	-12.0515
▁140	-12.0525
▁룸	-12.0525
▁늘린다	-12.0536
▁현수	-12.0537
▁춤	-12.0541
▁꺾	-12.0548
▁뺐	-12.0548
▁훗	-12.0548
사실	-12.0548
국인	-12.055
▁촉	-12.0561
▁쟁	-12.0562
▁낱낱	-12.0566
▁버틸	-12.0567
▁스웨	-12.0567
▁강릉	-12.0567
▁떠났	-12.0569
▁97	-12.057
▁노벨	-12.0572
▁기관지	-12.0573
바른	-12.0574
▁폐렴	-12.0574
▁멕시코	-12.0575
▁태어났	-12.0577
▁하우스	-12.0578
▁엔지니어	-12.0581
▁왠만	-12.0582
▁노원	-12.0583
숙사	-12.0584
▁절규	-12.0584
▁동백	-12.059
▁그제서	-12.0592
제도	-12.0594
▁세운	-12.0594
▁갑시다	-12.0595
▁쏠	-12.0596
▁됍니다	-12.0602
▁걸까	-12.0603
▁주어진	-12.0604
▁골든	-12.061
▁박살	-12.0617
마케팅	-12.0617
▁진열	-12.0619
▁졌으	-12.0626
▁다던	-12.063
11	-12.0633
붕	-12.0636
▁증조	-12.0639
▁J	-12.0643
시설	-12.0645
앙	-12.0645
▁간사	-12.0649
▁줄인다	-12.0651
▁면역	-12.0654
▁신다	-12.0656
아버	-12.066
▁절단	-12.0661
룩	-12.0663
▁네트	-12.0665
▁한답	-12.0668
파크	-12.0679
▁10000	-12.0681
▁단점	-12.0684
▁375	-12.0688
▁다녀와	-12.0688
서울	-12.0695
▁소변	-12.0697
▁신조	-12.0697
▁박영	-12.0699
▁이토	-12.0702
킬	-12.0711
▁LT	-12.0714
뛰	-12.0726
▁되돌	-12.073
유럽	-12.0735
▁줌	-12.0738
출혈	-12.0745
▁아니한	-12.0749
▁잉여	-12.0752
▁소기업	-12.0756
▁82	-12.0769
▁부익	-12.0771
▁멘	-12.0774
렛	-12.078
dir	-12.078
▁강남구	-12.079
Id	-12.0793
▁인접	-12.0798
예산	-12.08
벼락	-12.081
▁울려	-12.0825
▁동성애	-12.0825
pres	-12.0826
▁312	-12.0832
▁사리	-12.0835
▁거미	-12.0842
▁바깥	-12.0844
▁즐겨	-12.0845
▁뉴욕	-12.0845
통령	-12.0846
▁아랑곳	-12.0853
▁차려라	-12.0862
▁모른다는	-12.0863
▁내버려	-12.0863
▁불순	-12.0867
▁보살펴	-12.0868
▁박준	-12.0869
용량	-12.087
▁축산	-12.0871
▁상부	-12.0879
▁슴니다	-12.0881
▁추석	-12.0887
▁병비	-12.0887
▁쇄	-12.0888
▁저지를	-12.0891
의미	-12.0892
▁마누	-12.0894
유산	-12.0895
센트	-12.0895
▁텍	-12.0897
▁대동	-12.0898
▁호의	-12.0898
▁태권	-12.09
▁장식	-12.0901
▁헤아	-12.0905
▁국가인권위	-12.0905
보다	-12.0906
젠	-12.0911
▁1200	-12.0913
No	-12.0917
▁귀중	-12.0918
완	-12.0922
국노	-12.0925
▁극우	-12.0926
지어	-12.0928
▁균등	-12.0929
▁아름	-12.0938
긋	-12.0942
밤	-12.0945
▁신선	-12.0947
▁모래	-12.0948
▁행해	-12.0948
▁그러다	-12.0951
▁유니	-12.0953
▁날까	-12.0955
▁da	-12.096
걸로	-12.0964
▁좌우	-12.0968
▁한다던	-12.0974
▁설문	-12.0985
▁돌아온	-12.0986
텐데	-12.0991
▁유령	-12.0997
▁잡아	-12.1003
▁종부	-12.1004
▁폐해	-12.1007
▁밀어	-12.1011
▁동문	-12.1011
▁뇌사	-12.1012
▁가진다	-12.1014
▁울화	-12.1023
▁불복	-12.1024
▁로비	-12.1031
▁답안	-12.1031
흘	-12.1033
▁스카이	-12.1033
경제	-12.1033
봅니다	-12.1039
▁레오	-12.104
▁더구	-12.1047
혐오	-12.1053
▁여인	-12.1054
뺌	-12.1066
▁트리	-12.1066
▁GP	-12.1069
리비	-12.1071
린다	-12.1073
▁사행	-12.1074
쪼	-12.1075
가운	-12.1078
▁모의	-12.1081
지노	-12.1098
2018	-12.1104
▁파이	-12.1104
불성	-12.1108
▁살린다	-12.111
▁몹	-12.1111
▁뭣	-12.1111
▁슴	-12.1113
▁관절	-12.1119
▁랜	-12.1122
▁머슴	-12.1129
▁블록	-12.1132
래요	-12.1133
ex	-12.1134
▁쿼	-12.1137
▁밉	-12.1137
▁렵니까	-12.1139
▁원만	-12.114
▁깨달	-12.1142
▁늘어났	-12.1142
▁공방	-12.1144
▁휴양	-12.1144
▁수수방관	-12.1144
때문	-12.1148
▁밀어붙이	-12.1154
끼리	-12.1155
▁텅	-12.1158
▁속해	-12.116
▁무전	-12.1161
▁넘어갈	-12.1165
시경	-12.1167
▁커져	-12.1168
▁삿	-12.117
랍니다	-12.1173
▁떠날	-12.1174
▁가로	-12.1182
▁측량	-12.1191
▁전기료	-12.1191
▁두서없	-12.1198
▁거늘	-12.12
▁News	-12.1201
▁백두	-12.1207
명예	-12.1208
정숙	-12.1208
▁살아날	-12.1212
▁차용	-12.1213
▁살펴봐	-12.1213
▁거슬	-12.1218
▁시흥	-12.1235
컨	-12.1237
▁끼워	-12.1239
▁해야죠	-12.124
▁전동	-12.1243
▁자위	-12.1252
▁추신	-12.1253
▁한가	-12.1254
▁도주	-12.1254
▁태평양	-12.1281
▁soc	-12.129
▁0000	-12.1294
▁비속	-12.1313
▁통치	-12.1322
▁습니	-12.1322
▁망친	-12.1328
뜩	-12.1332
▁락	-12.1333
▁로울	-12.1333
▁렷	-12.1338
626	-12.1342
▁과다	-12.1342
▁끓	-12.1348
▁툭	-12.1352
▁우라	-12.1353
그러	-12.1355
쇼	-12.1355
▁래	-12.1358
▁바빠	-12.136
툰	-12.136
과금	-12.1361
▁망해	-12.1363
▁덤	-12.1363
▁정세	-12.1371
▁한탄	-12.1372
▁담겨	-12.1374
Z	-12.1375
아야	-12.138
▁호가	-12.1381
리베이	-12.1387
▁아니한다	-12.1387
묻	-12.1391
▁다자	-12.1396
▁방울	-12.14
▁보임	-12.14
▁바닷	-12.1403
▁걍	-12.1404
▁숱	-12.1404
▁소사	-12.1407
▁월등	-12.1408
▁웃긴	-12.141
재판	-12.1417
▁유선	-12.1419
▁부속	-12.1422
요금	-12.1422
▁곰팡	-12.1423
▁견딜	-12.1424
▁상반	-12.1424
분양	-12.143
▁간략	-12.1436
▁컨테이너	-12.1438
▁무용지물	-12.1438
▁어쩌다	-12.1438
▁쓸모	-12.1439
▁유연	-12.1439
▁재검토	-12.144
▁격려	-12.1441
▁스타트	-12.1441
▁착복	-12.1451
▁난폭	-12.1451
▁꿇	-12.1459
▁음료	-12.1461
방위	-12.1464
▁샘	-12.1465
▁휘말	-12.1468
▁무법	-12.1469
그리	-12.1471
▁공탁	-12.1472
▁인대	-12.1486
▁펌	-12.1487
커버리	-12.1491
▁앉혀	-12.1496
▁카르	-12.1502
바라	-12.1507
▁반사	-12.1509
▁대인	-12.1511
겸	-12.1511
▁질타	-12.1519
▁탐지	-12.1524
▁갑작	-12.1534
▁지낼	-12.1535
▁떠난	-12.1536
▁왈	-12.1544
▁온다면	-12.1546
▁끊어	-12.1546
미화	-12.1551
▁실습	-12.1553
▁추심	-12.1554
▁퍼져	-12.1554
▁AI	-12.1556
▁중량	-12.1561
▁셔요	-12.1562
▁뷰	-12.1565
▁마루	-12.1566
▁교부	-12.1571
▁인문	-12.1573
▁마사	-12.1576
▁조언	-12.1582
bc	-12.1582
▁온다는	-12.1582
▁배심	-12.1591
민주	-12.1594
▁EA	-12.1594
▁62	-12.1599
금융	-12.1601
▁강서	-12.161
▁나간다	-12.1618
▁뺀	-12.1618
▁강수	-12.1621
▁뜬	-12.1625
▁사명	-12.1627
▁낀	-12.1629
▁개요	-12.163
▁적화	-12.1644
쓴	-12.1647
▁소란	-12.1647
▁원할	-12.1657
▁주목	-12.166
탬	-12.1662
싣	-12.1663
죗	-12.1663
췄	-12.1663
▁붉	-12.1665
▁탄원	-12.1671
▁아까	-12.1673
▁부수	-12.1673
뿌리	-12.1687
주야	-12.1699
▁껍	-12.1705
▁이겨	-12.1705
▁움직여	-12.1705
▁닮	-12.1707
▁초음	-12.1708
▁변해	-12.1725
▁꼼짝	-12.1726
▁푸른	-12.1727
▁제곱	-12.1728
▁폴	-12.1729
학연	-12.173
▁유무	-12.1732
께요	-12.1734
▁맙시다	-12.1735
▁범칙	-12.1735
▁짚	-12.1736
▁놀림	-12.1738
▁만신창	-12.1738
▁괴로워	-12.1739
▁숙여	-12.174
▁조종	-12.1744
▁연고	-12.1745
▁운송료	-12.1746
▁싸울	-12.1746
▁취했	-12.1746
▁학벌	-12.1752
▁아야지	-12.1754
▁몽골	-12.1756
▁증강	-12.1756
▁저공	-12.1757
RD	-12.1757
▁나몰라	-12.1758
▁진리	-12.1764
▁외삼	-12.1777
▁뒤쳐	-12.1779
▁예정자	-12.1799
던데	-12.1812
▁동향	-12.1813
▁방파	-12.1818
▁영종	-12.1822
▁부역	-12.1824
▁우산	-12.1824
▁낭	-12.1831
▁저하	-12.1832
▁리스	-12.1832
▁그러니	-12.1833
눌	-12.1839
▁수탁	-12.1847
▁부제	-12.1847
MO	-12.1848
▁지름	-12.1849
드립니다	-12.1854
▁김구	-12.1863
▁움	-12.188
▁저절	-12.1895
▁워크	-12.19
큼	-12.1902
중국	-12.1904
22	-12.1905
▁동거	-12.1916
▁해상	-12.1919
▁66	-12.192
▁도울	-12.1933
▁온도	-12.1934
30	-12.1937
▁단단	-12.1939
꼬리	-12.1939
▁곽	-12.1957
▁개그	-12.1957
▁과반	-12.1963
▁벌인	-12.1963
▁접어	-12.1966
▁양상	-12.1968
▁했으면	-12.1974
둠	-12.1976
그네	-12.1979
▁신데	-12.1981
옵니다	-12.1982
금액	-12.1983
▁꾀	-12.1986
는데도	-12.1988
특별자치	-12.1989
▁엑	-12.1997
민원	-12.1998
배차	-12.2
▁다스려	-12.2004
▁뺨	-12.2019
▁외식	-12.2022
▁국기	-12.2024
▁소서	-12.2025
▁장성	-12.2029
공무원	-12.2032
한국	-12.2037
▁꼼꼼	-12.2038
▁낙찰	-12.2042
SA	-12.2043
le	-12.2043
▁위성	-12.2049
arch	-12.2049
▁환승	-12.2049
ID	-12.205
▁띄우	-12.2052
▁지긋지긋	-12.2053
▁랜드	-12.2054
▁따릅니다	-12.2054
▁넓혀	-12.2054
▁버림	-12.2055
▁떨어집니다	-12.2058
▁일어납니다	-12.2059
쳐야	-12.2066
▁배워야	-12.2076
▁빌린	-12.2079
▁스타일	-12.2082
f	-12.2088
▁검출	-12.2088
▁반해	-12.2088
429	-12.2092
▁흑자	-12.2094
▁충주	-12.2096
▁찍힌	-12.2096
▁정통	-12.2098
컷	-12.2103
옹	-12.2104
▁회유	-12.2105
▁직선	-12.2105
▁관내	-12.2106
▁꾹	-12.2107
▁폭파	-12.2109
▁융자	-12.2111
▁건들	-12.212
▁여섯	-12.212
▁공적	-12.213
▁기승	-12.2137
OP	-12.2139
▁선심	-12.2141
▁농축	-12.2146
ect	-12.2148
▁망국	-12.2151
방송	-12.2154
쾌	-12.2154
▁슬로	-12.2165
공항	-12.2166
▁지낸	-12.2168
네시	-12.2172
▁불감	-12.2172
쑤	-12.2174
주자	-12.2177
답니다	-12.2178
▁밝힌	-12.2183
주택	-12.2184
▁갈수	-12.219
유지	-12.2197
▁애써	-12.2198
▁처절	-12.2214
▁이룬	-12.2215
R	-12.2237
▁하향	-12.2246
▁친환	-12.2248
▁걸린다	-12.2256
해방	-12.226
UM	-12.2263
논	-12.2264
DC	-12.2265
▁배불	-12.227
▁화살	-12.227
▁바우	-12.227
▁매스	-12.2272
사항	-12.2274
▁t	-12.228
▁우회	-12.2281
▁변한	-12.2281
타리	-12.2282
▁늑	-12.2284
관대	-12.2291
▁사채업	-12.2292
▁노심	-12.2293
눔	-12.2298
쌤	-12.2298
햐	-12.2298
도로	-12.2301
큐	-12.2302
사소	-12.2302
▁귀가	-12.2321
리조	-12.2323
위해	-12.2328
▁당합니다	-12.2331
▁파고	-12.2334
▁그만둔	-12.2341
웨	-12.2343
수인	-12.2359
싸움	-12.2363
▁y	-12.2364
통제	-12.2369
▁엎	-12.2369
▁끼칠	-12.237
▁괴산	-12.2371
▁베스트	-12.2373
▁집사	-12.2374
▁1990	-12.2378
▁목욕	-12.2378
▁지네	-12.2379
▁여객	-12.2382
워서	-12.2383
▁떠돌	-12.2384
금속	-12.2385
▁머물	-12.2385
▁해봐라	-12.2389
▁어딘	-12.2389
▁장벽	-12.2391
▁들어갑니다	-12.2397
▁굶주	-12.2398
▁소진	-12.2398
▁봉화	-12.2401
▁구름	-12.2401
▁갯	-12.2402
▁아야죠	-12.2414
▁공학	-12.2417
▁지망	-12.2417
▁속였	-12.2417
성균	-12.2418
▁갈비	-12.2418
▁부탁드	-12.2419
▁도살	-12.2419
▁특목	-12.242
▁전대	-12.2421
▁합쳐서	-12.2421
40	-12.2422
태만	-12.2424
▁가두	-12.2426
▁녹색	-12.2428
80	-12.2436
겨우	-12.2437
▁영문	-12.2443
▁내어	-12.2446
▁카운	-12.2447
▁청취	-12.2447
▁2001	-12.245
▁들려	-12.2458
▁사격	-12.2458
딜	-12.2461
이브	-12.2462
필요	-12.2464
나치	-12.2474
▁아플	-12.2475
▁결혼식	-12.248
▁나르	-12.2481
불리	-12.2481
▁장로	-12.2484
▁아쉬	-12.2489
▁정중	-12.2493
▁때렸	-12.2499
밖	-12.25
▁김종	-12.2502
▁산후	-12.251
▁성취	-12.2531
대식	-12.2533
▁파리	-12.2533
▁달렸	-12.2548
▁미워	-12.2549
▁나갑니다	-12.2557
▁US	-12.2559
아닌	-12.256
▁유가	-12.2565
▁일으킬	-12.2568
▁빨아	-12.2568
▁가로막	-12.257
▁정은	-12.2577
지방	-12.2596
팀	-12.2597
▁갈아	-12.26
▁공대	-12.2602
▁구정	-12.2611
▁들립니다	-12.2612
▁엮	-12.2613
팠	-12.2632
▁도피	-12.2645
▁알려준	-12.2647
자연	-12.2649
▁올라도	-12.265
▁316	-12.2663
▁띵	-12.2675
▁한울	-12.2675
철도	-12.2675
조작	-12.268
보유	-12.2685
▁댁	-12.2685
999	-12.2688
▁64	-12.2688
▁대치	-12.2693
▁동정	-12.2693
▁캄캄	-12.2693
▁없앨	-12.2695
▁간식	-12.2695
▁일벌	-12.2703
▁쏟아져	-12.2703
▁밸	-12.2704
▁궤	-12.2704
▁배기량	-12.2704
공론	-12.2705
▁장례식	-12.2706
▁안하무인	-12.2708
▁두산	-12.2708
▁무덤	-12.2708
▁다매	-12.271
▁애착	-12.272
▁덥	-12.2722
▁어김없	-12.2727
▁된답니다	-12.2728
▁위한다면	-12.2728
폼	-12.2733
▁까다	-12.2734
▁연평	-12.2735
▁우측	-12.2739
▁갈라	-12.2741
겨운	-12.2743
▁바꾼	-12.275
협회	-12.2751
▁정면	-12.2751
센터	-12.2752
▁앞당	-12.2752
임상	-12.2753
정말	-12.2757
▁갈려	-12.2758
▁전교	-12.276
▁줄기	-12.2763
▁2500	-12.2765
▁지켜봐	-12.2785
▁탄현	-12.2787
▁이산화	-12.2789
▁분단	-12.2795
▁360	-12.281
▁76	-12.2812
위원회	-12.2812
▁김기	-12.2814
▁벅	-12.2822
야지	-12.2824
▁흘렀	-12.2825
▁j	-12.2837
▁구태	-12.2837
▁네여	-12.2856
앗	-12.2856
▁의약	-12.2856
▁재임	-12.2858
전자	-12.2873
▁들으면	-12.2873
▁성북	-12.2883
▁해줘	-12.2883
▁환상	-12.2886
금고	-12.2888
견인	-12.2895
▁말라	-12.2898
▁마곡	-12.2904
▁큐	-12.2907
▁벌여	-12.2915
고래	-12.2925
▁사탕	-12.2925
▁벨	-12.2926
려오	-12.2931
▁포르	-12.2935
현재	-12.2945
▁가공	-12.2957
나요	-12.2957
범위	-12.2963
딛	-12.2963
젼	-12.2976
▁UN	-12.2977
▁메인	-12.2979
구장	-12.2982
▁Q	-12.2991
▁고양	-12.2997
▁불명	-12.3003
▁이성	-12.3005
▁노가	-12.3006
▁짤라	-12.3014
원본	-12.3014
▁였음	-12.3015
끗	-12.302
▁사라진다	-12.302
교섭	-12.302
▁돔	-12.302
▁번번	-12.3021
▁둔다	-12.3026
▁어째	-12.3027
라마	-12.3033
▁여대	-12.3034
▁똘똘	-12.3037
▁견뎌	-12.3038
▁일가	-12.3038
▁시킴	-12.304
▁싱글	-12.3043
▁1600	-12.3044
▁94	-12.3048
▁무궁화	-12.3049
▁듭	-12.305
▁넘겼	-12.305
▁냇	-12.3051
▁비쌉니다	-12.3053
▁영광	-12.3055
▁청원서	-12.3055
▁농림	-12.3063
▁호랑	-12.307
▁틀림없	-12.3071
난방	-12.3076
▁시가	-12.3081
▁특이	-12.3091
▁방패	-12.3091
지급	-12.3092
뿐	-12.3096
성실	-12.3102
▁몰이	-12.3105
▁금호	-12.3109
▁220	-12.3111
밴	-12.3112
뚝	-12.3114
▁어야죠	-12.3115
지탄	-12.3115
▁지어서	-12.3123
▁치사	-12.3129
▁대현	-12.3131
▁추모	-12.3133
▁구만	-12.3138
▁확고	-12.314
▁구단	-12.3141
부동	-12.3143
▁바꾼다	-12.3144
수단	-12.3146
비열	-12.3155
▁금천	-12.3158
▁450	-12.3159
▁주최	-12.316
▁일면	-12.3169
▁중상	-12.317
▁차릴	-12.317
▁금년	-12.3172
습니까	-12.3174
▁ind	-12.3174
저래	-12.3203
▁역사관	-12.3208
고기	-12.321
행자	-12.3213
▁125	-12.3214
퉁	-12.3217
▁스파	-12.3217
▁데려와	-12.3222
▁벌였	-12.3223
▁때린	-12.3224
▁오름	-12.3226
▁KP	-12.3237
부지	-12.3238
▁마셔	-12.3248
▁문장	-12.3252
▁호화	-12.3261
됩니다	-12.3262
▁사물	-12.3269
▁벌어들	-12.327
▁면목	-12.3275
▁죄명	-12.3277
러리	-12.3282
▁발본	-12.3282
▁수혈	-12.3286
▁시운	-12.3288
▁저금	-12.3292
▁귀기울	-12.3295
▁라던	-12.3304
▁비망	-12.3304
톤	-12.3311
원인	-12.3329
뱀	-12.3334
쿄	-12.3334
▁마이	-12.3334
구멍	-12.3335
맨	-12.3337
▁양력	-12.3343
▁남극	-12.3347
정시	-12.335
▁가져온	-12.3363
색원	-12.3367
▁전관	-12.3368
베	-12.3368
▁남경	-12.337
국훈	-12.3371
▁넋	-12.3376
ey	-12.3379
▁찢	-12.3386
탐	-12.3391
k	-12.3394
▁드린다	-12.3395
▁깔려	-12.3403
오일	-12.3404
▁시신	-12.3406
▁찔	-12.3409
▁껌	-12.3409
▁된다니	-12.341
닌	-12.341
그레이	-12.3411
▁냉정	-12.3412
투병	-12.3413
▁이스라	-12.3414
▁태어날	-12.3417
▁덧붙여	-12.343
▁초토	-12.3438
▁망설	-12.3438
018	-12.3438
▁항공모	-12.3441
▁단정	-12.3441
▁탈모	-12.3444
▁편취	-12.3447
▁가져갔	-12.3453
겁니다	-12.3453
▁거제	-12.3459
연금	-12.3459
▁310	-12.3465
▁엑스	-12.347
▁뛰어나	-12.3472
TA	-12.3482
▁돌고	-12.349
▁블라	-12.3503
▁혈연	-12.3506
▁근근	-12.3521
▁행한	-12.3522
▁서식	-12.3522
▁량	-12.3523
스텔	-12.3523
▁워라	-12.3527
▁뜯어	-12.3534
▁보람	-12.3537
▁등산	-12.354
꿀	-12.3554
란다	-12.3556
▁조각	-12.3561
▁노란	-12.3563
▁박진	-12.3564
▁박용	-12.3564
▁314	-12.3564
라기	-12.3573
노동	-12.3583
▁키로	-12.3584
▁상류	-12.3585
▁음력	-12.3588
▁개표	-12.3596
▁거스	-12.36
행정	-12.3601
▁닝	-12.3604
▁수강	-12.3606
▁인질	-12.3623
공격	-12.3627
▁화이트	-12.3629
▁랄	-12.3639
상시	-12.3642
▁이러다	-12.3642
▁호로	-12.3644
심판	-12.3644
▁김부	-12.3649
▁조그	-12.3652
간호	-12.3655
라서	-12.368
▁재력	-12.3686
UB	-12.3688
▁LS	-12.3691
▁누진	-12.3694
해택	-12.3697
니스트	-12.3702
60	-12.3704
곪	-12.3704
댔	-12.3704
딨	-12.3704
짙	-12.3704
▁얄	-12.3707
비행	-12.3713
상사	-12.3713
섬	-12.3721
줍니다	-12.3723
▁럭	-12.3727
▁권순	-12.3736
▁없앤다	-12.3737
구리	-12.3743
▁갉	-12.3746
▁쏴	-12.3746
▁랭	-12.3746
▁직속	-12.3746
▁댕	-12.3747
▁법체	-12.3751
▁앞세	-12.3753
▁부끄러워	-12.3767
▁나이트	-12.3767
cd	-12.3767
▁깔끔	-12.3768
▁컨설	-12.3769
▁파킨슨	-12.3773
▁머지않	-12.3774
▁스크린	-12.3775
▁1800	-12.3775
소유	-12.3776
▁형편없	-12.3777
▁애니메이	-12.3779
▁홍석	-12.3781
▁나타난	-12.3783
▁빼돌	-12.3783
▁줄어듭니다	-12.3785
▁승합	-12.3788
▁합숙	-12.3789
▁맡겨야	-12.379
봉사	-12.3791
▁정재	-12.3793
▁밎	-12.3795
▁양평	-12.3801
딸	-12.3809
▁다쳤	-12.3811
▁여호	-12.3815
몫	-12.3816
23	-12.3817
▁불허	-12.3823
회계	-12.3825
▁최신	-12.3826
▁던데요	-12.3828
▁낸다는	-12.3831
▁찍혀	-12.3841
▁감리	-12.3846
▁여긴	-12.385
▁부사	-12.3854
▁442	-12.3855
▁표지	-12.3859
▁78	-12.3864
▁매립	-12.387
▁유언	-12.3874
▁1995	-12.3875
▁넘긴	-12.3878
대국	-12.3881
▁나온다는	-12.3881
사직	-12.3895
▁퍼부	-12.3901
▁대국	-12.3907
▁VR	-12.392
▁중랑	-12.393
▁경산	-12.393
이블	-12.3933
부랴	-12.3938
▁죽임	-12.3939
헤	-12.3949
▁bj	-12.3952
▁얼음	-12.3955
▁삼가	-12.3957
▁보인	-12.3958
▁다뤄	-12.3958
▁롤	-12.3969
섯	-12.3974
해결	-12.3981
둑	-12.3983
늦	-12.3986
▁치러	-12.3999
수석	-12.4003
▁히	-12.4004
▁브리	-12.4005
▁주선	-12.4009
하여	-12.4018
▁is	-12.402
늘	-12.4022
등교	-12.4024
장학	-12.4035
▁분포	-12.4035
도심	-12.4036
▁서요	-12.4043
▁데이	-12.4043
경우	-12.4054
▁만화	-12.4056
▁션	-12.4056
▁이길	-12.4064
자국	-12.4068
▁신다는	-12.407
여성	-12.4072
▁불입	-12.4073
인공	-12.4085
▁139	-12.4085
sun	-12.4086
늉	-12.4089
싯	-12.4089
펫	-12.4089
핌	-12.4089
17	-12.4092
▁세웠	-12.4093
딩크	-12.4094
먼지	-12.4102
반인	-12.4105
▁Re	-12.4107
▁구리	-12.4107
보냈	-12.4111
자랄	-12.4119
▁도봉	-12.412
▁훔쳐	-12.4123
▁갤	-12.413
▁텃	-12.413
▁핫	-12.413
▁소주	-12.4134
▁빠질	-12.4136
▁후세	-12.414
▁앵커	-12.415
▁했다	-12.4152
▁89	-12.4155
▁배고	-12.4157
▁잔혹	-12.4158
▁냉동	-12.4159
▁클라	-12.4161
▁붐	-12.4166
▁취합	-12.4166
▁어려워져	-12.417
▁서울특별시	-12.417
결백	-12.4172
식비	-12.4173
▁잡아먹	-12.4175
▁경인	-12.4182
내륙	-12.4183
자식	-12.4186
닭	-12.419
▁아세요	-12.4192
▁작성자	-12.4194
▁배기	-12.4195
기에	-12.4195
▁인지요	-12.4196
▁흰	-12.4202
이행	-12.4206
▁예수	-12.4211
▁받쳐	-12.422
▁슬퍼	-12.422
▁휴전	-12.4224
궐	-12.4225
▁둬	-12.4226
▁헌정	-12.4231
▁550	-12.4235
방관	-12.4235
▁곰	-12.4243
▁뚜	-12.4245
▁바가지	-12.4246
이러	-12.425
▁차일	-12.425
웃음	-12.4252
리오	-12.4256
반하	-12.4259
▁실지	-12.426
▁보신	-12.4268
▁줘요	-12.4268
▁옹	-12.4277
▁열등	-12.4283
끝	-12.4283
980	-12.4285
▁등쳐	-12.4285
▁유병	-12.4293
▁미소	-12.4297
및	-12.43
▁라던가	-12.4302
▁오지	-12.4312
▁센트	-12.4323
▁피임	-12.4324
특	-12.4327
돌림	-12.4329
▁미처	-12.4329
▁동방	-12.4332
저만	-12.4334
똥	-12.4342
▁느낀다	-12.4346
▁약해	-12.435
▁신도	-12.4351
▁증후	-12.4355
덩이	-12.4358
▁괴롭힌	-12.4362
▁101	-12.4364
▁둬야	-12.4373
구치	-12.4376
▁어처구니없	-12.4378
▁어겨	-12.4379
▁돋	-12.4379
▁휴학	-12.438
▁넘어간다	-12.4389
YS	-12.4389
RI	-12.439
바람	-12.4393
▁난다는	-12.4397
셋	-12.4402
두고	-12.4412
▁엄정	-12.4428
oon	-12.4429
▁픽	-12.4433
▁독자	-12.4436
▁굴러	-12.4446
뿔	-12.4449
▁DA	-12.4455
수당	-12.4462
공화	-12.4464
▁기상	-12.4464
치만	-12.4466
▁관용	-12.4469
가락	-12.4474
▁쓴다는	-12.4476
부동산	-12.448
▁DN	-12.4484
▁만성	-12.4484
▁보여준	-12.4486
▁팔려	-12.4486
몃	-12.4489
앴	-12.4489
쭤	-12.4489
▁개고	-12.4491
▁집합	-12.4491
ED	-12.4494
쫓	-12.4497
다시	-12.4498
▁회관	-12.4499
q	-12.4506
▁불태	-12.4507
▁에스	-12.4511
▁정인	-12.452
▁쫄	-12.4529
데요	-12.4534
경수	-12.4536
▁대성	-12.4539
▁기껏	-12.4545
▁수작	-12.4547
90	-12.4547
▁득표	-12.4552
▁블루	-12.4552
▁코너	-12.4555
▁송두리	-12.4558
▁명명백백	-12.4562
▁부가가치	-12.4563
▁헛되	-12.4565
▁다문화가정	-12.4566
▁여겨집니다	-12.4566
▁젠장	-12.457
▁요한	-12.4571
▁분해	-12.4571
▁오산	-12.4577
▁피드	-12.458
▁부턴	-12.4583
▁어설	-12.4584
▁냉장	-12.4585
▁극악	-12.4586
▁영덕	-12.4586
032	-12.459
셈	-12.4609
▁통탄	-12.4619
▁도달	-12.4626
▁자초	-12.4627
▁문명	-12.464
ed	-12.466
▁61	-12.4661
트코	-12.4663
▁72	-12.4664
사용	-12.4678
면서요	-12.4689
han	-12.4692
책임	-12.4704
▁대원	-12.4705
바랍니다	-12.4715
쉬운	-12.4715
▁피시	-12.4716
15	-12.4722
▁집어	-12.4723
▁계집	-12.4726
염소	-12.4727
판결	-12.4728
정권	-12.4736
캐피	-12.4736
054	-12.474
▁김진	-12.4742
부름	-12.4745
▁끼친	-12.4751
▁아르	-12.4751
▁자부	-12.4753
▁질러	-12.4763
니아	-12.4771
▁이뤄졌	-12.4775
▁후생	-12.4778
▁즈음	-12.4783
▁노르	-12.4786
▁뽀	-12.479
숲	-12.4795
인트	-12.4802
▁지닌	-12.4808
좀	-12.4815
전용차	-12.4818
봤	-12.482
▁73	-12.4829
▁꺽	-12.4833
세상	-12.484
▁바친	-12.4846
랭	-12.4857
▁경사	-12.4858
▁남아	-12.4859
사랑	-12.4866
조직	-12.4867
딘	-12.4867
동력	-12.4871
▁집진	-12.4877
ail	-12.4886
▁뿜	-12.4893
들이	-12.4894
쎄	-12.49
하고	-12.4903
亡	-12.4905
富	-12.4905
川	-12.4905
겄	-12.4905
믄	-12.4905
뵙	-12.4905
셉	-12.4905
팁	-12.4905
팸	-12.4905
디딤	-12.4905
▁잉	-12.4908
▁저승	-12.491
고속도	-12.4917
▁in	-12.4925
ash	-12.4926
▁뛰어들	-12.4938
▁물음	-12.4945
▁덧붙	-12.4947
몸통	-12.4953
▁계셔	-12.496
조무	-12.4963
▁칭얼	-12.4964
▁움켜	-12.4965
▁워너	-12.4965
▁프린	-12.4967
국방	-12.4969
▁모셔	-12.4971
▁늘어난다	-12.4971
▁척곡	-12.4972
진선	-12.4974
▁어려웠	-12.4974
▁뒤통수	-12.4974
▁과징금	-12.4977
▁몸부림	-12.4978
▁꺼림	-12.498
▁조센	-12.4982
▁터집니다	-12.4983
▁흥분	-12.4986
▁당뇨	-12.4987
▁공론화	-12.4988
14	-12.4992
▁현시	-12.4994
넓	-12.4994
▁복부	-12.4994
▁들어간다	-12.5003
▁근린	-12.5004
▁했어야	-12.5004
▁급식비	-12.5004
▁순천	-12.5004
내용	-12.5006
▁원성	-12.5007
▁일조	-12.5012
감사	-12.5015
자신	-12.5017
▁지팡	-12.5022
▁웰	-12.5024
▁제국주의	-12.5025
▁채울	-12.5029
▁줄여라	-12.5031
▁배설	-12.5036
▁가시	-12.5038
버렸	-12.5044
▁타일	-12.5044
▁놀러	-12.5044
▁오르내	-12.5045
▁빨라	-12.5054
세운	-12.5056
▁신원	-12.5062
▁성심	-12.5064
▁출구	-12.5064
고요	-12.5069
▁깁	-12.5072
어요	-12.5074
▁관습	-12.5076
▁부랴	-12.5083
다는데	-12.5086
멋	-12.5089
▁음해	-12.5093
▁싫어	-12.5101
▁연인	-12.5103
▁썬	-12.5103
▁씹	-12.5103
▁108	-12.5108
▁무기력	-12.5108
복동	-12.511
▁화천	-12.5115
▁196	-12.5118
▁호계	-12.5123
정도	-12.5123
▁힌	-12.5126
▁자랄	-12.513
▁거둬	-12.5134
꾸미	-12.5135
▁뭔데	-12.5142
▁쏙	-12.5143
▁아산	-12.515
▁친권	-12.5152
▁240	-12.5154
▁청천	-12.5156
▁쌓인	-12.5157
▁허물	-12.5159
▁최상	-12.5162
▁NAV	-12.5169
훈련	-12.5171
▁설렁	-12.5172
▁줄어든	-12.5181
정기	-12.5184
▁특기	-12.5187
▁공신	-12.5195
ng	-12.52
▁태안	-12.5207
▁해선	-12.5212
▁구내	-12.522
써	-12.5223
▁종신	-12.5227
▁친부	-12.5228
꼽	-12.5231
▁재량	-12.524
▁두려	-12.5244
▁열기	-12.525
▁애라	-12.5251
▁조원	-12.5254
낯	-12.5267
▁우유	-12.5272
▁이라던	-12.5275
▁노점	-12.5275
스프레	-12.5277
age	-12.5278
▁조석	-12.5279
▁매점	-12.528
▁종중	-12.5281
▁new	-12.5288
▁이라	-12.5292
▁i	-12.5299
틴	-12.5307
▁청계	-12.5311
▁크로	-12.532
▁휩싸	-12.5325
▁등록제	-12.5328
▁풍지	-12.5328
▁658	-12.533
▁알아본	-12.533
▁피로	-12.5331
▁휴지	-12.5331
▁디지	-12.5331
려갔	-12.5332
얄	-12.5337
▁강연	-12.5337
뻑	-12.534
쁠	-12.534
셜	-12.534
쌔	-12.534
쎈	-12.534
▁필로	-12.5341
▁배수	-12.5342
▁어지러	-12.5356
마크	-12.5365
▁교보	-12.537
▁만져	-12.5371
688	-12.5372
잇	-12.5375
▁뺄	-12.538
저축	-12.5385
썩	-12.5386
사리	-12.5389
▁파헤	-12.5389
▁떠오	-12.5397
▁깜깜	-12.5398
▁깜빡	-12.5398
▁스캔	-12.5398
▁찌푸	-12.5398
▁허벅	-12.5399
▁특장	-12.5407
▁패키지	-12.5407
▁부적격	-12.5412
▁타지	-12.5412
▁이탈리아	-12.5413
▁커졌	-12.5414
장소	-12.5414
▁배부	-12.5423
▁패러	-12.5428
▁NA	-12.5428
▁대박	-12.5428
▁어긋난다	-12.5429
▁작곡	-12.5429
▁망가뜨	-12.5429
▁결석	-12.543
▁뮤	-12.5432
▁학술	-12.5432
▁열렸	-12.5432
05	-12.5435
▁망가진	-12.5436
▁성질	-12.5443
▁모은다	-12.5445
▁잔액	-12.5447
▁농담	-12.5448
전입	-12.5448
▁아주머	-12.5448
▁잖습니까	-12.5456
전하	-12.5462
▁이론	-12.547
▁비유	-12.5473
인물	-12.5481
▁비켜	-12.5482
보상	-12.5496
▁드나	-12.5498
350	-12.55
지국	-12.5502
▁심상	-12.5503
바지	-12.5508
▁동남	-12.551
▁반항	-12.5512
▁주저	-12.5523
▁지점장	-12.5528
▁숙박업	-12.5529
▁총무	-12.5535
577	-12.5543
▁쌩	-12.5544
▁대피	-12.5545
▁2021	-12.5551
▁경작	-12.5556
▁요망	-12.556
▁이뤄져	-12.5566
분명	-12.5569
jt	-12.5573
▁돌이	-12.5574
조치	-12.5587
▁사시	-12.5588
▁비춰	-12.5588
ly	-12.5591
동산	-12.5593
▁트레이	-12.5594
▁갈려고	-12.5601
▁68	-12.5603
▁mbc	-12.5607
재산	-12.5608
▁주재	-12.5619
▁말려	-12.5621
모르	-12.5624
팡	-12.5631
국회의원	-12.5639
▁천하	-12.5639
▁행여	-12.5647
▁소아	-12.5652
▁날아	-12.5653
▁명학	-12.5655
03	-12.5661
▁감호	-12.5665
스탄	-12.5671
▁돌아간다	-12.5692
▁GM	-12.5693
위치	-12.5695
▁치워	-12.5699
영화	-12.5707
▁뒷자	-12.5711
될	-12.5713
공기	-12.5721
깊	-12.5728
▁면세	-12.5733
담보	-12.574
넌	-12.5744
▁쫓	-12.5752
▁당구	-12.5754
마다	-12.5765
▁들어온다	-12.5765
▁환전	-12.5781
▁사내	-12.5781
▁쫒아	-12.5788
daily	-12.5789
꼈	-12.5794
故	-12.5795
Fl	-12.5795
▁단일	-12.5806
▁OOO	-12.5808
기수	-12.5812
끓	-12.5813
항고	-12.5815
▁몆	-12.5831
▁꼰	-12.5833
▁어겼	-12.5841
▁전송	-12.5842
▁떵떵	-12.5852
▁어땠	-12.5853
조건	-12.5855
▁냉철	-12.5856
내리	-12.5857
▁송환	-12.5861
▁댑니다	-12.5862
▁망가져	-12.5865
810	-12.5866
▁팟캐스트	-12.5867
▁슬픕니다	-12.5867
▁옮길	-12.5867
▁후임	-12.5876
▁오라	-12.5877
▁외쳤	-12.588
▁피워	-12.5883
▁만주	-12.5883
▁치뤄	-12.5884
▁광양	-12.5885
▁미필	-12.5887
▁빨래	-12.5889
▁의결	-12.5891
▁계곡	-12.5892
사정	-12.5892
깨	-12.5895
▁마이크	-12.5896
▁이순	-12.5896
▁감자	-12.5899
▁계엄	-12.59
▁찔러	-12.59
▁할당제	-12.59
▁비전	-12.5904
▁모인	-12.5909
▁거니	-12.591
▁우상	-12.5917
▁형상	-12.5918
▁세밀	-12.5921
낱	-12.5926
▁살려라	-12.5928
▁수평	-12.5928
▁니라	-12.5937
▁황산	-12.5938
▁알아봐	-12.5943
▁걸레	-12.595
▁동지	-12.5952
▁황희	-12.5952
▁키운	-12.596
▁이륜	-12.5961
마음	-12.5969
크리	-12.5971
rc	-12.5971
상승	-12.5973
13	-12.5974
박질	-12.5975
▁현대차	-12.5983
▁결성	-12.5987
자살	-12.5988
지털	-12.599
▁기울어	-12.5993
▁벗겨	-12.5995
▁송구	-12.5997
▁71	-12.6002
▁허성	-12.6006
▁내야	-12.601
▁석사	-12.6011
▁허수	-12.6013
▁호재	-12.6014
▁인내	-12.6024
리트	-12.6029
판문	-12.6033
▁결손	-12.6034
▁사치	-12.6036
▁앞선	-12.6037
▁천차	-12.6039
▁기생	-12.6045
▁억류	-12.6051
바다	-12.6066
▁국책	-12.6071
▁살아간다	-12.6074
낮	-12.6077
▁330	-12.6084
▁고칠	-12.6088
▁목상	-12.6097
▁넘길	-12.6098
보궐	-12.6104
▁고백	-12.6113
▁그늘	-12.6113
세종	-12.6115
▁한데요	-12.6116
더군요	-12.6117
또한	-12.6122
▁줄지	-12.6125
▁아닐지	-12.6128
▁지방세	-12.6133
보이	-12.6143
et	-12.6146
▁후안	-12.6152
▁교직	-12.6152
가내	-12.6155
곧	-12.6156
▁신나	-12.6156
▁조립	-12.6158
처벌	-12.6159
관계	-12.616
루미	-12.6164
에너지	-12.6178
피해	-12.618
▁쫒	-12.6186
▁105	-12.6189
▁암시	-12.6192
▁따른다	-12.6197
▁강해	-12.6201
▁WH	-12.6202
미세먼지	-12.6206
▁자니	-12.6213
▁be	-12.6218
▁랏	-12.6219
잔치	-12.6221
사본	-12.6226
▁혁	-12.6228
▁난이	-12.6228
화물	-12.6234
해선	-12.6237
▁절제	-12.6238
▁518	-12.6242
▁경제학	-12.6245
듣	-12.6247
16	-12.6249
▁남긴	-12.6252
▁복도	-12.6253
SU	-12.6254
▁Z	-12.6259
수선	-12.626
번호	-12.6263
▁아서요	-12.6265
▁일간	-12.6267
▁이어진다	-12.6275
▁103	-12.6277
재해	-12.6279
▁차수	-12.629
▁굉	-12.6297
▁맴	-12.6309
▁쉐	-12.6309
▁모았	-12.6311
▁로워	-12.6313
▁심할	-12.6313
▁175	-12.6325
확	-12.6326
▁궤변	-12.6328
▁버팀	-12.6331
▁광개토	-12.6337
▁난장판	-12.6338
▁삽시다	-12.6338
▁스트립	-12.634
▁똘	-12.6341
▁크리에이	-12.6342
▁막힙니다	-12.6343
▁시뮬레이	-12.6343
▁떄문에	-12.6344
▁밀어내	-12.6344
▁피아	-12.6346
▁헌병	-12.6347
▁익산	-12.6347
▁87	-12.6348
▁본고	-12.6351
▁넘어져	-12.6352
엎	-12.6353
▁굿	-12.6354
▁엣	-12.6354
▁260	-12.6354
▁저쩌	-12.6354
▁만든다	-12.6357
▁할증	-12.6358
▁부지런	-12.6358
십시요	-12.6358
▁총알	-12.6361
▁고착	-12.6363
▁대주	-12.6363
고문	-12.6365
▁귀담	-12.6367
관련	-12.6368
▁다가올	-12.637
▁졸음	-12.6371
▁ED	-12.6371
ive	-12.6372
▁호프	-12.6373
▁재료비	-12.6373
▁올라간다	-12.6374
▁관측	-12.6381
▁자중	-12.6381
▁변환	-12.6382
▁마셨	-12.6383
▁스튜어	-12.6386
▁재건	-12.6388
▁메리	-12.639
▁김학	-12.6393
떠	-12.6395
▁갈까	-12.64
▁박병	-12.6404
▁자막	-12.6405
▁울진	-12.6412
▁암행	-12.6412
▁도려	-12.6415
▁몰라요	-12.6416
▁주세요	-12.6417
타미	-12.6417
▁게재	-12.6421
▁일거	-12.6424
▁480	-12.6428
iet	-12.6428
▁튜	-12.643
▁솟	-12.6431
▁쿨	-12.6437
▁389	-12.6437
▁돌아갔	-12.6438
▁지으	-12.6442
▁장수	-12.6443
tx	-12.6446
▁KR	-12.6454
빚	-12.6456
▁무직	-12.6463
▁맡긴	-12.6468
하면	-12.6476
▁흘	-12.6476
▁돌아봐	-12.6488
▁자취	-12.649
▁배트	-12.6495
▁안철수	-12.6496
▁결의	-12.6503
▁떠맡	-12.6509
▁김병	-12.6516
▁올라간	-12.6522
▁비로	-12.6527
누리	-12.6528
l	-12.6528
▁번개	-12.6529
▁열사	-12.6532
▁꼐	-12.6535
▁우정	-12.654
▁랩	-12.6544
▁밀양	-12.6545
빼	-12.6547
▁뱅	-12.6556
▁덴	-12.6557
모로	-12.6561
무가	-12.6564
▁156	-12.6566
▁끝장	-12.6567
▁구도	-12.6568
▁고분	-12.6573
4500	-12.6576
▁초과근	-12.6584
▁최적	-12.6599
ut	-12.6604
▁세분	-12.6604
▁가져와	-12.6604
▁프로세	-12.6605
갓	-12.6608
▁우물	-12.6609
치료	-12.661
▁터진다	-12.6611
그런데	-12.6611
경정	-12.6611
▁진통	-12.6613
▁암기	-12.662
▁우후	-12.6629
올리	-12.663
▁log	-12.6635
흐	-12.6635
성동	-12.6642
▁커버	-12.6644
▁담화	-12.6645
▁호남	-12.6651
▁판도	-12.6652
수무	-12.6667
▁월북	-12.6669
▁협동	-12.6669
▁출세	-12.667
▁탱	-12.6671
▁원심	-12.6679
뇌부	-12.668
▁마십	-12.668
아무	-12.668
▁템	-12.6684
b	-12.6685
▁물고	-12.6689
▁매니	-12.6693
▁이라든	-12.6699
쌀	-12.6711
부족	-12.6712
▁스피	-12.6713
▁주정	-12.6734
▁제사	-12.6735
▁용의	-12.6738
24	-12.675
▁쉬워	-12.6751
ns	-12.6764
▁놓인	-12.6768
걔	-12.6771
숍	-12.6771
금지	-12.679
▁백지	-12.6795
융합	-12.6798
▁꿰	-12.6808
▁멱	-12.6808
▁캣	-12.6808
▁걷어	-12.6808
이야기	-12.681
▁세심	-12.6815
▁마산	-12.6819
▁탄도	-12.682
▁상계	-12.6823
▁공명	-12.6826
▁장제	-12.6827
▁뒤덮	-12.6828
▁촉매	-12.6829
▁어긋난	-12.6829
자재	-12.6829
▁탐색	-12.6831
숭	-12.6831
▁뇌졸	-12.6832
▁빠짐	-12.6832
티나	-12.6833
▁저널	-12.6835
▁악착같	-12.6836
▁동두천	-12.6836
▁엉덩이	-12.6837
모두	-12.684
▁두려운	-12.6842
▁키웠	-12.6842
▁가르칠	-12.6843
▁부딪혀	-12.6843
▁빠트	-12.6843
비스	-12.6846
▁쇼트	-12.6846
▁내편	-12.6849
사무	-12.6849
▁옥죄	-12.6852
ass	-12.6855
▁매춘	-12.6857
▁명동	-12.6863
▁심해질	-12.6863
올까요	-12.6867
붓	-12.6869
▁바닷가	-12.6873
지자	-12.6874
수원	-12.6877
▁고립	-12.6877
▁손보	-12.6877
▁김민	-12.6884
▁밍	-12.6885
▁재조	-12.6886
▁넘어간	-12.6886
▁생겨난	-12.6886
▁활기	-12.6889
▁튀어나	-12.6891
어리	-12.6891
북한	-12.6891
▁강매	-12.6893
▁동성애자	-12.6894
▁핍	-12.6894
▁착실	-12.6897
▁XXX	-12.6901
▁이뤄진	-12.6903
▁겹쳐	-12.6903
▁깃	-12.6904
▁제어	-12.6904
▁554	-12.6904
트랙	-12.6908
▁불사	-12.6911
▁유례	-12.6916
수입	-12.6917
▁타들	-12.6922
▁선후	-12.6922
빨	-12.6926
▁썻	-12.6928
▁틀려	-12.693
▁law	-12.6936
▁인즉	-12.694
▁마크	-12.6946
▁mm	-12.6947
▁이루어진다	-12.6948
▁왔으나	-12.6951
▁나아진	-12.6953
h	-12.6954
UNDA	-12.6955
▁투신	-12.696
▁소독	-12.6971
▁지나갈	-12.6971
랗	-12.6974
▁아까워서	-12.6976
▁돌렸	-12.6983
▁890	-12.6984
▁읍시다	-12.6985
▁돼요	-12.6988
▁번역	-12.699
▁NH	-12.6992
좁	-12.7001
용주	-12.7003
▁오프라	-12.701
▁행방	-12.7011
▁고영	-12.7012
서술	-12.7012
▁유망	-12.7015
헨	-12.7017
▁내걸	-12.7025
해요	-12.7027
대응	-12.7027
▁클러	-12.703
▁김제	-12.703
▁푸드	-12.7031
▁이경	-12.7033
릅니다	-12.7033
배우	-12.7034
이터	-12.7035
무자	-12.7035
▁걸쳐서	-12.7038
▁반듯	-12.7043
급여	-12.7043
니스	-12.7044
제발	-12.7045
▁변재	-12.7048
▁인플레	-12.7052
어집니다	-12.7053
▁외할	-12.7058
HY	-12.706
▁보입니까	-12.7068
VER	-12.7068
▁즐긴	-12.707
▁길이	-12.7073
아치	-12.7078
▁시사	-12.7082
▁숨죽	-12.7083
▁접한	-12.7085
▁제로	-12.7086
▁상고	-12.7086
드려요	-12.7088
▁부른	-12.7089
방법	-12.7089
상태	-12.709
▁짬	-12.709
200	-12.7092
토피	-12.7093
▁밝혀져	-12.7094
▁오보	-12.7099
▁art	-12.7113
996	-12.7113
▁흐른	-12.7114
도시	-12.7118
▁과격	-12.7119
▁바리	-12.712
▁해운	-12.7132
re	-12.7132
▁염치	-12.7133
▁물으	-12.7137
1970	-12.7138
▁대륙	-12.715
▁렉	-12.7158
▁해설	-12.7164
그런	-12.7165
▁TO	-12.7166
학년	-12.7169
덩어리	-12.7175
▁미니	-12.7176
▁동질	-12.7184
호소	-12.7184
▁111	-12.7186
▁mt	-12.7188
▁죄수	-12.7191
어치	-12.7199
▁소송비	-12.7201
500	-12.7204
▁원서	-12.7204
▁격렬	-12.7216
▁끌어	-12.722
▁유상	-12.7221
▁단연	-12.7224
▁그런가	-12.7224
▁양수	-12.7231
상금	-12.7232
래야	-12.7234
▁박혀	-12.7235
벗	-12.7242
nk	-12.7245
배치	-12.7249
▁외지	-12.7249
▁어서요	-12.7251
맡	-12.7252
27	-12.7255
간질	-12.7271
▁들으면서	-12.7271
정보	-12.7272
▁저려	-12.7274
릉	-12.7286
라니	-12.7291
둡	-12.7297
덫	-12.7297
륨	-12.7297
맣	-12.7297
맵	-12.7297
퀵	-12.7297
따라	-12.7297
TTE	-12.7298
AM	-12.7298
케이	-12.7299
▁수산	-12.7301
모습	-12.7311
▁열려	-12.7315
▁벌려	-12.7315
060	-12.732
▁더러워	-12.7321
▁꽂	-12.7334
피아	-12.7336
▁갈리	-12.734
▁일진	-12.7347
▁1626	-12.7349
▁웨이	-12.735
▁엊그	-12.7354
▁얹혀	-12.7357
투자	-12.7358
▁굴욕	-12.7358
▁편할	-12.7358
▁깊숙	-12.7359
을까	-12.7359
▁코미디	-12.7361
▁컨트롤	-12.7361
▁무서웠	-12.7362
▁염색	-12.7362
▁페인트	-12.7363
▁거리낌	-12.7363
▁핵융합	-12.7363
▁끼어들	-12.7365
▁수영	-12.7366
▁data	-12.7367
▁끼칩니다	-12.7367
▁시끄러운	-12.7368
동원	-12.737
▁마쳤	-12.7371
▁380	-12.7375
▁베이비	-12.7378
▁yonhapnews	-12.7379
▁장학	-12.738
▁CPR	-12.7381
mw	-12.7382
▁특허청	-12.7383
▁산제	-12.7384
▁승강	-12.7392
▁뒤져	-12.7392
▁위정	-12.7393
▁에어	-12.7393
▁도왔	-12.7397
▁두루	-12.7398
▁감지	-12.74
▁섞인	-12.74
▁캔	-12.7401
▁상점	-12.7401
▁단원	-12.7413
▁공덕	-12.7414
다임	-12.7417
▁LO	-12.7417
▁싸워서	-12.7426
▁이듬	-12.7427
▁구금	-12.7429
▁리비	-12.743
▁봣	-12.7436
▁조윤	-12.7437
▁메신	-12.7437
스트라	-12.7439
▁510	-12.7441
▁날렸	-12.7448
▁높인다	-12.7453
▁자정	-12.7458
▁활주	-12.7458
▁초록	-12.7459
▁각인	-12.7469
▁릴레	-12.7475
고사	-12.7476
▁최강	-12.7481
▁무너질	-12.7482
▁찐	-12.7484
럴	-12.7486
이용	-12.7491
시키	-12.7492
▁세미	-12.7492
▁학부	-12.7499
▁너도	-12.7499
▁박상	-12.7499
ti	-12.7505
▁계세요	-12.7508
아래	-12.7512
이너	-12.7516
▁엽	-12.7521
선거구	-12.7528
민의	-12.7532
▁낙인찍	-12.7539
엠	-12.7545
리대	-12.7557
리드	-12.7559
부대	-12.756
▁마신	-12.7565
▁상표	-12.7567
일본	-12.7568
▁아울	-12.7571
의장	-12.7571
입금	-12.7576
▁온난	-12.7578
▁분대	-12.7579
▁애니	-12.7579
▁계량	-12.7588
이집	-12.7589
위험	-12.759
▁독립군	-12.7591
▁분수	-12.7591
▁비준	-12.7601
600	-12.7604
▁로드	-12.7605
명확	-12.7611
기준	-12.7612
997	-12.7614
▁버금	-12.7619
뭄	-12.7622
▁노트	-12.7623
라치	-12.7623
▁속속	-12.7624
▁구했	-12.7627
▁79	-12.7627
▁철물	-12.7633
팬	-12.7644
용증	-12.7646
전기	-12.7647
▁여수	-12.7655
▁다스	-12.7655
▁행진	-12.7657
▁무제	-12.7658
▁군포	-12.7659
규정	-12.7659
▁AD	-12.7663
▁중년	-12.7669
▁arti	-12.7677
▁바라봐	-12.7679
Q	-12.7682
▁도와야	-12.7688
▁래요	-12.769
▁고속철	-12.7691
▁cho	-12.7695
주행	-12.7704
▁수납	-12.7706
▁안성	-12.7709
▁PR	-12.7715
▁영안	-12.7727
창우	-12.7728
해주	-12.7728
놀이	-12.7735
▁두통	-12.7748
▁신병	-12.7762
▁구원	-12.7763
▁길러	-12.777
▁료	-12.7783
▁방진	-12.7791
부인	-12.7793
▁치고	-12.7795
어진	-12.7799
항공	-12.78
NE	-12.7801
▁ut	-12.7805
98	-12.781
연수	-12.7812
랫	-12.7817
▁헙	-12.782
▁메모	-12.7824
▁91	-12.7825
▁부린	-12.7829
▁나란	-12.7832
대간	-12.7833
문재인	-12.7838
빌	-12.7839
▁란다	-12.784
▁포지	-12.7842
▁잡지	-12.7843
▁졋	-12.7848
스코	-12.7848
1100	-12.785
▁해야함	-12.7851
▁파라	-12.7852
美	-12.7853
슘	-12.7853
찼	-12.7853
type	-12.7853
▁반포	-12.7856
▁to	-12.7859
▁군위	-12.7863
▁발명	-12.7864
어들	-12.7864
첨	-12.7866
▁들어선	-12.7869
▁깨어	-12.7876
▁202	-12.7885
▁곶	-12.7888
▁찻	-12.7888
▁은밀	-12.7891
▁시끄러워	-12.7898
▁뺑뺑	-12.7906
▁괘씸	-12.7906
▁얌전	-12.7907
▁oq	-12.7908
▁머릿	-12.7908
▁멘토	-12.7908
▁찔려	-12.7909
▁캠핑	-12.7909
▁객	-12.7911
▁펼칠	-12.7915
▁호르몬	-12.7916
▁삽니까	-12.7919
▁모잘라	-12.7919
▁빼앗긴	-12.7919
▁무너졌	-12.792
▁승승	-12.7921
▁Do	-12.7921
▁117	-12.7921
▁머물러	-12.7923
▁백혈	-12.7923
▁가라앉	-12.7923
▁버거운	-12.7927
아오	-12.7928
▁들어옵니다	-12.7931
▁mk	-12.7931
▁facebook	-12.7931
라이	-12.794
▁大	-12.794
▁345	-12.7941
가능	-12.7943
양수산	-12.7943
▁레이저	-12.7944
022	-12.7947
▁안다	-12.7947
▁2327	-12.795
대해	-12.7951
▁옥살	-12.7954
▁맛보	-12.7954
▁나빠져	-12.7955
▁받아들여야	-12.7957
팬티	-12.7958
▁빈민	-12.7959
▁샤	-12.7959
▁의정	-12.7959
▁시외	-12.796
▁갈림	-12.7964
▁괴롭혀	-12.7964
▁이뻐	-12.7964
▁가덕	-12.7965
▁줄인	-12.7965
▁덩	-12.7966
위한	-12.7967
인간	-12.7969
▁최우	-12.7973
▁이왕	-12.7977
▁대공	-12.7987
다녔	-12.7988
▁규격	-12.7992
▁철면	-12.7992
▁댜	-12.7994
▁자그마	-12.7994
▁쓰였	-12.8013
▁다큐	-12.8013
콩	-12.8015
▁김수	-12.8017
▁돌려줄	-12.8021
▁AC	-12.8026
▁도매	-12.8031
▁순국	-12.8039
▁든든	-12.8039
▁백악	-12.804
피해자	-12.8042
대교	-12.8045
▁298	-12.8045
▁뻘	-12.8046
V	-12.8047
▁퍽	-12.8047
▁몸살	-12.8051
▁끔	-12.8059
일자리	-12.8061
확인	-12.8062
▁자판	-12.8062
▁미룬	-12.8063
부업	-12.8066
▁l	-12.807
공자	-12.8077
▁단장	-12.808
▁가등기	-12.8085
▁정진	-12.8087
르노	-12.809
▁기뻐	-12.8094
▁보낸다	-12.8098
▁빤	-12.8101
시험	-12.8104
▁건다	-12.8106
▁KM	-12.811
▁kw	-12.8113
▁사대	-12.8116
ear	-12.8121
▁주유	-12.8123
▁내려진	-12.8128
▁내놔	-12.8129
곡동	-12.813
▁바바	-12.8134
▁주워	-12.8136
960	-12.8142
▁세모	-12.8147
두절	-12.8149
▁소매	-12.8154
▁임계	-12.8156
▁겠죠	-12.8163
▁혐이	-12.8174
환자	-12.8184
굼	-12.8195
▁울부	-12.8196
▁수송	-12.8198
▁부임	-12.8209
▁문학	-12.8215
여기	-12.8219
▁소방대	-12.8223
▁여드	-12.8227
▁맡겼	-12.8228
비싼	-12.8233
자유	-12.8243
모호	-12.8243
EO	-12.8244
▁수월	-12.8254
▁돌려준	-12.8254
▁기숙	-12.8266
▁더만	-12.8271
▁유난	-12.8273
▁대역	-12.8275
▁공관	-12.8276
▁찾아왔	-12.8293
안전	-12.8297
▁비프	-12.83
▁가래	-12.8301
특별시	-12.8304
▁203	-12.8304
▁무진	-12.8306
▁떠올	-12.832
▁김상	-12.8324
▁그립	-12.8331
ul	-12.8334
▁욱	-12.8339
▁쳐야	-12.8342
지않	-12.8348
▁처한다	-12.835
▁노라	-12.8355
site	-12.836
▁컬	-12.8366
스타	-12.8367
▁엄지	-12.837
매매	-12.837
▁재단법	-12.8378
이동	-12.8381
▁금정	-12.8382
▁조희	-12.8388
▁장모	-12.8391
▁고농	-12.8402
여행	-12.8403
계속	-12.8406
▁합성	-12.8416
평생	-12.8419
공정	-12.8421
어졌	-12.8422
▁여중	-12.8428
컥	-12.8433
▁변함	-12.8434
▁가져간	-12.8434
▁원한다	-12.8439
돠	-12.8441
듈	-12.8441
뵈	-12.8441
쭙	-12.8441
팎	-12.8441
▁야단	-12.8451
▁제민	-12.8455
실수	-12.8458
어져야	-12.846
▁광주시	-12.8461
▁마르	-12.8462
간접	-12.8462
▁서기	-12.8465
▁긁	-12.8466
버린	-12.8466
▁입상	-12.8469
명령	-12.8474
올랐	-12.8474
▁셰	-12.8476
심증	-12.8477
▁실외	-12.8485
▁끝났	-12.8486
▁헷갈	-12.849
▁브라	-12.849
▁못지	-12.8494
일체	-12.8499
▁글쎄	-12.8501
▁경복궁	-12.8503
▁싸늘	-12.8505
▁데일리	-12.8505
▁심부름	-12.8507
▁요식업	-12.8508
▁주먹구구	-12.8508
▁page	-12.8509
▁발가락	-12.8509
▁바쁩니다	-12.851
▁맙니다	-12.851
▁꼬집	-12.851
▁심해져	-12.8511
▁join	-12.8511
▁사대주의	-12.8512
▁됫습니다	-12.8513
▁사라집니다	-12.8513
▁당할까	-12.8516
▁투숙	-12.8517
영수	-12.8521
▁반짝	-12.8522
으려고	-12.8522
▁흥청	-12.8522
▁뮤지	-12.8525
▁막노동	-12.8526
▁끌어들	-12.8528
▁판독	-12.8529
▁친밀	-12.8529
▁렀습니다	-12.8532
▁헤드라	-12.8532
▁눌려	-12.8533
▁시끄러	-12.8534
▁도서	-12.8535
▁일어난다	-12.8535
조마	-12.8536
▁불참	-12.8538
▁암살	-12.854
메디	-12.8545
민주당	-12.8547
힘들	-12.8548
▁패권	-12.855
▁출혈	-12.8552
아리	-12.8564
출입	-12.8565
▁드러날	-12.8566
▁840	-12.8569
비리	-12.857
▁농수산	-12.8572
▁이뤄질	-12.8572
▁느려	-12.8576
사이	-12.8576
▁항변	-12.8577
▁파울	-12.8578
▁휴계	-12.8579
방부	-12.8583
정치	-12.8585
▁탐사	-12.8586
▁비트	-12.8586
빡	-12.8587
▁털어	-12.8588
▁각별	-12.859
gv	-12.8592
걸음	-12.8592
▁1988	-12.8593
▁든데	-12.8596
장기	-12.8602
▁화요일	-12.8603
IT	-12.8604
▁괴로	-12.8611
de	-12.8611
▁평상	-12.8612
▁시한	-12.8615
▁산란	-12.8628
▁무너진	-12.8629
줬	-12.8636
▁톨	-12.8643
▁여려	-12.865
▁SM	-12.8654
▁톡	-12.8661
▁멍하	-12.8662
ty	-12.8662
▁장갑	-12.8663
▁맞춘	-12.8666
▁나눈	-12.8666
▁신안	-12.8668
▁어쩌구	-12.8669
▁나팔	-12.8671
▁급성	-12.8672
제민	-12.8673
▁삼각	-12.8676
▁난도	-12.8681
순위	-12.8682
▁420	-12.8683
작년	-12.8683
▁닌	-12.8684
껍	-12.8695
▁감상	-12.8696
▁423	-12.8701
▁스물	-12.8701
▁킬	-12.8704
그렇	-12.8714
▁슬금	-12.8716
▁증오	-12.872
PU	-12.8721
▁편도	-12.8726
▁다가와	-12.8728
al	-12.8731
준다면	-12.8737
▁시킨다면	-12.8748
▁r	-12.8751
SR	-12.8758
방세	-12.8758
▁펄	-12.8758
▁경수	-12.8766
▁반공	-12.8767
영업	-12.877
식당	-12.877
▁172	-12.8771
▁파파	-12.8776
▁포스	-12.8776
전문	-12.8779
▁최교	-12.8784
대문	-12.8785
문학	-12.8789
▁조급	-12.879
▁과기	-12.8798
너지	-12.8803
▁갑상선	-12.8806
망신	-12.881
염치	-12.881
▁뚝	-12.8813
뚜	-12.8814
베이	-12.8815
▁비아	-12.8816
▁잎	-12.8816
▁me	-12.8824
답변	-12.8831
끌	-12.8832
▁197	-12.8836
▁여신	-12.8841
▁짜장	-12.8844
▁배급	-12.8844
▁벌어져	-12.8846
▁새우	-12.8848
뷔	-12.8853
▁안방	-12.8864
대구	-12.8866
▁출원	-12.8869
▁CT	-12.8872
▁시름	-12.8876
▁본데	-12.8877
▁놓쳐	-12.888
재주	-12.8883
진다	-12.8885
gy	-12.8892
▁일석	-12.8895
▁주둥	-12.891
▁간질	-12.8911
땐	-12.8914
▁택했	-12.8919
▁교무	-12.8925
▁조마	-12.893
▁때릴	-12.8938
▁조형	-12.8946
아파트	-12.895
조심	-12.8956
▁영도	-12.8958
낄	-12.8959
체인	-12.8965
▁창호	-12.8971
▁적재	-12.8971
멍	-12.8974
▁법주	-12.8983
효과	-12.8987
▁고금	-12.9007
▁시아버	-12.9009
▁공청	-12.9011
▁한남	-12.9015
▁대위	-12.9017
ry	-12.9019
▁극장	-12.9021
원수	-12.9024
수술	-12.9032
추진	-12.9033
제로	-12.9034
▁단결	-12.9035
▁아미	-12.9038
▁KA	-12.904
▁무심	-12.9042
▁슈	-12.9048
테일	-12.9048
증권	-12.9051
▁실까	-12.9057
야죠	-12.9059
▁뻗	-12.906
틸	-12.9065
썽	-12.9066
中	-12.9066
겻	-12.9066
귤	-12.9066
밌	-12.9066
볕	-12.9066
쟤	-12.9066
텼	-12.9066
터미널	-12.9066
▁된다면서	-12.907
▁정선	-12.907
▁마른	-12.9072
소장	-12.9073
단계	-12.9073
bm	-12.9077
얼마	-12.9078
▁심재	-12.9087
▁비디	-12.9092
▁총학	-12.9097
AO	-12.9103
▁살포	-12.9104
is	-12.9109
▁려나	-12.911
다닐	-12.9117
▁스탠	-12.9118
▁얼룩	-12.9118
▁흘렸	-12.9119
▁흡혈	-12.9119
▁기무	-12.9119
▁옮긴다	-12.912
▁칼럼	-12.912
▁파헤쳐	-12.9123
입니까	-12.9123
▁흘린	-12.9124
▁알뜰	-12.9126
▁이삿짐	-12.9127
▁스프링	-12.9127
▁얼버무	-12.9127
▁두들겨	-12.9127
▁뿔	-12.9129
▁냉방	-12.9129
▁랍니까	-12.9129
▁kpop	-12.9132
▁패션	-12.9132
▁정병기	-12.9133
▁괴로운	-12.9133
▁연평균	-12.9134
▁엄밀	-12.9135
▁KOREA	-12.9136
emb	-12.9138
▁시달렸	-12.9139
▁마칩니다	-12.9139
▁나아졌	-12.9139
▁한국전력	-12.914
▁돌아갑니다	-12.914
▁어벙	-12.9141
▁셔틀	-12.9141
▁페업	-12.9143
상실	-12.9145
▁골드	-12.9146
▁속상합니다	-12.9149
▁파이프	-12.9149
▁단골	-12.9153
▁고마운	-12.9153
▁코디	-12.9154
▁이주	-12.9158
▁허송	-12.9159
▁한양대	-12.916
윈	-12.9162
▁빼돌려	-12.9162
▁뜬금없	-12.9164
▁무성	-12.9173
99	-12.9176
이제	-12.9178
▁흉내	-12.9181
월드	-12.9184
스리	-12.9185
▁테라	-12.9191
▁섞여	-12.9193
장사	-12.9193
▁찾아온	-12.9196
▁어떨지	-12.9196
▁금요	-12.9199
아갈	-12.9205
▁오세	-12.9206
▁이직	-12.9211
결제	-12.9213
꽃	-12.9217
▁샷	-12.9218
▁서빙	-12.9219
▁늠	-12.922
▁마피	-12.9226
▁새겨	-12.9235
▁4800	-12.9236
▁건널	-12.9237
▁텍스	-12.9238
▁지명	-12.9239
▁바꿔라	-12.9243
어짜	-12.9243
▁세간	-12.9245
▁입혀	-12.9245
▁꿉	-12.925
▁초코	-12.9252
▁적잖	-12.9255
공개	-12.9264
▁122	-12.9265
▁청부	-12.9278
▁써라	-12.928
▁호위	-12.9291
감정	-12.93
▁치우쳐	-12.9309
▁번지르	-12.931
▁나간다면	-12.9316
▁반격	-12.9316
▁체인	-12.9317
강도	-12.932
▁정찰	-12.9323
▁방호	-12.933
아도	-12.9332
▁원한	-12.9333
타임	-12.9337
▁눌	-12.9339
대출	-12.9342
벅	-12.9351
▁KF	-12.9352
ind	-12.9356
건물	-12.9362
▁냅시다	-12.9371
일반	-12.9372
▁너거	-12.9374
▁오바	-12.9375
▁꾸역	-12.9376
▁다칠	-12.9377
▁놓칠	-12.9389
바리	-12.9395
co	-12.9397
▁선천	-12.9401
▁동업	-12.9401
신고	-12.9414
▁얻어	-12.942
▁ES	-12.9421
자치	-12.9424
▁박지	-12.9428
증기	-12.9428
▁달라져	-12.9429
▁노유	-12.9434
▁미신	-12.9434
펌	-12.9447
▁부른다	-12.9455
통행	-12.9455
동자	-12.9458
▁해안	-12.9459
▁부정수	-12.9464
고발	-12.9465
횡	-12.9473
▁고시원	-12.9476
위반	-12.9476
일조	-12.948
요번	-12.9481
BI	-12.9482
▁맞출	-12.9482
구조	-12.9486
찔	-12.9493
▁혜화	-12.9493
▁다이어	-12.9501
▁출자	-12.9501
사기	-12.9506
톨	-12.9507
▁이완	-12.9509
나갔	-12.9516
▁나리	-12.9518
▁성행	-12.9524
▁기저	-12.9528
신교	-12.9532
view	-12.9533
▁신당	-12.9534
넬	-12.9552
출석	-12.9557
더라	-12.9578
정리	-12.9585
▁은근	-12.9597
▁저래	-12.9605
▁망한다	-12.961
꾸역	-12.9611
▁114	-12.9612
r	-12.9615
발생	-12.9617
혁명	-12.9627
막힌	-12.9632
▁대문	-12.9634
IA	-12.9637
▁시집	-12.9639
▁춘	-12.9655
▁예선	-12.9669
▁발신	-12.9673
동영	-12.9676
거름	-12.9677
▁석고	-12.9677
▁샌	-12.9678
운영	-12.9686
▁강소	-12.9687
BE	-12.9693
▁내린다	-12.9695
선언	-12.9702
▁무너진다	-12.9706
청와	-12.9711
급제	-12.9715
▁보석	-12.9718
구니	-12.9719
▁놨다	-12.9723
랙	-12.9726
hap	-12.9727
▁스키	-12.9729
▁전범	-12.9729
인권위	-12.9732
뤘	-12.9733
텋	-12.9733
▁조여	-12.9733
▁양구	-12.9733
dm	-12.9736
▁620	-12.9736
▁다구	-12.9737
된다	-12.9737
▁고압	-12.9738
▁후려	-12.974
나이	-12.9745
▁반기	-12.9749
▁서러	-12.9752
▁축물	-12.9754
▁안동	-12.9756
▁그려	-12.9758
▁당리	-12.9761
정원	-12.9763
▁前	-12.9765
▁윌	-12.9765
▁읊	-12.9765
▁쨰	-12.9765
▁쬐	-12.9765
▁잿	-12.9765
포트	-12.9766
▁마일	-12.9768
▁중학	-12.9768
도리	-12.9773
756	-12.9774
▁김장	-12.9777
▁키운다	-12.9778
▁소금	-12.9781
▁잡힌	-12.9781
▁쑤셔	-12.9783
▁웅웅	-12.9783
▁괴뢰	-12.9783
▁아홉	-12.9784
▁꼬셔	-12.9784
▁짠	-12.9786
▁틈새	-12.9786
▁콧물	-12.9786
▁승낙	-12.9787
▁징징	-12.9787
▁허브	-12.9792
▁수쿠	-12.9793
▁사우디	-12.9794
▁웅진	-12.9795
▁둘러싸	-12.9796
▁시시때때	-12.9797
▁bill	-12.9798
▁그럽니다	-12.9798
▁드릴게요	-12.9798
▁주체사상	-12.9798
▁수비	-12.9798
▁까다로운	-12.9798
▁겸손	-12.98
▁그만둘	-12.98
▁최하위	-12.9801
▁곽정	-12.9801
레스	-12.9803
▁할게요	-12.9807
생계	-12.9808
▁시킵시다	-12.981
▁페트	-12.9815
▁손괴	-12.9816
▁방사선	-12.9816
▁올레	-12.9822
▁괘	-12.9825
▁공모전	-12.9826
▁86	-12.9828
고소	-12.983
▁찝	-12.9832
▁풀릴	-12.9833
▁오케	-12.9835
▁HT	-12.9838
▁벼룩	-12.9849
▁놀려	-12.9851
▁포커	-12.9852
▁안쓰	-12.9853
들여	-12.9856
▁세워진	-12.9859
그래서	-12.9861
따박	-12.9861
▁피보험	-12.9867
▁높여야	-12.9867
순간	-12.9868
ef	-12.9869
▁튼	-12.987
▁다더니	-12.9872
▁소보	-12.9873
▁힘겨	-12.9876
▁지주	-12.9879
산부	-12.988
▁기다린	-12.9881
▁진찰	-12.9883
▁뛸	-12.9892
댓	-12.9896
▁명명	-12.9896
▁전도	-12.9903
간다	-12.9903
▁어울려	-12.9909
군요	-12.9912
▁찾아간	-12.9913
▁선입	-12.9916
▁사회봉	-12.9918
▁떵	-12.9925
▁미취	-12.9926
▁치켜	-12.9928
▁감사과	-12.9929
087	-12.993
▁한다던지	-12.9931
an	-12.9933
대요	-12.9936
아들	-12.9941
다르	-12.9948
▁아랍	-12.9948
파리	-12.9949
▁닉	-12.995
▁변함없	-12.9953
▁잠복	-12.9956
▁신림	-12.996
▁활약	-12.9965
▁젓	-12.9969
948	-12.9971
▁나선다	-12.998
시공	-12.9983
▁곱해	-12.9984
▁핏	-12.9998
▁답니까	-12.9999
▁아스	-13.0002
▁부러져	-13.0003
▁드셨	-13.0005
▁잔디	-13.0011
▁im	-13.0015
▁대검	-13.0017
▁여간	-13.0019
리즈	-13.0041
▁매겨	-13.0042
46	-13.0047
▁차렸	-13.0048
▁201	-13.0056
▁민족정	-13.0058
▁교재	-13.0058
▁꺼져	-13.0063
폴	-13.0068
▁지나간	-13.007
급식	-13.0076
선거	-13.0083
▁이슬	-13.0094
▁보균	-13.0095
28	-13.0097
하급	-13.0104
▁상간	-13.0105
미사	-13.0107
▁그만둬	-13.0108
▁han	-13.0111
제대로	-13.0118
지나	-13.012
전화	-13.0122
▁도망간	-13.0122
▁싸운다	-13.013
가동	-13.0133
79	-13.0137
심지	-13.0143
목동	-13.0147
▁방수	-13.0153
게이트	-13.0154
▁컷	-13.0156
▁반란	-13.0158
▁210	-13.016
▁할망	-13.0168
고속	-13.0174
▁치여	-13.0175
▁뿌린	-13.018
러운데	-13.0181
▁342	-13.0183
218	-13.0191
▁으냐	-13.0196
70	-13.0203
대상	-13.0203
▁신길	-13.0212
▁챙긴다	-13.0213
푸스	-13.0213
▁거린다	-13.0213
▁송정	-13.0215
최저	-13.0221
해안	-13.0222
속임	-13.0225
▁모였	-13.0226
어뻥	-13.0227
으시	-13.0228
▁벤치	-13.0231
흰	-13.0235
800	-13.025
슬금	-13.0256
▁수목	-13.0256
깃	-13.0258
▁이쪽	-13.0263
036	-13.0264
핍	-13.0264
전지	-13.0266
▁구한	-13.0266
Yeon	-13.0268
▁싸운	-13.0271
▁그럴까	-13.0271
늠	-13.0273
▁죽인다	-13.0279
수리	-13.028
031	-13.0283
▁mr	-13.0283
▁우스	-13.0289
▁유방	-13.0295
뒀	-13.0302
▁고혈	-13.0313
비박	-13.0318
▁개구	-13.0323
▁세세	-13.0326
▁집배	-13.0327
▁갈래	-13.0327
▁최장	-13.0334
▁올가	-13.0336
▁애요	-13.0342
▁잊어버	-13.0345
▁질식	-13.0354
▁준법	-13.0357
▁참다	-13.0359
on	-13.0362
568	-13.0363
부탁	-13.0368
부르	-13.0372
▁의장	-13.0376
지부	-13.0377
형사	-13.0378
빵	-13.0378
쿠	-13.0393
보수	-13.04
▁사당	-13.0402
▁금속	-13.0405
▁고마	-13.041
▁알린	-13.042
핀	-13.042
▁어영	-13.0424
불만	-13.0429
지옥	-13.0431
▁라요	-13.0435
▁기지	-13.0438
뽕	-13.0447
꿎	-13.0447
괸	-13.0447
붇	-13.0447
퀄	-13.0447
퓰리즘	-13.0447
NIS	-13.0447
▁ex	-13.0448
듯이	-13.0448
eW	-13.0449
▁정개	-13.0458
신청	-13.0461
▁221	-13.0462
mes	-13.0464
디스	-13.0466
26	-13.0475
서민	-13.0475
▁쥔	-13.0478
▁뮈	-13.0478
▁쥬	-13.0478
▁젯	-13.0483
▁불모	-13.0489
▁해왔	-13.0491
▁쩔쩔	-13.0496
▁쿵쿵	-13.0496
▁샘플	-13.0496
▁옮겼	-13.0497
▁얼렁	-13.0497
pli	-13.0499
▁단칸	-13.0501
바구	-13.0501
▁곤두박	-13.0501
▁극빈	-13.0502
▁의왕	-13.0502
▁1400	-13.0504
▁그래픽	-13.0504
▁존칭	-13.0505
▁아쿠아	-13.0505
▁예컨	-13.0505
▁왕십리	-13.0505
▁남종삼	-13.0505
이해	-13.0505
▁커플	-13.0506
▁쪽팔	-13.0506
▁부추겨	-13.0506
▁도망갔	-13.0507
▁씁니까	-13.0508
▁일곱	-13.0508
▁스티브	-13.0509
▁두드려	-13.0509
▁언덕	-13.051
▁밝힙니다	-13.051
▁인공호흡	-13.0511
▁쌍용	-13.0513
▁스쳐	-13.0513
▁곽상	-13.0514
▁휘둘러	-13.052
▁end	-13.0521
▁둡니다	-13.0523
▁윤석	-13.0524
bq	-13.0529
학원	-13.053
▁낙오	-13.0531
KR	-13.0532
▁위함입니다	-13.0532
▁무더	-13.0533
▁삼척	-13.0537
▁흥국	-13.0537
▁주춤	-13.0539
싹	-13.054
▁흡입	-13.0541
▁무궁	-13.0543
▁플래	-13.0544
▁삥	-13.0545
신문	-13.0547
▁만능	-13.0548
▁회색	-13.055
어질	-13.0555
매장	-13.0556
▁연착	-13.0561
▁외무	-13.0562
트리	-13.0564
it	-13.0564
▁dr	-13.0565
▁참관	-13.0566
▁이치	-13.0567
▁힘드신	-13.0569
▁KD	-13.0574
도덕	-13.0575
487	-13.0575
▁모멸	-13.0583
▁15000	-13.0585
조윤	-13.0591
TR	-13.0596
소문	-13.0599
바위	-13.0603
자동차	-13.0605
▁선착	-13.0605
이놈	-13.061
▁메스	-13.0614
▁팜	-13.0614
미리	-13.0616
▁영천	-13.0617
▁유로	-13.0618
동물	-13.062
▁더랍니다	-13.0629
묘사	-13.063
▁무중	-13.063
▁doc	-13.0634
방지	-13.0637
전쟁	-13.0639
▁농작	-13.0648
▁송전	-13.0649
▁3500	-13.0652
▁모셨	-13.0654
▁빨아들	-13.0658
▁정관	-13.0658
▁흐를	-13.066
▁흡연실	-13.0661
▁득실	-13.0663
▁농경	-13.0664
아웃	-13.0665
빠졌	-13.0665
▁고등어	-13.0666
▁대환	-13.0667
▁여의	-13.0675
갚	-13.0678
▁눕	-13.0684
▁탤	-13.0684
기념	-13.0686
▁골수	-13.0686
드릴	-13.0686
▁확연	-13.0688
▁추미	-13.0696
369	-13.07
95	-13.07
▁찌들	-13.07
▁정봉	-13.0702
▁그리워	-13.0705
▁망한	-13.071
▁줄려	-13.0712
▁선명	-13.0714
란스	-13.0725
▁수동	-13.0731
▁기형	-13.0734
▁배드	-13.0738
▁플레	-13.0739
파르	-13.0739
588	-13.074
인정	-13.0754
▁국문	-13.0755
원칙	-13.0756
▁오스트	-13.0758
▁할라	-13.0765
▁씀	-13.0765
192	-13.0766
▁알려줘	-13.0769
▁실린	-13.0777
▁520	-13.0781
학습	-13.0797
▁분합니다	-13.0797
▁각계	-13.0797
▁교산	-13.0815
몬	-13.0818
▁320	-13.082
▁자폐	-13.0821
일제	-13.0837
동조합	-13.0838
위해서	-13.0844
떨	-13.0844
장애	-13.0846
그냥	-13.0854
▁나치	-13.0857
▁슬라	-13.0858
▁동성	-13.0858
▁평론	-13.0862
▁잦아	-13.0868
▁오타	-13.0873
▁본문	-13.0874
▁적색	-13.0876
▁서러워	-13.0878
▁마라	-13.0879
▁괴롭힌다	-13.0881
▁서천	-13.0884
둬	-13.0885
▁내려온	-13.0886
▁연산	-13.0887
공모	-13.0888
anti	-13.089
▁우등	-13.0895
ter	-13.09
▁거려	-13.0901
▁가평	-13.0906
▁sm	-13.0907
▁104	-13.092
KT	-13.0925
손자	-13.0925
▁용이	-13.0934
삿	-13.0935
절차	-13.0937
▁조르	-13.0939
▁공권	-13.094
팽	-13.0941
▁여과	-13.0941
▁재워	-13.0941
닐	-13.0952
기술	-13.0953
▁내보	-13.0957
▁수직	-13.0957
▁229	-13.0958
▁남동	-13.096
도와	-13.0965
텅	-13.0967
치우	-13.0973
▁와라	-13.0984
청년	-13.0995
▁줫	-13.0998
땡	-13.1004
▁비즈	-13.1017
당장	-13.1021
짚	-13.1029
잖아요	-13.1039
NN	-13.1041
▁원정	-13.1045
▁bi	-13.1051
OW	-13.1052
▁혀	-13.1053
연구	-13.1054
▁제천	-13.1065
▁시발	-13.1068
의도	-13.107
바꿈	-13.1072
출금	-13.1073
올려	-13.1086
타당	-13.1096
▁보호구	-13.1097
찝	-13.1102
물려	-13.1108
▁평안	-13.112
▁덮어	-13.1121
꿈	-13.1124
▁동급	-13.1126
▁다년	-13.1127
시비	-13.1129
▁아무데	-13.113
질까	-13.1132
▁호들	-13.1133
▁철원	-13.1138
▁1950	-13.114
보낼	-13.1144
▁850	-13.1153
펠	-13.1154
픽	-13.1158
▁mb	-13.1174
▁선불	-13.1176
274	-13.1178
대목	-13.1178
▁서두	-13.1178
천하	-13.118
▁스튜	-13.1183
국선	-13.1185
▁자전	-13.12
▁for	-13.1205
뜰	-13.1206
푹	-13.1213
닛	-13.1216
떴	-13.1216
옇	-13.1216
컫	-13.1216
킥	-13.1216
텝	-13.1216
day	-13.1218
▁마이크로	-13.1221
▁사서	-13.1221
라미	-13.1222
화학	-13.1231
▁진데	-13.1236
▁자빠	-13.1244
▁189	-13.1245
▁멜	-13.1245
▁얕	-13.1245
▁헝	-13.1245
▁쟈	-13.1245
▁신불	-13.1246
볼라	-13.1246
▁u	-13.125
019	-13.1257
▁더우	-13.1258
▁아티스	-13.1262
▁꿋꿋	-13.1263
어붙	-13.1264
▁벼슬	-13.1264
▁울릉	-13.1264
▁lg	-13.1267
▁라네	-13.1269
▁끊겨	-13.1271
▁패륜	-13.1271
▁ref	-13.1272
▁뉴시스	-13.1272
▁중장	-13.1273
▁안경테	-13.1274
▁페청산	-13.1274
▁딥	-13.1274
▁총영사	-13.1275
▁우스운	-13.1275
▁공수	-13.1276
▁장로교	-13.1277
▁장하	-13.1277
▁이중인격	-13.1278
▁헤매	-13.128
987	-13.1281
▁마그네	-13.1282
▁나옴	-13.1284
▁저작권	-13.1284
▁유명무실	-13.1285
▁초상	-13.1285
▁제각	-13.1285
▁뽑힌	-13.1286
▁포승	-13.1288
▁결핵	-13.1291
▁움직였	-13.1291
▁축척	-13.1292
▁떳	-13.1294
▁피난	-13.1296
▁딸랑	-13.1297
▁어버이	-13.1298
▁흥행	-13.1298
▁사들인	-13.1304
▁NEWS	-13.1305
▁꿔	-13.1307
▁기다려라	-13.1309
▁회귀	-13.1314
꼭	-13.1316
무장	-13.1318
수정	-13.132
▁무자격	-13.132
▁미관	-13.1331
가르	-13.1333
▁jw	-13.1336
정은	-13.1337
▁부숴	-13.134
겨야	-13.1343
▁NO	-13.1348
▁medi	-13.1354
▁빠집니다	-13.1355
▁지냅니다	-13.1356
▁만드세요	-13.136
인해	-13.1363
맘	-13.137
▁순번	-13.1374
▁올까	-13.1374
폐기	-13.1374
005	-13.1375
▁of	-13.1378
▁파티	-13.1379
▁총살	-13.138
▁사재	-13.1381
▁총액	-13.1384
▁갈매	-13.1384
▁모을	-13.1391
▁뛴	-13.1393
▁버릴까	-13.1393
감독	-13.1393
▁애플	-13.1399
▁여길	-13.1399
▁차이점	-13.14
▁경부	-13.1402
▁졌으니	-13.1405
▁최하	-13.1408
▁잔여	-13.1408
대기	-13.1409
통수	-13.1414
▁헤쳐	-13.1422
▁고학력	-13.1423
정액	-13.1423
▁720	-13.1424
▁배구	-13.1429
625	-13.143
▁그리스	-13.1433
▁파시	-13.1437
▁들린다	-13.1438
▁성우	-13.1441
장군	-13.1445
▁157	-13.1445
▁얼만	-13.1455
동차	-13.1465
판사	-13.1466
마니	-13.1469
▁장보	-13.147
▁내려라	-13.147
▁줄였	-13.1482
▁수락	-13.1482
▁질투	-13.1486
▁이태	-13.1488
▁270	-13.1488
징계	-13.1496
▁소동	-13.1496
▁남산	-13.1499
아닙니다	-13.1509
BH	-13.1514
지구	-13.1517
▁관망	-13.1527
▁되돌아	-13.1538
▁왔다	-13.1539
▁영유	-13.1539
▁웨	-13.154
▁조아	-13.154
▁모자란	-13.1543
등록	-13.1544
▁은가	-13.1548
▁원주	-13.155
의무	-13.1551
▁정용	-13.1552
칸	-13.1558
껄	-13.157
▁인사이	-13.1574
억울	-13.1574
▁청결	-13.1576
폭행	-13.1576
▁수배	-13.158
▁계신가	-13.1584
해당	-13.1587
경호	-13.1592
▁근심	-13.1593
▁챙긴	-13.1598
경청	-13.1602
▁주십시오	-13.1603
▁꼬여	-13.1604
결과	-13.1605
참다	-13.1615
놓고	-13.1617
02	-13.1618
추어	-13.1621
원시	-13.1624
▁먹일	-13.1625
ar	-13.163
▁보여준다	-13.1633
차곡	-13.1634
ation	-13.1636
적응	-13.1638
▁겹	-13.164
▁대야	-13.1646
▁너스	-13.1649
▁먹먹	-13.1656
▁어려워진	-13.1661
▁뒤집어	-13.1667
이크	-13.167
빨간	-13.1671
▁죽전	-13.1674
▁야마	-13.1675
▁SR	-13.1676
▁노영	-13.168
▁매달려	-13.1681
▁끝없	-13.1684
▁민영	-13.1685
▁구시	-13.1685
파트	-13.1687
빠진	-13.1695
▁무안	-13.1704
공평	-13.1707
▁십자	-13.1709
▁식단	-13.1713
대책	-13.1717
▁양진	-13.1719
▁끌어올	-13.172
▁공교	-13.1727
▁온데	-13.1733
▁수족	-13.1738
▁드라이	-13.1743
펴	-13.1747
레임	-13.1747
▁스테	-13.1749
▁수료	-13.1753
강원	-13.1757
정지	-13.1757
보레	-13.1762
▁함구	-13.1766
525	-13.1766
한테	-13.177
밀문	-13.1771
▁연약	-13.1779
디아	-13.1792
지도	-13.1794
▁내준	-13.1797
▁사지	-13.1807
댄	-13.1809
타분	-13.1814
▁신부	-13.1814
pen	-13.1817
▁최성	-13.1825
리라고	-13.1831
▁호스	-13.1832
▁182	-13.1834
득세	-13.1834
▁산청	-13.184
박범	-13.1842
▁닷	-13.1845
튀	-13.1846
▁지른다	-13.1851
레나	-13.1855
▁지형	-13.1858
인종	-13.1862
▁릅	-13.1862
동네	-13.1863
진행	-13.1865
업무	-13.1882
을까요	-13.1882
nal	-13.1883
대학	-13.1886
이머	-13.1901
우편	-13.1912
불법	-13.1916
렉스	-13.192
으면서	-13.1924
부상	-13.1928
▁로마	-13.1929
▁GB	-13.194
▁백과	-13.194
돔	-13.1941
▁지킨다	-13.1942
▁광안	-13.1946
댕	-13.195
▁애호	-13.1952
치기	-13.1953
▁렀다	-13.1954
ML	-13.1954
▁과대	-13.1955
▁저주	-13.1955
이미	-13.1961
▁저격	-13.1963
역사	-13.1965
정자	-13.1969
벤	-13.1971
▁수산업	-13.1974
▁미어	-13.1977
▁받아	-13.1977
발자	-13.1979
뿜	-13.1979
▁양손	-13.198
ction	-13.1986
▁긁어	-13.1986
진다는	-13.1987
▁비합	-13.1988
▁도운	-13.199
▁역세	-13.1999
폭풍	-13.2
뜸	-13.2
미국	-13.2007
젯	-13.2007
edge	-13.2013
궈	-13.2014
▁보라	-13.203
▁임진	-13.2032
▁RE	-13.2033
▁고기	-13.2038
951	-13.2039
▁던질	-13.2048
궂	-13.2049
룻	-13.2049
믈	-13.2049
빴	-13.2049
뻤	-13.2049
남구	-13.205
inp	-13.2055
세계	-13.2056
pF	-13.2057
▁살린	-13.2057
76	-13.2065
▁118	-13.2067
세무	-13.207
전국	-13.2072
▁겅	-13.2077
▁뭍	-13.2077
▁썰	-13.2077
▁헹	-13.2077
마리	-13.2089
가정	-13.2093
▁바꿉	-13.2094
▁젋은	-13.2096
▁덩달	-13.2097
▁거둔	-13.2097
▁쏠려	-13.2099
▁봅니까	-13.2102
화해	-13.2103
▁짤릴	-13.2103
▁tab	-13.2103
▁능욕	-13.2103
▁뜹니다	-13.2104
▁느닷없	-13.2104
▁비둘기	-13.2104
▁빗발	-13.2104
▁갈라져	-13.2105
▁혼혈	-13.2107
▁당분	-13.2107
▁찌그러	-13.2108
▁벅찹니다	-13.2109
▁갈아입	-13.2111
▁뒤흔들	-13.2113
▁알츠하이머	-13.2113
▁csidx	-13.2113
▁가로채	-13.2113
▁미칩니다	-13.2115
▁캄	-13.2115
▁그럴싸	-13.2116
▁달라집니다	-13.2116
▁산둥	-13.2117
▁content	-13.2117
▁공탁금	-13.2118
▁테레	-13.2121
▁씌운	-13.2123
▁그레	-13.2123
▁고마워	-13.2124
당시	-13.2124
바둥	-13.2125
▁신앙	-13.2128
▁650	-13.213
▁일궈	-13.213
▁복학	-13.2134
무르	-13.2136
▁gen	-13.2136
새끼	-13.2136
▁아쉬워	-13.2137
▁캠퍼	-13.2138
▁부추긴다	-13.2139
▁고함	-13.2141
▁근성	-13.2143
직장	-13.2144
52	-13.2145
▁약소국	-13.2145
건강	-13.215
의료	-13.215
기초	-13.2155
▁나올까요	-13.2157
▁가벼	-13.2157
▁돌린	-13.2158
2019	-13.2165
▁방광	-13.2168
▁야된다	-13.2171
▁잡힐	-13.2177
조카	-13.2181
▁변변	-13.2182
검찰	-13.2188
▁찹니다	-13.2189
▁김미	-13.219
OK	-13.2191
▁깜박	-13.2191
ST	-13.2191
▁끙끙거	-13.2192
▁거북	-13.2193
▁구라	-13.2193
체포	-13.2193
▁텔레비	-13.2197
두세	-13.2198
▁나옵니까	-13.2198
▁즐거워	-13.2201
Qx	-13.2207
여대	-13.2208
rl	-13.2209
▁지리	-13.2215
▁윤종	-13.2216
▁스며	-13.2219
▁광산	-13.2223
징글	-13.2234
▁승선	-13.2236
▁찜	-13.2238
▁치른	-13.2239
▁seo	-13.2242
▁부끄러워서	-13.2244
▁용비	-13.2246
▁뛰어다	-13.225
▁챙겨야	-13.2257
▁속상해	-13.2262
나갈	-13.2262
광고	-13.2264
라매	-13.2265
▁용달	-13.2272
▁라더군요	-13.2274
▁세워져	-13.2275
으름	-13.2279
▁원자로	-13.2282
▁모터	-13.2284
▁327	-13.2286
▁산악	-13.2291
▁발자	-13.2311
▁295	-13.2313
져갔	-13.232
감옥	-13.2324
▁연상	-13.2327
▁정운	-13.2328
▁불어	-13.2329
▁됫	-13.2333
▁취사	-13.2335
▁퉁	-13.2335
▁수영장	-13.2336
어찌	-13.2338
현수	-13.2339
▁시합	-13.2342
전소	-13.2343
▁령	-13.2343
▁예치	-13.2351
▁팔아	-13.2353
▁AS	-13.2355
대방	-13.2359
▁돌발	-13.2365
▁내분	-13.2368
어천	-13.2369
▁으나마	-13.237
▁799	-13.2376
▁ranking	-13.2376
▁신지	-13.2381
▁약합니다	-13.2382
▁쑤	-13.2387
▁913	-13.2389
실험	-13.2391
군인	-13.2391
지난	-13.2392
▁안티	-13.2397
▁증산	-13.24
▁드문	-13.2403
▁세례	-13.2405
▁q	-13.2409
ie	-13.2409
31	-13.2415
▁195	-13.242
간첩	-13.2422
▁풀린다	-13.2424
▁리니	-13.2428
전환	-13.2429
▁할래	-13.2431
신경질	-13.2437
돌이	-13.2437
▁태운	-13.2445
이번	-13.245
인가	-13.2464
주변	-13.2477
▁성창	-13.2478
퍼런	-13.2482
▁이형	-13.2491
▁자구요	-13.2491
▁미적	-13.2493
잣	-13.2498
모아	-13.2505
▁목매	-13.2509
▁부릅	-13.2516
▁쓰인	-13.2518
▁동래	-13.2526
활동	-13.2529
우스	-13.2529
휴가	-13.2529
CS	-13.253
▁불당	-13.253
근로자	-13.2531
▁CD	-13.2534
▁빠를	-13.2537
▁서러운	-13.2539
려졌	-13.2542
▁570	-13.2547
▁모자이	-13.2547
▁정신없	-13.2549
대장	-13.2549
▁반달	-13.2552
▁조준	-13.2554
▁123	-13.2561
▁채운	-13.2565
심사	-13.2566
동설	-13.2566
즈니	-13.2572
두대	-13.2581
옷	-13.2584
▁179	-13.2584
▁잡종	-13.2585
▁들썩	-13.2592
▁한옥	-13.2602
확보	-13.2604
▁볼려	-13.2604
▁비틀	-13.2609
학자	-13.2613
여러	-13.2622
▁선대	-13.2622
요청	-13.2636
▁어때	-13.2637
▁옳다	-13.264
055	-13.264
▁스트리	-13.2643
75	-13.2647
▁수취	-13.265
▁늘린	-13.265
▁수선	-13.2663
▁유부	-13.2665
▁염수	-13.2676
축구	-13.2679
▁잇따	-13.2679
▁라기	-13.2684
야간	-13.2689
사법	-13.2692
▁져라	-13.2694
▁뼈저	-13.2694
09	-13.2696
▁뛰어내	-13.2705
▁장현	-13.2708
아요	-13.271
▁반신	-13.271
돌아갈	-13.2716
▁영업장	-13.2717
뭐	-13.2718
▁김의	-13.2721
껴	-13.2721
▁다른가	-13.2723
▁클래	-13.2731
▁뒷배	-13.2737
▁상여	-13.2742
▁체당	-13.2743
126	-13.2745
▁사파	-13.2752
▁167	-13.2753
펜	-13.2753
▁맡긴다	-13.2756
▁딧	-13.2757
오줌	-13.2771
▁흐린	-13.2772
▁맞대	-13.2776
▁당겨	-13.2786
▁한갑	-13.2788
▁센티	-13.2788
▁토사	-13.2791
인상	-13.2793
세법	-13.2793
▁드니	-13.2796
춰	-13.2797
신다면	-13.2801
▁변할	-13.2802
▁내장	-13.2809
시작	-13.2815
군기	-13.2817
했으나	-13.2819
▁나선	-13.2821
▁콕	-13.2823
▁책임진다	-13.2824
착오	-13.2826
▁두들	-13.2827
▁다분	-13.2832
▁경의	-13.2837
▁온천	-13.2849
▁전진	-13.2849
▁자영	-13.2851
▁떄문	-13.2851
▁짜여	-13.2853
▁불면	-13.2854
▁타박	-13.2855
넘어	-13.2856
▁니트	-13.2858
해진다	-13.2861
의호	-13.2863
차량	-13.2875
더라도	-13.2878
삐	-13.2882
▁룩	-13.2884
▁동동	-13.2887
▁kh	-13.2888
▁초고	-13.2889
직입	-13.289
▁불출	-13.2891
칩니다	-13.2891
29	-13.2894
길래	-13.2899
▁정현	-13.29
▁그런대	-13.2905
아픈	-13.2909
▁635	-13.2919
갔다	-13.2921
어느	-13.2933
▁IP	-13.2944
▁급정	-13.2947
▁화산	-13.2948
쩡	-13.2958
뗄	-13.2958
벋	-13.2958
켠	-13.2958
훅	-13.2958
eral	-13.2959
▁노린	-13.2959
밧데리	-13.2959
▁230	-13.2964
rce	-13.2971
▁횟	-13.2971
따로	-13.2972
▁낚	-13.2973
테이	-13.2979
총액	-13.2983
▁듦	-13.2984
▁켐	-13.2984
▁햄	-13.2984
▁챠	-13.2984
▁수없	-13.2984
▁사양	-13.2989
▁무감	-13.2994
새겨	-13.3
▁닙까	-13.3001
▁휩쓸	-13.3001
▁암흑	-13.3002
▁샤워	-13.3002
▁빵빵	-13.3002
▁예뻐	-13.3003
▁MY	-13.3003
▁휘청	-13.3006
▁맺힌	-13.3006
즉	-13.3009
▁싱크	-13.3009
▁진원	-13.301
▁엎드려	-13.3011
▁듭시다	-13.3011
▁괴로웠	-13.3011
▁거들떠	-13.3011
▁블락	-13.3013
▁귀빈	-13.3014
▁완강	-13.3014
▁배고파	-13.3015
▁쇼크	-13.3015
▁끊긴	-13.3016
▁옮긴	-13.3016
▁그럽니까	-13.3016
▁상훈	-13.3019
▁일으킵니다	-13.3019
▁joong	-13.3019
▁떠오릅니다	-13.302
▁그래픽스	-13.302
▁떨어뜨려	-13.3022
▁달한다	-13.3023
▁느껴져	-13.3023
▁Jinping	-13.3024
▁시킬려	-13.3024
▁버려져	-13.3025
▁category	-13.3026
▁골격	-13.3027
▁구지	-13.3027
된다고	-13.3027
▁아낌없	-13.3027
끽	-13.3028
▁끈질	-13.3029
▁나올까	-13.303
▁돌아다녀	-13.3033
are	-13.3037
▁다낭	-13.304
▁납니까	-13.3043
▁뒤바	-13.3044
▁흩어져	-13.305
▁매너	-13.3052
▁동식	-13.3053
▁방청	-13.3055
겁니까	-13.3056
▁전셋	-13.3058
▁222	-13.3059
추기	-13.306
▁매몰	-13.306
▁더이다	-13.3061
▁도대	-13.3063
이자	-13.307
▁OL	-13.3071
▁할땐	-13.3074
▁쇳	-13.3084
▁8002	-13.3085
시일	-13.3088
▁속일	-13.3089
469	-13.3091
언론	-13.3091
쑥	-13.3092
▁끌어올려	-13.3093
▁pop	-13.3095
이것	-13.3096
남성	-13.3097
▁자갈	-13.3098
▁거둬들	-13.31
▁비아냥거	-13.3101
77	-13.3105
▁어떠신가	-13.3107
▁경희	-13.3109
월세	-13.3112
▁116	-13.3113
1945	-13.3116
▁내려갈	-13.3117
▁040	-13.3117
▁까발	-13.3119
▁리얼	-13.3119
릅	-13.312
▁호크	-13.312
어떤	-13.3128
의지	-13.3136
▁앨	-13.3138
86	-13.3141
▁소스	-13.3142
▁128	-13.3142
989	-13.3144
▁폭격	-13.3145
FC	-13.3145
▁그쳤	-13.3147
▁파인	-13.3152
▁화염	-13.3167
▁9000	-13.3169
▁손절	-13.3175
▁술판	-13.3178
차관	-13.3183
▁떠밀	-13.3185
▁쉬울	-13.3186
▁차츰	-13.3187
▁대행업	-13.3192
▁1300	-13.3194
▁너그러	-13.3194
법원	-13.3196
구획	-13.3197
▁713	-13.3199
▁부안	-13.3201
▁토박	-13.3208
니어	-13.3214
▁직행	-13.3215
흐흐	-13.3217
▁나머	-13.3219
트라	-13.322
▁252	-13.322
라나	-13.3226
▁008	-13.3231
▁꺼라	-13.3233
ate	-13.3234
손혜원	-13.3234
▁정례	-13.3236
▁IS	-13.3238
▁양면	-13.3238
어준	-13.3244
▁사들	-13.3245
▁편협	-13.3249
▁NG	-13.325
▁155	-13.3256
▁날린	-13.326
▁복제	-13.3266
올라	-13.3266
▁사적	-13.327
▁학예	-13.3277
▁덧	-13.3278
폐지	-13.3279
▁써요	-13.3283
▁흙탕	-13.3283
▁찔끔	-13.3284
위생	-13.3295
▁수의	-13.3297
300	-13.3301
▁226	-13.3302
▁녹여	-13.3302
65	-13.3308
또는	-13.3313
▁개짓	-13.3317
▁가드	-13.3317
▁욕보	-13.3319
립시다	-13.3327
하수도	-13.3329
안녕	-13.3331
▁한결	-13.3331
▁망명	-13.3339
▁조삼	-13.334
이게	-13.3344
▁ic	-13.3346
to	-13.3348
▁연중	-13.335
밑	-13.3359
▁돌연	-13.336
생산	-13.3362
귄	-13.3363
▁일언	-13.3365
▁신라	-13.337
▁계신다	-13.337
래스	-13.337
▁영남	-13.3371
▁사투	-13.3372
▁닙	-13.3374
▁280	-13.3376
▁오른손	-13.338
▁오거	-13.3386
가장	-13.339
▁개봉	-13.3392
▁일동	-13.3393
▁울주	-13.3394
▁별지	-13.3394
▁줄께	-13.3397
▁양복	-13.3397
▁농사지	-13.3398
꽁	-13.3405
▁누드	-13.3407
▁먹였	-13.3425
▁740	-13.3426
청사	-13.343
▁유성	-13.3432
요구	-13.3437
▁강회	-13.3443
가운데	-13.3446
오리	-13.3446
각지	-13.3448
▁추간	-13.3455
▁하얀	-13.3459
나와	-13.3464
▁고인	-13.3464
▁열매	-13.3466
깁니다	-13.347
국회	-13.3473
셀	-13.3473
▁쓰임	-13.3475
▁레지	-13.3482
▁빈둥	-13.3482
▁줄까	-13.3484
▁차근	-13.3491
합니까	-13.3495
까리	-13.3499
▁진접	-13.3499
양가	-13.3501
▁340	-13.3508
골목	-13.351
ec	-13.3522
▁신창	-13.3524
▁vol	-13.3526
▁z	-13.3527
부른	-13.3527
▁구천	-13.3532
우산	-13.3538
▁판매업	-13.3546
베트남	-13.355
▁튈	-13.356
TP	-13.3568
▁입비	-13.3568
▁하수도	-13.3574
평균	-13.358
대해서	-13.3594
내외	-13.3599
중간	-13.3602
66	-13.3604
▁630	-13.3608
슬리	-13.3614
정심	-13.3618
스키	-13.3618
▁바야	-13.3621
CE	-13.3621
KA	-13.3621
▁프라이	-13.3626
▁성급	-13.3642
▁아셨	-13.3646
EC	-13.3646
CT	-13.3649
▁찾아봐	-13.3651
▁구여	-13.3652
413	-13.3653
▁390	-13.3655
▁되물	-13.3662
▁과밀	-13.3662
시행	-13.3667
수도	-13.3673
▁불러일으	-13.3674
2400	-13.3681
민족	-13.3689
점장	-13.3699
온수	-13.3717
입장	-13.3727
▁깨워	-13.3728
▁녁	-13.3729
▁온실	-13.3765
어렵	-13.3767
▁떨어트	-13.3772
테크	-13.3773
55	-13.378
적용	-13.3784
▁몰려와	-13.3792
▁쭈	-13.3794
OS	-13.3798
▁폈	-13.3805
▁변상	-13.3805
▁식수	-13.3816
▁갈지	-13.3823
보낸	-13.3827
통해	-13.3831
▁540	-13.3838
▁국감	-13.3842
NA	-13.3842
▁손대	-13.3843
▁정유	-13.3845
▁양치	-13.385
57	-13.385
▁4300	-13.3859
▁해남	-13.3861
▁판다	-13.3861
동단	-13.3869
▁여실	-13.3871
▁153	-13.3871
차역	-13.3878
▁뒤돌	-13.3889
▁억만	-13.3889
▁어림	-13.3897
십니다	-13.3899
rb	-13.39
▁가사	-13.3901
▁강기	-13.3914
▁적반	-13.3921
▁욕해	-13.3925
7080	-13.3936
중구	-13.3938
▁김유	-13.3945
▁틀림	-13.3946
▁209	-13.3948
▁심제	-13.3956
▁내다	-13.3957
킵	-13.3958
녘	-13.3958
렐	-13.3958
밋	-13.3958
헀	-13.3958
휀	-13.3958
▁본회	-13.3963
▁단도	-13.3967
준다	-13.397
00000000	-13.3971
개선	-13.3975
▁136	-13.3976
▁모면	-13.3976
▁훔	-13.3977
▁짭	-13.3982
▁퍠	-13.3982
▁뽐	-13.3982
▁쒸	-13.3982
▁빢	-13.3982
내렸	-13.3984
▁by	-13.3986
▁풀어	-13.3986
ost	-13.3987
툭	-13.3989
▁뺑	-13.3989
차근	-13.399
얹	-13.3992
▁사자	-13.3993
▁144	-13.3999
▁곰곰	-13.3999
▁짖밟	-13.3999
▁프랜	-13.4
▁미얀	-13.4
소폭	-13.4001
▁장차	-13.4002
▁들이	-13.4003
▁밸류	-13.4004
▁as	-13.4004
늑	-13.4005
▁손꼽	-13.4007
▁속옷	-13.4007
▁구렁텅	-13.4008
▁최재욱	-13.4008
▁서귀포	-13.4008
▁윾튜브	-13.4008
▁흐려	-13.4008
▁org	-13.4009
▁타고난	-13.4009
▁뒷걸음	-13.4009
▁뿌리깊	-13.401
▁떠밀려	-13.401
▁허허	-13.401
▁렵니다	-13.401
▁마지못해	-13.4013
▁사로잡혀	-13.4014
▁지킴	-13.4016
▁역기능	-13.4016
▁긴밀	-13.4016
▁떨어질까	-13.4017
▁Korea	-13.4017
텍스	-13.4019
▁됏	-13.402
▁시끄러운데	-13.4022
▁나타납니다	-13.4023
▁어려워집니다	-13.4024
▁늘어납니다	-13.4024
▁셨잖아요	-13.4028
▁침례	-13.4029
▁무효화	-13.4031
▁휘청거	-13.4033
▁압축	-13.4033
▁두드러	-13.4034
▁이봉	-13.4036
▁어지간	-13.4037
▁스쿠	-13.4037
▁우즈	-13.4037
▁스케일	-13.4038
▁창작	-13.404
시켜	-13.4041
▁딩	-13.4044
조명	-13.4044
▁상수도	-13.405
▁파헤쳐서	-13.4051
풍양	-13.4053
▁찢어진	-13.4054
▁이우현	-13.4056
UV	-13.4056
복무	-13.4056
▁홍예	-13.4057
▁떨려	-13.4057
굽혀	-13.4059
▁오프	-13.4062
장판	-13.4063
▁레드	-13.4065
▁스테이	-13.4067
▁통일교	-13.4071
▁굳건	-13.4073
▁한자	-13.4074
상대	-13.4078
▁휴게실	-13.408
▁뉘	-13.408
부정	-13.4085
▁실소	-13.4086
총독	-13.4087
▁만천	-13.4087
▁277	-13.4088
▁흉물	-13.4088
호흡	-13.4091
▁피웠	-13.4092
다지	-13.4093
GRA	-13.4095
▁석연	-13.4098
웃	-13.4103
▁여진	-13.4104
고용	-13.4105
▁윤태	-13.4107
콕	-13.411
▁망나니	-13.4111
▁이어진	-13.4113
폈	-13.4114
▁이래라	-13.4114
▁문상	-13.4116
샅	-13.4118
관광	-13.412
쭈	-13.4125
▁760	-13.4126
lbo	-13.4136
▁남김	-13.414
급조	-13.414
▁누렸	-13.4141
6000	-13.4142
▁원희	-13.4143
▁벡	-13.4144
▁군납	-13.4144
▁지켜본	-13.4148
▁천정	-13.415
▁질려	-13.4153
▁2300	-13.4154
푼	-13.4156
▁피한	-13.4158
ne	-13.4161
ang	-13.4165
▁근검	-13.4172
경련	-13.4173
▁씽	-13.4176
▁암투	-13.4179
▁sou	-13.4183
췌	-13.4188
▁떠벌	-13.4189
▁간데	-13.4192
선수	-13.4193
공산	-13.4194
▁공군기	-13.4197
▁스포	-13.42
▁원대	-13.4203
▁올렸으	-13.4203
▁결속	-13.4204
동부	-13.4205
▁193	-13.4226
▁콘도	-13.4234
▁작살	-13.4234
▁쓸려	-13.4235
▁IN	-13.4238
▁우겨	-13.4239
▁당혹	-13.4248
▁흉부	-13.4258
▁바코	-13.4266
▁댄다	-13.4277
▁소린	-13.4278
20000	-13.4282
▁추출	-13.4287
▁포도	-13.4287
36	-13.429
▁철없	-13.43
덕지	-13.4301
▁요하	-13.4302
대부분	-13.4303
▁폭주	-13.4303
▁넘나	-13.4304
▁460	-13.4304
할까요	-13.4306
▁중등	-13.4313
▁147	-13.4313
구름	-13.4313
rp	-13.4314
챙	-13.4316
▁하남	-13.4317
na	-13.4318
줘	-13.4321
▁속초	-13.4323
▁ka	-13.4329
▁우량	-13.4331
▁산산	-13.4333
▁절절	-13.4335
▁섭니다	-13.4337
▁늘어진	-13.4341
745	-13.4346
▁act	-13.4352
▁연주	-13.4359
▁쓰여져	-13.4364
▁Ja	-13.4366
플리	-13.4368
▁304	-13.4368
라졌	-13.437
▁양방	-13.4377
▁265	-13.4379
▁뻐	-13.4382
236	-13.4387
▁이기주	-13.4388
한시	-13.439
▁으려다	-13.4397
깁니까	-13.4398
▁송부	-13.44
▁누우	-13.44
▁부러워	-13.44
▁인본	-13.4401
인권	-13.4403
▁콜라	-13.4404
▁간결	-13.4408
미암	-13.4409
▁225	-13.4414
▁정예	-13.4417
69	-13.4422
▁엇다	-13.4422
할지	-13.4423
▁제비	-13.443
▁530	-13.4431
▁그중	-13.4436
니요	-13.4439
▁따진다	-13.4441
▁소립	-13.4443
▁일찌	-13.4445
어났	-13.4446
▁141	-13.4449
▁됄	-13.4449
대차	-13.4452
조정	-13.4455
▁살펴본	-13.4458
▁마칠	-13.446
▁거침	-13.446
▁화난	-13.4467
rt	-13.4468
이대	-13.4474
▁길들	-13.4478
▁급선	-13.4481
▁and	-13.4481
▁두둑	-13.4489
▁30000	-13.4489
▁재계	-13.4491
임시	-13.4492
하차	-13.4495
쉬웠	-13.4507
마귀	-13.4509
가격	-13.4512
▁백정	-13.4513
당연	-13.4518
▁이른다	-13.4526
독자	-13.4529
400	-13.4533
그치	-13.4534
건데	-13.4543
옥신	-13.4544
▁시연	-13.4544
▁합친	-13.4544
▁두리	-13.4544
▁방방	-13.4554
06	-13.4555
▁김연	-13.4558
근로	-13.4565
씩	-13.4566
▁반지	-13.4566
군대	-13.4567
일부	-13.457
용인	-13.4577
▁대퇴	-13.4578
서비스	-13.4584
▁그린피	-13.4584
려져	-13.4584
▁텀	-13.4584
▁광대	-13.4595
강력	-13.4596
▁공주	-13.4597
▁끼친다	-13.4598
라오	-13.4601
다면서	-13.4605
기본	-13.4606
들썩	-13.4617
▁요란	-13.4617
64	-13.462
▁몰릴	-13.4621
▁정우	-13.4629
▁이겼	-13.4633
▁요령	-13.4637
오래	-13.4644
월급	-13.4656
던가	-13.4664
▁종소	-13.4664
자비	-13.4664
▁앞장선	-13.4668
269	-13.4668
작업	-13.4672
오늘	-13.4681
경부	-13.4684
▁복개	-13.4686
▁꾸지	-13.4691
▁내란	-13.4695
im	-13.4696
라짐	-13.4704
▁송인	-13.4706
▁기왕	-13.471
▁맟	-13.4711
▁친근	-13.4713
▁아트	-13.4715
양구	-13.4722
▁봐주	-13.4728
시위	-13.4728
랴	-13.4736
▁붙인다	-13.4738
▁방구	-13.4741
본다	-13.4744
▁낱	-13.4745
유물	-13.4748
▁자주국	-13.4756
신경	-13.4757
▁지으려	-13.4759
▁풀린	-13.4761
▁흐흐	-13.4761
▁two	-13.4761
지지	-13.4763
▁저능	-13.4771
▁에휴	-13.4772
OO	-13.4784
▁173	-13.4785
▁부축	-13.4788
▁라마	-13.4789
인성	-13.4792
▁분권	-13.4804
▁4526	-13.4809
▁SU	-13.4809
▁게다	-13.4813
▁함안	-13.4813
안일	-13.4815
해외	-13.4818
통신	-13.4819
▁어버	-13.482
34	-13.4822
83	-13.4825
급부	-13.4826
▁이병	-13.483
▁진중	-13.4832
▁re	-13.4842
sy	-13.4849
PT	-13.4852
qu	-13.4854
한데	-13.4862
08	-13.4865
EB	-13.4867
▁409	-13.4869
▁계리	-13.487
▁오피	-13.487
▁렴	-13.4875
▁난지	-13.4876
▁멍멍	-13.488
▁기혼	-13.4882
▁224	-13.4885
▁구합니다	-13.4891
▁샅	-13.4894
사상	-13.4902
건가요	-13.4904
▁특공	-13.4911
▁고성	-13.4913
cc	-13.4934
▁차남	-13.4934
▁쥐어	-13.4936
267	-13.4943
▁부드	-13.4948
▁770	-13.4957
계기	-13.4959
▁콧	-13.4965
▁북서	-13.4968
플러	-13.4968
영호	-13.4971
▁고친다	-13.4971
▁274	-13.4988
▁국회의	-13.4993
요즘	-13.4998
▁on	-13.5004
안경	-13.5004
으신	-13.5011
▁공구	-13.5013
포기	-13.5019
쩐	-13.5026
▁아바	-13.5027
▁조경	-13.5028
했으며	-13.5033
341	-13.5038
▁Co	-13.5051
▁290	-13.5053
▁뒤처	-13.5057
ype	-13.5069
쩜	-13.5069
反	-13.507
者	-13.507
갰	-13.507
걀	-13.507
넨	-13.507
렘	-13.507
롬	-13.507
륵	-13.507
맬	-13.507
얇	-13.507
잭	-13.507
쫏	-13.507
찟	-13.507
횃	-13.507
live	-13.5071
호호호	-13.5072
▁할께	-13.5075
유은	-13.5077
ign	-13.5078
▁통진	-13.5079
un	-13.5083
▁쩔	-13.5084
▁쳬	-13.509
▁갸	-13.5091
▁뎅	-13.5091
▁셍	-13.5091
▁츨	-13.5091
▁616	-13.5092
▁봅	-13.5099
흔	-13.5101
급자	-13.5102
▁lh	-13.5107
▁닷컴	-13.5107
▁코믹	-13.5108
마침	-13.5108
▁걸핏	-13.5109
▁낮춤	-13.5109
▁빌빌	-13.5109
▁겸허	-13.5109
▁눈뜬	-13.511
▁핸디	-13.5111
계절	-13.5111
▁뷰티	-13.5113
▁무턱대	-13.5116
▁htm	-13.5116
▁둡니까	-13.5116
▁비타민	-13.5116
▁쓸쓸	-13.5117
▁골탕	-13.512
▁끌려갔	-13.5121
▁아카데미	-13.5121
▁asia	-13.5121
▁바뀝니다	-13.5121
▁마르크스	-13.5121
▁정정당당	-13.5121
▁앞섭니다	-13.5123
▁쓰러졌	-13.5123
▁휘둘려	-13.5123
▁만지작	-13.5124
▁익힌	-13.5124
▁무릅	-13.5124
▁푸르	-13.5124
▁역겨운	-13.5125
▁sport	-13.5125
▁췌장	-13.5125
▁지나쳐	-13.5125
▁일깨워	-13.5125
http	-13.5125
▁기만행위	-13.5126
▁발끈	-13.5127
▁돌아옵니다	-13.5128
▁Article	-13.5129
▁medical	-13.5129
▁나쁩니다	-13.513
▁허둥	-13.5131
겨울	-13.5135
▁탄탄	-13.5136
aver	-13.5137
냐면	-13.5139
▁산골	-13.5139
반사	-13.5144
▁개똥	-13.5145
▁겠지만	-13.5146
▁뚤어	-13.5148
▁부푼	-13.5149
사채	-13.515
▁잊어버린	-13.515
▁나이롱	-13.5153
▁책임져라	-13.5158
▁백해	-13.516
▁서글	-13.516
능력	-13.5164
km	-13.5166
인천	-13.5169
▁소매업	-13.5171
▁당명	-13.5171
체온	-13.5173
▁나타난다	-13.5173
▁민원서류	-13.5174
TI	-13.5175
▁김효	-13.5178
매김	-13.518
▁최정	-13.5182
▁115	-13.5185
▁밀어붙	-13.5187
발소	-13.5187
뜬	-13.5191
▁버거	-13.5191
의회	-13.5192
▁떠받	-13.5195
▁양곡	-13.5196
▁내보낸	-13.5198
▁주어진다	-13.5199
절대	-13.5202
▁911	-13.5204
▁방공	-13.5208
▁2700	-13.5209
▁개교	-13.5211
신호	-13.5211
▁금토	-13.5211
▁김주	-13.5214
▁몰지	-13.5216
방울	-13.5221
사당	-13.5221
▁여아	-13.5225
▁정순	-13.5225
▁고독	-13.5227
▁3200	-13.5228
▁내립니다	-13.5229
심각	-13.5234
▁쯔	-13.5235
▁놔둬	-13.5235
▁굽신	-13.5237
247	-13.5237
ae	-13.5237
돋	-13.5243
▁680	-13.5244
스러운	-13.5245
▁그만둔다	-13.5246
선택	-13.5247
▁CU	-13.5248
▁JY	-13.5249
▁ud	-13.5249
RL	-13.5251
▁프레스	-13.5253
수익	-13.5255
몰려	-13.5256
AK	-13.5256
Read	-13.5256
▁262	-13.5257
▁독극	-13.5257
▁325	-13.5261
AY	-13.5264
Tv	-13.5265
▁찢겨	-13.527
▁브레	-13.527
미래	-13.5271
▁살맛	-13.5273
꺽	-13.5273
▁뒷담	-13.5274
▁한다더군요	-13.5279
▁합작	-13.5279
▁KI	-13.5281
▁모란	-13.5281
카페	-13.5284
▁165	-13.5285
▁따라온	-13.5287
▁옵니까	-13.5287
트라이	-13.5288
▁158	-13.5302
▁완제	-13.5303
▁테마	-13.5303
동맥	-13.5306
▁넘어선	-13.5308
말씀	-13.5309
▁뒤돌아	-13.5309
▁각설	-13.5311
▁페어	-13.5311
▁쪽발	-13.5315
▁차린	-13.5319
▁했을까	-13.532
▁펼친	-13.5323
▁이맘	-13.5327
물렁	-13.5328
셀로	-13.5331
▁간척	-13.5333
과실	-13.5341
ro	-13.5343
ig	-13.5344
▁부셔	-13.5346
▁살균	-13.5349
믿	-13.5351
소변	-13.5359
공원	-13.536
쿵	-13.5361
삼성	-13.5364
듀	-13.5366
▁손익	-13.5367
▁누려	-13.5369
▁향수	-13.5373
8500	-13.5377
로그	-13.538
▁떠오른	-13.538
▁빌어	-13.5384
관절	-13.5387
▁보일지	-13.5388
프트	-13.5394
07	-13.5396
▁설상	-13.5398
오히려	-13.5401
▁피운	-13.5401
▁날카로	-13.5403
▁길들여	-13.5407
▁물들	-13.5409
▁sc	-13.541
▁검역	-13.5413
TER	-13.5413
▁adm	-13.5414
Seq	-13.5422
▁후불	-13.5426
▁신정	-13.5428
▁귀여	-13.543
▁동북	-13.5432
권리	-13.5432
2017	-13.5439
▁제헌	-13.5443
이탈	-13.5446
▁132	-13.5448
시기	-13.5448
▁등용	-13.5449
결국	-13.5452
▁쉰다	-13.5453
▁치만	-13.5463
▁전광	-13.5464
▁중공	-13.5467
▁종량	-13.5469
쿠르	-13.5476
▁1953	-13.5479
일러	-13.5485
▁이수	-13.5486
라며	-13.5489
97	-13.5492
▁할멈	-13.5494
중요	-13.5496
▁mo	-13.5507
▁스태	-13.5512
▁썹	-13.5518
▁포대	-13.5528
▁지뢰	-13.553
▁307	-13.5532
▁생년	-13.5534
▁人	-13.5536
놔	-13.5541
▁분탕	-13.5542
▁삼청	-13.5544
700	-13.5547
▁한양	-13.5548
질러	-13.5549
▁데요	-13.5553
▁ef	-13.5553
▁지켜라	-13.5555
▁배때	-13.5559
과세	-13.5573
수급	-13.5575
▁잡힌다	-13.5585
59	-13.5586
▁원단	-13.5591
▁배추	-13.5594
인구	-13.5597
▁정전	-13.56
▁가져간다	-13.5601
▁차디	-13.5614
피크	-13.5615
▁믹	-13.5621
조각	-13.5623
가입	-13.5624
590	-13.5635
6500	-13.5635
▁감춰	-13.5635
▁클레	-13.564
▁살렸	-13.5642
▁멧	-13.5652
▁뭇	-13.566
도금	-13.5666
특정	-13.5668
▁월례	-13.5671
▁뒤따	-13.5675
▁첨가	-13.5675
▁127	-13.5684
▁다방	-13.569
63	-13.5691
시요	-13.57
여간	-13.5702
▁모성	-13.5709
▁기장	-13.5717
▁fb	-13.5718
▁hank	-13.5719
씀	-13.5721
00038	-13.5722
유포	-13.5729
▁개폐	-13.5732
▁정조	-13.5733
개혁	-13.574
돌아가	-13.5746
▁지니	-13.5755
가림	-13.5757
등등	-13.5761
식주	-13.5763
37	-13.5763
고자	-13.5764
▁car	-13.5769
▁비스	-13.577
세손	-13.5772
반드시	-13.5776
라운	-13.5778
정의	-13.578
명수	-13.5781
▁채식	-13.5786
해져	-13.5793
일으킬	-13.58
TM	-13.5801
했었	-13.5803
▁놓친	-13.5804
▁일생	-13.5811
어나오	-13.5813
▁강호	-13.5818
▁우르	-13.5826
함께	-13.5832
▁몰아세	-13.5835
성인	-13.5837
케시	-13.584
▁해괴	-13.5846
230	-13.585
▁퍼진	-13.5852
수업	-13.5854
▁가을	-13.586
▁외관	-13.5875
▁1984	-13.5886
▁야유	-13.5893
통합	-13.5894
이팅	-13.5895
▁조계	-13.5905
tion	-13.5908
▁비수	-13.5909
언제	-13.5919
▁커리	-13.5923
▁이긴다	-13.5929
스토	-13.593
▁잘려	-13.5932
려줄	-13.5934
물거	-13.5934
▁보냈으	-13.5934
척수	-13.5937
ion	-13.5949
▁다급	-13.5952
증거	-13.5956
▁므	-13.596
강제	-13.5963
▁주저리	-13.597
▁용수	-13.5971
추가	-13.5975
비어	-13.5976
▁저울	-13.5985
방문	-13.5985
하층	-13.5987
▁차림	-13.5989
1570	-13.5993
▁rankingSe	-13.5994
▁쿵	-13.6
리스	-13.6003
대감	-13.601
▁트레	-13.6015
▁떠난다	-13.6015
이소	-13.6017
▁홍수	-13.6022
▁쩌	-13.6029
전제	-13.6031
▁줍니	-13.6033
럴까	-13.6041
▁181	-13.6042
▁적대	-13.6045
버립니다	-13.6049
se	-13.6051
듭니다	-13.6053
korea	-13.6054
위성	-13.6054
▁섣	-13.6055
▁성산	-13.6057
▁영치	-13.606
▁김광	-13.6061
▁159	-13.6062
메이	-13.6066
▁이겁니다	-13.607
소시	-13.6076
▁못할까	-13.609
대부	-13.6091
▁할부	-13.6095
▁수형	-13.6096
▁고가	-13.6098
▁분사	-13.6102
▁군무	-13.6109
PA	-13.611
ight	-13.6114
▁우러	-13.6116
정상	-13.612
▁물렁	-13.6121
▁143	-13.6123
▁텔	-13.6124
▁신자	-13.6129
▁주례	-13.6131
따른	-13.6131
으리	-13.6135
▁집무	-13.6142
세웠	-13.6146
▁불러들	-13.6155
398	-13.6161
▁DT	-13.6161
▁트러	-13.6166
불명	-13.6181
사퇴	-13.619
▁135	-13.6191
▁미스	-13.6196
민정	-13.6198
소지	-13.6213
os	-13.6214
▁MD	-13.6216
기자	-13.6218
파괴	-13.6227
▁꼭두	-13.6229
으라고	-13.6233
광우	-13.624
▁됐으	-13.6243
45	-13.6245
옴	-13.6246
▁960	-13.6257
▁엄동	-13.6263
▁으십	-13.6272
▁가려져	-13.628
▁신화	-13.6282
발상	-13.6284
체육	-13.6287
▁세운다	-13.629
면적	-13.6298
▁삼켜	-13.6298
▁불상	-13.6303
▁사사로	-13.6304
목적	-13.6311
천동	-13.6314
▁잏	-13.6317
뼛	-13.6319
的	-13.632
갗	-13.632
겔	-13.632
겜	-13.632
늪	-13.632
멎	-13.632
엥	-13.632
욧	-13.632
쥴	-13.632
칵	-13.632
켈	-13.632
힝	-13.632
herald	-13.632
IVE	-13.6324
top	-13.6325
프란	-13.6327
uid	-13.6328
▁바뀐다	-13.6332
▁그물	-13.6335
▁xxx	-13.6336
난다	-13.6336
턴트	-13.6337
▁듵	-13.6338
▁땄	-13.6338
▁띁	-13.6338
▁슛	-13.6338
▁켯	-13.6338
▁爲	-13.6338
▁잼	-13.6338
▁혓	-13.6338
▁주웠	-13.6343
▁냐니	-13.6347
▁됩	-13.6348
▁뭘까	-13.6349
담배	-13.635
여사	-13.6353
▁여덟	-13.6353
▁페넴	-13.6353
▁뻥뻥	-13.6353
▁틈틈	-13.6354
1000	-13.6354
▁썹테	-13.6354
▁어쨌	-13.6354
▁담뱃	-13.6354
▁TW	-13.6354
▁벅찬	-13.6355
▁훔친	-13.6355
▁행자	-13.6357
단점	-13.6357
▁샌드	-13.6357
▁정들	-13.6358
▁용융	-13.6359
려보	-13.6361
▁골몰	-13.6362
▁sub	-13.6362
▁판타지	-13.6362
▁팔달구	-13.6363
▁ebs	-13.6363
723	-13.6363
▁웃도	-13.6363
나온	-13.6365
▁떠넘겨	-13.6365
▁시덥	-13.6365
▁칠곡	-13.6365
▁웃겨	-13.6366
▁페널	-13.6366
내려	-13.6367
▁몸서리	-13.6367
▁물러났	-13.6367
▁감가상각	-13.6367
▁wiki	-13.6367
▁빼앗겨	-13.6368
▁자원입대	-13.6368
▁post	-13.6368
▁기정사실	-13.6368
▁잡힙니다	-13.6369
▁거들먹	-13.6369
BO	-13.6371
▁통치권	-13.6372
▁해줄테	-13.6373
▁그럴듯	-13.6373
▁생길까	-13.6375
▁끼쳐	-13.6376
▁채찍	-13.6376
▁쫓겨날	-13.6376
▁환골	-13.6377
▁고쳐져야	-13.6377
▁추켜세	-13.6377
▁벌어집니다	-13.6379
▁살립시다	-13.638
▁어두워	-13.6381
▁얼만큼	-13.6381
▁송림	-13.6382
▁보냅시다	-13.6384
▁둘레	-13.6385
리본	-13.6387
▁드러낸	-13.6389
▁term	-13.6389
콘서트	-13.639
▁역무원	-13.6391
AE	-13.6392
▁만든다는	-13.6395
▁213	-13.6396
▁코리	-13.6398
나왔	-13.6398
▁bbs	-13.6403
▁끌어들여	-13.6406
▁찌질	-13.6406
누가	-13.6407
▁아낀	-13.6408
ing	-13.641
▁무서워요	-13.6411
▁writ	-13.6411
시당	-13.6413
▁검침	-13.6414
열심	-13.6415
▁헤어진	-13.6417
현장	-13.6417
▁EU	-13.6418
▁좌익	-13.6428
▁아슬	-13.6428
▁휴교	-13.6428
구속	-13.643
▁어지러워	-13.6431
▁경공	-13.6431
▁떠올라	-13.6432
▁기해	-13.6436
부당	-13.6438
▁148	-13.6438
mo	-13.6439
▁새겨들	-13.6445
▁발작	-13.6446
하우스	-13.6447
수준	-13.6451
▁밀어부	-13.6458
▁전합니다	-13.6458
▁다이아	-13.646
▁연좌	-13.6461
▁버틴다	-13.6466
▁여깁니다	-13.6467
▁어학	-13.6468
▁성의	-13.6468
퇴근	-13.6469
보고	-13.6472
▁두서	-13.6475
주장	-13.6479
▁1900	-13.648
▁뚝딱	-13.648
BK	-13.6483
▁호소문	-13.6485
▁종묘	-13.6488
가상	-13.649
찍	-13.6492
▁발광	-13.6492
▁셨으니	-13.6493
▁총격	-13.6495
해집니다	-13.65
▁모일	-13.6501
강석	-13.6503
버려	-13.6504
▁박주	-13.6505
437	-13.6509
▁으셨을	-13.6515
▁들통	-13.6518
▁정맥	-13.652
서로	-13.6521
ist	-13.6521
▁폭포	-13.6521
▁누누	-13.6523
▁타산	-13.6525
냄	-13.6525
민호	-13.654
4000	-13.654
41	-13.654
▁유심	-13.6541
▁124	-13.6541
▁익혀	-13.6542
▁망양	-13.6545
변제	-13.6546
독립	-13.6548
▁920	-13.6549
do	-13.6553
리케	-13.6553
중고	-13.656
▁CN	-13.6561
▁그랜	-13.6562
도둑	-13.6564
▁ar	-13.6564
om	-13.6564
▁142	-13.6566
▁장태	-13.6577
수작	-13.6578
▁KC	-13.6581
▁법전	-13.6583
라고요	-13.6584
▁主	-13.6584
▁뒀	-13.6586
▁요충	-13.659
▁미봉	-13.6591
964	-13.6593
▁엮여	-13.6599
육사	-13.6599
▁용병	-13.6603
▁정육	-13.6606
▁과포	-13.6609
023	-13.661
당신	-13.6613
▁유식	-13.6616
▁수련	-13.6617
▁경황	-13.6619
동의	-13.6619
이건	-13.662
▁감전	-13.6621
▁그럴려	-13.6623
▁로맨	-13.6631
md	-13.6648
겨져	-13.6655
▁함평	-13.6657
▁들어간다면	-13.6661
▁병목	-13.6663
뽀	-13.6667
세워	-13.6671
▁데려온	-13.6672
▁선서	-13.6673
레오	-13.6673
꼴	-13.6678
ste	-13.6679
ll	-13.6681
그럼	-13.6682
▁담겨져	-13.6684
▁297	-13.6687
th	-13.669
▁식목	-13.669
▁생각납니다	-13.6691
▁440	-13.6696
행동	-13.6705
셧	-13.6708
분열	-13.6709
▁거느	-13.6711
▁129	-13.6713
▁sun	-13.6714
▁韓	-13.6714
▁휙	-13.6714
▁킴	-13.6719
▁미아	-13.672
▁전정	-13.672
▁확증	-13.6726
른다는	-13.6728
연합	-13.6728
▁5060	-13.6732
▁여관	-13.674
방석	-13.6742
반포	-13.6742
▁돌려보	-13.6745
▁화랑	-13.6749
▁굵직	-13.6754
▁고쳤	-13.6755
▁갈릴	-13.6756
무서	-13.6756
▁메트	-13.6757
리즘	-13.6758
▁고무	-13.6758
▁전업	-13.676
라스	-13.6761
利	-13.6765
돗	-13.6765
그쳤	-13.6773
▁출금	-13.6774
權	-13.6777
퐁	-13.6777
▁희희	-13.6779
▁방망	-13.678
▁내놨	-13.6781
딧	-13.6781
거짓	-13.6784
▁미망	-13.6792
차선	-13.6794
▁붙들	-13.68
▁잊어	-13.6801
▁470	-13.6804
아슬	-13.6816
▁망합니다	-13.6819
AS	-13.6832
▁무당	-13.6833
814	-13.6833
린다면	-13.6836
33	-13.6838
▁FA	-13.6841
래서	-13.6841
▁오른다면	-13.6843
▁대덕	-13.6843
▁뻣	-13.6845
평등	-13.6855
▁모략	-13.6861
베스	-13.6866
▁해본다	-13.6868
▁쓰러질	-13.6868
▁간지	-13.6869
▁오창	-13.6889
페리	-13.6892
▁당산	-13.6894
▁알랑	-13.6894
이코	-13.6895
▁면사	-13.6895
▁오포	-13.6901
반응	-13.6905
결정	-13.6905
설치	-13.6906
국내	-13.6909
▁특산	-13.691
▁풍수	-13.691
윗	-13.6922
▁어여	-13.6924
▁실족	-13.6925
003	-13.6934
▁톱	-13.6936
▁아서라도	-13.694
▁소도	-13.6946
노릇	-13.6947
제시	-13.6949
경영	-13.695
▁fac	-13.6952
인원	-13.6952
▁매개	-13.6954
부산	-13.6959
▁상합니다	-13.6962
▁손모	-13.697
돼	-13.6974
▁쓰려	-13.6977
▁뚱	-13.6977
무총	-13.6978
▁짊어져	-13.6988
연락	-13.6999
보여	-13.7007
▁외과	-13.7008
796	-13.7012
▁해간	-13.7014
실직	-13.7017
깨우	-13.7028
32	-13.7031
▁자작	-13.7034
▁중화	-13.7036
▁삼국	-13.7038
▁개개	-13.7038
▁정강	-13.7041
마련	-13.705
288	-13.7056
여러분	-13.706
▁817	-13.7064
▁186	-13.7064
▁위키	-13.7065
▁연월	-13.7074
▁무화	-13.7076
▁7530	-13.7077
아동	-13.7081
로케	-13.7083
경화	-13.7083
▁국과	-13.7089
진실	-13.709
▁즐긴다	-13.7103
▁기우	-13.7107
강간	-13.7114
▁꿈틀	-13.7121
▁goo	-13.7122
RT	-13.7127
▁샌다	-13.7129
진짜	-13.7134
신용	-13.7135
진정	-13.7138
▁sr	-13.7146
▁sisa	-13.7149
2050	-13.7152
▁번돈	-13.7156
▁새내	-13.7159
▁진경	-13.7167
▁주어	-13.7171
▁분무	-13.7171
▁109	-13.7174
스트레	-13.7177
▁부탄	-13.7177
▁걸린다는	-13.7185
수시	-13.7188
▁으라면	-13.7197
▁실리	-13.72
센티	-13.7226
▁영통	-13.7228
je	-13.7232
젓	-13.7239
▁수그러	-13.7241
사과	-13.7241
▁디자	-13.7243
▁113	-13.7248
▁새요	-13.7251
▁편해	-13.7253
▁일파	-13.7256
▁레인	-13.7261
▁들락거	-13.7269
21	-13.7279
아프	-13.7283
▁방아	-13.7285
▁SS	-13.7287
▁GO	-13.7291
▁215	-13.7297
▁됫다	-13.7305
몰이	-13.731
67	-13.7311
▁모기	-13.7318
▁해줍니	-13.732
▁신제	-13.7321
▁ls	-13.7321
▁고엽	-13.7324
인명	-13.7325
35	-13.7326
▁sh	-13.7333
청소	-13.7344
정확	-13.7349
자택	-13.7368
▁무용	-13.737
특히	-13.7372
▁370	-13.7383
▁김선	-13.7394
▁미끄러	-13.7395
소개	-13.7396
82	-13.74
▁냈으니	-13.7411
▁418	-13.7411
프레	-13.7426
▁ps	-13.7428
서운	-13.7433
작동	-13.7434
으로서	-13.7437
춤	-13.7438
▁지급금	-13.7439
▁커진	-13.7443
승인	-13.7447
▁사로잡	-13.7448
가슴	-13.7452
장수	-13.7455
고픈	-13.7457
어려운	-13.7459
▁팔린다	-13.7462
pa	-13.7462
▁이릅니다	-13.747
▁드높	-13.7484
bo	-13.7484
지적	-13.7488
▁오호	-13.7493
▁방용	-13.7494
▁다달	-13.7497
ooper	-13.7502
▁유야	-13.7506
▁노현	-13.7507
▁칫	-13.7508
▁무서	-13.751
▁미역	-13.752
소식	-13.7521
여도	-13.7527
alia	-13.7527
▁넘어질	-13.7528
단속	-13.753
▁속한다	-13.7531
▁CF	-13.7539
▁가열	-13.7543
▁입출	-13.7547
ce	-13.7547
▁좋아할	-13.755
연중	-13.7554
▁이긴	-13.7555
▁원당	-13.7559
거든	-13.7564
어떻	-13.7573
▁들릴	-13.7575
bn	-13.7579
채용	-13.7579
▁비틀거	-13.7581
레일	-13.7587
공공	-13.76
중소기업	-13.761
▁299	-13.7617
▁우동	-13.7618
▁이여	-13.7622
▁나발	-13.7623
엿	-13.7624
39	-13.7629
▁전병	-13.7629
▁넘친다	-13.7633
▁동대	-13.7635
▁공훈	-13.7645
04	-13.7648
종교	-13.765
▁새워	-13.7653
▁악세	-13.7655
Ye	-13.766
청구	-13.7661
▁경련	-13.7662
▁대조	-13.7668
계획	-13.7674
▁급니다	-13.7683
223	-13.7698
313	-13.7706
▁올립	-13.7707
rd	-13.7708
▁bb	-13.7711
ib	-13.7714
▁페쇄	-13.7716
킵시다	-13.772
51	-13.772
nv	-13.7723
▁한다구	-13.7724
▁적격	-13.7726
테스	-13.773
▁샐	-13.773
▁로직	-13.773
▁전단	-13.7732
▁책임진	-13.7732
툴	-13.7734
▁자수	-13.7736
FI	-13.7737
▁퍼다	-13.7739
븐	-13.7739
▁헷	-13.7743
944	-13.7745
▁장순	-13.7747
▁멉	-13.7747
▁신교	-13.7747
껑	-13.7748
씸	-13.7748
▁有	-13.7748
▁샴	-13.7748
▁좇	-13.7748
地	-13.7748
文	-13.7748
法	-13.7748
깟	-13.7748
깰	-13.7748
껐	-13.7748
낟	-13.7748
냔	-13.7748
땔	-13.7748
랖	-13.7748
숟	-13.7748
잤	-13.7748
쩨	-13.7748
챘	-13.7748
탭	-13.7748
퉈	-13.7748
▁풉	-13.7748
듧	-13.7748
play	-13.7748
Inf	-13.7748
plan	-13.7748
PPL	-13.7748
▁파우	-13.7752
공제	-13.7754
스턴트	-13.7754
▁ID	-13.7755
베이터	-13.7755
read	-13.7763
▁daily	-13.7765
755	-13.7766
▁호시	-13.7769
TY	-13.7769
▁군주	-13.7771
ustr	-13.7774
▁의아	-13.7777
▁뚤	-13.7777
▁촟불	-13.7778
▁뻐젓	-13.7778
▁덤벼	-13.7778
스카	-13.7779
▁윽박	-13.7779
▁홧병	-13.7779
▁베푸	-13.778
▁려구	-13.778
▁펼쳤	-13.7781
▁김세	-13.7781
▁태릉	-13.7782
해라	-13.7784
▁갖춰져	-13.7784
▁됩시다	-13.7786
▁두루뭉	-13.7786
▁오페라	-13.7786
▁뚤어뻥	-13.7786
▁콩나물	-13.7786
▁준결승	-13.7786
▁보광동	-13.7786
▁돌팔매	-13.7787
▁눈여겨	-13.7787
▁호매실	-13.7787
Main	-13.7788
▁쑥대	-13.7788
삶	-13.7788
▁메아리	-13.7788
설수	-13.7789
▁부끄럼	-13.7789
▁쪽팔려	-13.7789
▁들락날락	-13.7791
▁견딥니다	-13.7791
▁찢어져	-13.7791
▁유의	-13.7793
▁흩어	-13.7794
▁donga	-13.7794
▁video	-13.7794
▁popul	-13.7794
▁괴롭힙니다	-13.7795
군가	-13.7795
▁다칠까	-13.7796
▁울립니다	-13.7797
▁ywfjJY	-13.7797
▁Market	-13.7797
사냥	-13.7797
▁가벼워	-13.7798
▁드러납니다	-13.7798
▁시달립니다	-13.7798
▁crp	-13.7799
▁물리치료	-13.7801
▁잃어버려	-13.7801
▁넘칩니다	-13.7802
▁찌른	-13.7802
▁쌍두	-13.7806
onhap	-13.7806
▁호치	-13.7808
▁깨져	-13.7809
▁남겨져	-13.7809
▁EUR	-13.781
▁친해	-13.781
헐	-13.781
▁싸가	-13.7811
▁전두	-13.7811
899	-13.7812
▁잔존	-13.7813
▁돌팔	-13.7814
▁발화	-13.7814
▁1327	-13.7815
▁외친	-13.7815
▁빨간불	-13.7816
▁격납	-13.7817
ese	-13.782
wit	-13.782
▁베타	-13.7823
현석	-13.7826
호위	-13.7827
▁리필	-13.7829
살인	-13.7829
▁뜸	-13.7832
▁맹신	-13.7836
▁을지로	-13.7842
1968	-13.7843
▁잃어버릴	-13.7844
▁순례	-13.7845
▁심기	-13.7846
▁닙니까	-13.7846
▁떨어뜨린	-13.7847
▁베드	-13.7848
▁홍익	-13.7849
드렸	-13.7861
▁느껴진다	-13.7861
일동	-13.7862
▁흐려진	-13.7862
▁저럴	-13.7865
디까	-13.7866
말라	-13.787
▁사우	-13.7871
카라	-13.7871
▁1700	-13.7873
▁유람	-13.7873
▁당한다	-13.7875
▁라든	-13.7878
▁vi	-13.7879
▁메타	-13.7881
▁145	-13.7883
▁는다면서	-13.7884
아산	-13.7885
▁시시	-13.7892
브레이크	-13.7897
▁왈가	-13.7897
▁쨉	-13.7898
▁태평	-13.7898
▁그칩니다	-13.7899
▁터득	-13.7899
DA	-13.79
판단	-13.7901
▁성장률	-13.7907
▁챙겨라	-13.7908
마을	-13.7909
▁the	-13.7911
병상	-13.7914
▁물리치	-13.792
대충	-13.7921
▁들러	-13.7921
▁기웃거	-13.7922
변경	-13.7923
의견	-13.7924
▁강정	-13.7927
▁떄리	-13.7928
▁복막	-13.793
지막	-13.7932
▁정춘	-13.7932
▁해줍	-13.7934
▁스터	-13.7938
▁상왕	-13.794
▁지나다	-13.7946
▁접해	-13.7946
▁거들	-13.7954
▁253	-13.7955
▁아가	-13.7958
▁황태	-13.7961
▁359	-13.7962
96	-13.7962
ung	-13.7963
▁했읍니다	-13.7963
▁붉어	-13.7965
현상	-13.7966
▁찬다	-13.7968
▁급작	-13.797
▁골통	-13.7973
▁자릿	-13.7974
▁장시	-13.7975
일관	-13.7975
▁쓸지	-13.7975
▁알린다	-13.7981
엄청	-13.7982
벙	-13.7984
지언	-13.7988
▁다른데	-13.7989
포장	-13.7989
알음	-13.799
▁없앤	-13.7991
▁걱	-13.7992
▁인솔	-13.7996
▁살찌	-13.7996
베리	-13.7997
oper	-13.8
준비	-13.8002
▁최고점	-13.8003
은데	-13.8004
▁탈영	-13.8005
▁긁어모	-13.8005
▁367	-13.8007
▁처박	-13.8007
와라	-13.8008
044	-13.8009
SV	-13.8011
▁파나	-13.8012
▁달린다	-13.8016
ay	-13.8016
▁한규	-13.8017
▁DE	-13.8021
▁테스	-13.8024
▁출정	-13.8025
▁개선책	-13.8027
597	-13.8029
oP	-13.803
▁좋아해	-13.803
정당	-13.8037
▁휩싸여	-13.8042
홍장	-13.8043
486	-13.8048
1890	-13.8049
▁끼여	-13.8049
뽑	-13.8051
1040	-13.8054
▁교황	-13.8057
▁560	-13.8058
▁마스	-13.8065
▁708	-13.8068
▁김석	-13.8068
386	-13.8072
아볼	-13.8073
브리	-13.8074
▁움직인다	-13.8075
무니	-13.8076
즐	-13.8078
▁꾸벅	-13.8081
▁AF	-13.8083
혀야	-13.8087
▁2200	-13.809
▁저랬	-13.8092
기회	-13.8094
중위	-13.8101
헌법	-13.8106
▁구구	-13.8116
▁풍속	-13.8116
▁중범	-13.8117
▁노름	-13.8119
▁달라진다	-13.8122
▁선봉	-13.8131
입원	-13.8132
▁왼손	-13.8133
수소	-13.8133
▁거울	-13.8136
131	-13.814
▁갈기	-13.8141
▁305	-13.8142
▁끝낸	-13.8144
lo	-13.8153
도저	-13.8155
▁비효	-13.8157
▁사생	-13.8161
재료	-13.8161
RP	-13.8163
텍	-13.8163
▁동절	-13.8165
처참	-13.8171
공학	-13.8173
▁때려치	-13.8174
▁비상시	-13.8176
▁삼산	-13.8179
▁알려질	-13.8181
▁논현	-13.8183
▁심층	-13.8187
▁외친다	-13.8188
▁고사	-13.8191
동성	-13.8193
단결	-13.8198
점점	-13.8199
▁빠져나간	-13.8204
▁광저	-13.8205
▁라더니	-13.821
달라	-13.8222
▁거름	-13.8228
부과	-13.823
인가요	-13.823
▁106	-13.8232
왈	-13.8238
▁건져	-13.8241
▁전해진	-13.825
▁완주	-13.8251
▁초저	-13.8253
자본	-13.8257
▁액면	-13.8259
▁생방	-13.8261
▁침전	-13.8263
석수	-13.8263
접수	-13.8266
▁구린	-13.8267
란히	-13.8269
▁범한	-13.8272
▁어휘	-13.8275
신안	-13.8278
▁246	-13.8279
▁번져	-13.8284
누르	-13.8286
▁만지	-13.8287
시스템	-13.8288
▁으라니	-13.8289
새우	-13.8291
▁덕수	-13.8292
호텔	-13.8299
▁이체	-13.83
똑같	-13.8304
▁차분	-13.8312
▁으리	-13.8313
▁낼려	-13.8317
▁생겼으	-13.8323
▁사오	-13.8323
쌍	-13.8324
경영학	-13.8325
2024	-13.8326
인사	-13.8328
▁시켰으	-13.8329
불구	-13.8329
▁올려라	-13.8331
▁지켜진	-13.8333
▁한솔	-13.8333
CIA	-13.8348
▁민속	-13.8349
상훈	-13.835
▁정종	-13.8353
▁효창	-13.8359
짬	-13.8359
잎	-13.837
▁요동	-13.8371
속도	-13.8372
스스	-13.8374
진술	-13.8377
팥	-13.8377
▁대지	-13.8379
hy	-13.8383
▁방범	-13.8385
▁수지	-13.8385
▁한통	-13.8393
러워서	-13.8393
5000	-13.8401
▁노려	-13.8405
▁소록	-13.8408
▁EN	-13.8413
▁처가	-13.8414
실제	-13.8417
▁닫혀	-13.8419
텀	-13.842
▁일으킨다	-13.8425
▁일확	-13.8432
천리	-13.8433
주인	-13.8436
▁산간	-13.8437
까스	-13.8437
▁205	-13.8442
▁복식	-13.8452
▁서약	-13.8457
트레일	-13.8457
ps	-13.8464
▁BC	-13.8465
풋	-13.847
네스	-13.8473
▁우글	-13.8477
저널	-13.8479
▁김혜	-13.8482
▁완도	-13.8483
▁견고	-13.8487
제이	-13.8487
중앙	-13.8498
▁그지	-13.8501
▁세차	-13.8504
▁2213	-13.8508
지하	-13.8523
54	-13.8537
▁중얼	-13.8538
▁깨트	-13.8541
경쟁	-13.8546
▁제련	-13.8548
▁191	-13.8551
ea	-13.8567
외국인	-13.857
러면	-13.8578
▁출하	-13.858
노인	-13.8586
ic	-13.8588
저녁	-13.8591
워진	-13.8591
2000	-13.8593
▁피지	-13.8593
▁용감	-13.8595
▁설쳐	-13.8599
▁th	-13.8604
난리	-13.8613
생겼	-13.8617
▁전일	-13.8622
▁병문	-13.8624
봉동	-13.8625
▁심해진	-13.8628
▁포크	-13.8628
▁부글	-13.8629
산소	-13.863
▁315	-13.863
▁단과	-13.8636
▁쉬우	-13.8636
충전	-13.8638
ENT	-13.864
어내	-13.8651
▁환경청	-13.8654
▁970	-13.8654
▁스러운데	-13.8663
▁003	-13.867
▁한달	-13.8671
us	-13.8671
만장	-13.8673
정거	-13.8677
작성	-13.8681
환영	-13.8682
써야	-13.8689
IP	-13.869
▁낙제	-13.8692
▁들어선다	-13.8693
▁전승	-13.8705
▁판공	-13.8707
류장	-13.8709
▁태연	-13.8711
얘	-13.8711
영구	-13.8712
▁불합	-13.8719
▁187	-13.8725
여동	-13.8726
힘든	-13.8727
▁랗	-13.8728
▁위압	-13.8729
슴	-13.873
서류	-13.8733
72	-13.8737
▁권선	-13.8746
법률	-13.875
살아	-13.8752
▁스카	-13.8756
▁이율	-13.8756
▁예속	-13.8763
▁문어	-13.8767
87	-13.8788
▁성가	-13.8792
▁92	-13.8794
▁이룬다	-13.8795
▁호신	-13.8805
비례	-13.8814
포함	-13.8815
기대	-13.8818
▁의석	-13.8818
박지	-13.882
▁정공	-13.8825
150	-13.8827
▁취한다	-13.8829
버릴	-13.8846
▁불협	-13.885
최소	-13.8856
들어	-13.8859
▁교역	-13.886
▁928	-13.8862
▁권미	-13.8865
어린이	-13.8866
44	-13.8868
무직	-13.8884
▁빈도	-13.8889
▁공의	-13.8891
▁기막	-13.8894
이치	-13.8899
195	-13.8902
▁소세	-13.8919
부단	-13.892
▁458	-13.8923
▁꼭꼭	-13.8924
▁뛰쳐나	-13.8929
로지	-13.8929
용차	-13.8946
드시	-13.895
▁여비	-13.895
온다면	-13.8953
▁514	-13.8957
▁기점	-13.896
78	-13.8961
안동	-13.8962
▁지나간다	-13.8968
키스	-13.897
르기	-13.8972
▁홈스	-13.8973
▁듀	-13.8973
외법	-13.8974
인식	-13.8979
▁쳐진	-13.8981
▁고도	-13.8988
보일러	-13.8989
▁강해져	-13.899
▁cp	-13.8995
▁췌	-13.9005
▁ss	-13.9014
▁트랙	-13.902
▁드릴까	-13.9022
▁미운	-13.9024
▁발라	-13.9026
▁보물	-13.9032
매점	-13.9032
였으나	-13.9039
▁마티	-13.9052
지켜	-13.9063
▁가본	-13.9064
▁허물어	-13.9067
소기업	-13.9069
▁하층	-13.9071
▁비뚤	-13.9072
계산	-13.9072
▁삼천	-13.9073
직업	-13.9074
알려	-13.9075
룬	-13.9076
▁근현	-13.9085
전관	-13.9094
어린	-13.9102
청장	-13.9105
▁김형	-13.9129
▁cf	-13.9134
▁시어머	-13.9135
mail	-13.9137
▁안식	-13.9144
블레	-13.915
▁대림	-13.9151
으리라	-13.9153
진보	-13.9154
▁턴	-13.9165
손해	-13.9171
▁짊	-13.9172
▁분별	-13.9177
야합	-13.9181
아닙니까	-13.9182
▁TF	-13.9182
917	-13.9185
과거	-13.9187
스포츠	-13.9187
ET	-13.9188
꿔	-13.9189
▁끗	-13.9191
수수	-13.9197
입주	-13.9202
보자	-13.9206
▁빈틈	-13.9209
▁받아들인	-13.9209
▁들먹	-13.9211
▁봇	-13.9213
▁구설	-13.9218
담당	-13.9219
라구	-13.922
▁늘여	-13.9221
▁동년	-13.9226
스테이	-13.923
▁공공복	-13.9231
▁등신	-13.9232
▁끊임	-13.9236
▁돌아온다	-13.9239
▁받친	-13.925
▁누린	-13.9253
▁고리대금	-13.9258
ome	-13.9262
333	-13.9265
▁놧	-13.9267
소설	-13.9267
▁부쳐	-13.9268
방안	-13.9268
▁김홍	-13.9269
hd	-13.9269
▁zo	-13.9274
▁264	-13.9283
그럽	-13.9285
육계	-13.9286
▁406	-13.9288
공훈	-13.9292
절히	-13.9294
준다는	-13.9295
가짐	-13.9295
▁말끔	-13.9301
후원	-13.9308
워져	-13.9311
▁최경	-13.9314
▁살아난	-13.9317
문재	-13.9318
십만	-13.933
PI	-13.933
▁터부	-13.9344
▁호국	-13.9345
▁덮어씌	-13.935
무진	-13.9355
▁pr	-13.9356
인터	-13.936
생방	-13.9362
납부	-13.9362
▁CI	-13.9362
윤경	-13.9365
▁설레	-13.9366
▁개수	-13.937
떤	-13.9371
신탁	-13.9371
▁NB	-13.9373
▁기다린다	-13.9375
서윤	-13.9377
▁126	-13.9378
▁아녀	-13.9378
긴다	-13.9379
▁생수	-13.9386
49	-13.9389
전철	-13.9391
재정	-13.9399
▁아부	-13.9401
▁통역	-13.9405
0000	-13.9405
보장	-13.9406
였으며	-13.941
▁김소	-13.941
▁홧	-13.9413
쩝	-13.9415
▁몾	-13.9415
킷	-13.9415
pharm	-13.9415
▁民	-13.9415
▁馬	-13.9415
▁꺠	-13.9415
▁뗀	-13.9415
▁띈	-13.9415
▁뺴	-13.9415
▁옭	-13.9415
▁촐	-13.9415
▁푯	-13.9415
们	-13.9415
她	-13.9415
死	-13.9415
現	-13.9415
겆	-13.9415
꿩	-13.9415
넵	-13.9415
듐	-13.9415
띔	-13.9415
멩	-13.9415
빋	-13.9415
뺒	-13.9415
뿍	-13.9415
솎	-13.9415
썸	-13.9415
옅	-13.9415
졍	-13.9415
퀘	-13.9415
퀸	-13.9415
톰	-13.9415
휜	-13.9415
tap	-13.9415
enter	-13.9416
lsi	-13.9417
▁이만	-13.9419
스펀	-13.9422
주치	-13.9423
▁121	-13.9428
관심	-13.943
전속	-13.9431
▁퍼스	-13.9431
▁뿌러	-13.9439
▁빳	-13.944
▁젏은	-13.944
▁겉핥	-13.944
▁뿔뿔	-13.944
사망	-13.944
수신	-13.9442
▁LA	-13.9443
▁통솔	-13.9443
▁톡톡	-13.9444
▁치룬	-13.9445
▁벙커	-13.9446
코니	-13.9446
▁박람회	-13.9447
▁챔피언	-13.9447
▁THE	-13.9447
▁까마득	-13.9447
▁스티븐	-13.9447
▁됌니다	-13.9447
▁img	-13.9447
▁비뇨기	-13.9447
▁biz	-13.9447
▁둘러쌓	-13.9448
▁멈춘	-13.9448
▁쪼그라	-13.9448
▁후벼	-13.9449
▁마귀	-13.945
▁집어삼	-13.9451
▁gk	-13.9451
▁응어리	-13.9451
피드	-13.9452
▁아킬레스	-13.9452
▁구구절절	-13.9452
▁애매모호	-13.9452
AD	-13.9452
▁노랫	-13.9453
▁어줍	-13.9453
▁jp	-13.9453
▁배웁니다	-13.9453
▁찹	-13.9453
▁아나키	-13.9453
▁모릅니까	-13.9454
▁보호관찰	-13.9454
▁뒤로	-13.9455
anews	-13.9455
▁크리스	-13.9455
▁goods	-13.9455
▁캘리포니아	-13.9455
▁크리스마스	-13.9455
▁독립선언	-13.9456
▁멋모르	-13.9457
국사	-13.9457
▁minwon	-13.9458
▁오리온	-13.9458
▁겁납니다	-13.9459
▁튀어나와	-13.946
▁버거워	-13.946
▁색채	-13.946
▁피지배	-13.9461
836	-13.9462
▁잡아들여	-13.9464
▁문드러	-13.9464
▁헷갈려	-13.9465
▁비껴	-13.9466
▁외칩니다	-13.9467
▁SPC	-13.9468
▁2018062	-13.9468
▁날아온	-13.9469
▁찍힐	-13.9469
▁9900	-13.9469
▁커집니다	-13.947
▁찾아다	-13.9473
▁협잡	-13.9475
▁깨졌	-13.9475
▁소시	-13.9479
▁갈립니다	-13.9479
이비	-13.9481
심성	-13.9481
▁끄적	-13.9483
▁알바라	-13.9484
▁콜레	-13.9487
▁몽실	-13.9487
▁513	-13.9488
사진	-13.9489
▁초콜	-13.9493
▁다를까	-13.9494
▁졋고	-13.9496
▁소립니다	-13.9496
행복	-13.9501
▁불립니다	-13.9504
▁서신	-13.9515
▁정청	-13.9516
▁강효	-13.9521
▁빨려	-13.9522
는데요	-13.9523
010	-13.9524
보험공	-13.9524
▁효능	-13.9526
▁발가벗	-13.9532
▁조양	-13.9533
▁해봅시다	-13.9537
렷	-13.954
▁완산	-13.9543
▁가까울	-13.9544
상호	-13.9544
▁으련	-13.9547
897	-13.955
226	-13.955
▁김숙	-13.9559
▁II	-13.9564
▁615	-13.9568
▁김승	-13.957
▁페미나	-13.9574
▁경광	-13.9575
이어	-13.9575
▁총포	-13.9577
▁無	-13.9583
▁찡	-13.9583
▁헉	-13.9583
시급	-13.9588
▁소득세법	-13.9589
▁심해요	-13.9591
▁519	-13.9592
제출	-13.9592
어져	-13.9594
▁아첨	-13.9596
▁sho	-13.9597
▁럼	-13.9599
▁뛰어든	-13.96
▁퍼집니다	-13.9603
▁단백	-13.9608
박근	-13.9609
▁자책	-13.9609
진데	-13.961
▁잡곡	-13.9613
▁양봉	-13.9616
▁171	-13.9616
러졌	-13.9618
▁161	-13.962
▁딸려	-13.9624
▁젓가락	-13.9624
▁실리콘	-13.9624
▁원작	-13.9625
▁일어날까	-13.9629
▁결승	-13.963
아닌가요	-13.963
▁거침없	-13.963
자산관리	-13.9633
▁조망	-13.9636
유정	-13.9642
▁꺼낸	-13.9644
분리	-13.9645
▁좁혀	-13.9646
▁순교	-13.9649
응답	-13.9649
▁송지	-13.9649
use	-13.965
1805	-13.9654
▁짜집	-13.9654
▁달립니다	-13.9657
▁엇갈	-13.9661
▁가급	-13.9663
▁고리대금업	-13.9664
Ti	-13.9672
끌려	-13.9673
제공	-13.9675
▁아야지요	-13.9676
1808	-13.9679
▁닥쳐	-13.9681
▁최승	-13.969
▁거립니다	-13.969
스피	-13.9691
▁영락	-13.9693
▁가르친다	-13.9694
캐	-13.97
▁집어던	-13.9705
▁돌아간	-13.9707
▁민병	-13.9707
냐고	-13.9707
▁구좌	-13.9709
▁잡혀야	-13.9709
▁쪼들	-13.9715
919	-13.9716
▁낄	-13.9718
▁집어치	-13.9719
▁042	-13.9721
ION	-13.9722
▁진퇴	-13.9723
영학	-13.9724
는가	-13.9726
▁싫어한다	-13.9736
사오	-13.9738
▁285	-13.9738
느냐	-13.9745
▁잡아들	-13.9745
▁다는군요	-13.9745
▁마네	-13.9749
sn	-13.9753
▁키스	-13.9756
▁선납	-13.9762
▁깽	-13.9763
▁웍	-13.9763
▁근시	-13.9763
▁화순	-13.9763
간다는	-13.9769
고압	-13.9775
▁미지	-13.9779
▁사신	-13.9786
부탁드립니다	-13.9787
▁AP	-13.9793
544	-13.9796
보신	-13.9797
▁껑충	-13.9799
▁장영	-13.98
▁SCI	-13.9802
▁잘나	-13.9804
ill	-13.9805
▁순회	-13.9809
▁박현	-13.9813
▁STO	-13.9814
▁섣부	-13.9815
▁하와이	-13.9818
▁바꿈	-13.9824
▁happy	-13.9828
주파	-13.9828
▁홀리	-13.983
▁잊혀진	-13.9831
▁고래	-13.9832
▁cid	-13.9836
존재	-13.9836
법체	-13.9839
▁굽실	-13.9839
개정	-13.984
▁혹한	-13.9845
닷	-13.9846
▁면허세	-13.9847
▁보여진다	-13.9849
더드	-13.9858
외국	-13.9862
해질	-13.9867
▁총계	-13.9869
▁뽑혀	-13.9872
▁백미	-13.9876
▁최규	-13.9879
롤	-13.9882
▁243	-13.9884
야겠다	-13.9884
▁쌉니다	-13.9885
RS	-13.9887
▁233	-13.9889
지출	-13.9892
▁상륙	-13.9893
47	-13.9896
▁포식	-13.9897
파릇	-13.9899
▁정승	-13.9899
으리라고	-13.9905
▁248	-13.9909
본색	-13.991
our	-13.9911
빅	-13.9911
공부	-13.9918
태평양	-13.9919
전방	-13.992
▁외로	-13.9921
▁일인	-13.9923
▁환각	-13.9927
▁nw	-13.9929
걱정	-13.9933
▁침소	-13.9938
▁GD	-13.9938
정동	-13.9945
▁잡아당	-13.9946
250	-13.9948
으면서도	-13.9952
배정	-13.9953
▁변영	-13.9954
▁동떨어	-13.9961
인플레이	-13.9963
도박	-13.9963
ull	-13.9963
▁755	-13.9965
▁시나	-13.9966
박이	-13.9968
▁dc	-13.9969
▁측은	-13.9969
▁할애	-13.9973
▁검단	-13.9982
▁모른다면	-13.9987
신조	-13.9987
▁조개	-13.9988
▁마술	-13.9989
▁독신	-13.999
▁부산진	-13.9995
▁247	-13.9996
▁총책	-14.0002
파일	-14.0005
ory	-14.0016
타이	-14.003
▁삼중	-14.003
▁좀벌	-14.0032
▁남긴다	-14.0036
켜져	-14.0044
▁서산	-14.0044
급행	-14.0044
▁부과금	-14.0047
▁젝	-14.0051
▁할려구	-14.0054
▁고르	-14.0055
태양	-14.006
▁케하	-14.0061
▁표리	-14.0063
인위	-14.0065
oun	-14.0065
건지	-14.0067
▁고스	-14.0072
▁세라	-14.0074
▁살아난다	-14.0074
격상	-14.0075
봐요	-14.0076
근데	-14.0083
착용	-14.0084
쳐져	-14.0086
numb	-14.0087
ka	-14.0091
▁김판	-14.0097
▁시그	-14.0099
한지	-14.0102
▁포고	-14.0102
특별	-14.0105
▁부동	-14.0111
▁지부	-14.0118
▁메가	-14.0118
▁나자빠	-14.0121
▁여긴다	-14.0122
파기	-14.0122
▁꽝	-14.0129
관념	-14.0131
▁134	-14.0136
▁780	-14.0137
▁달아	-14.0146
▁의인	-14.0146
▁403	-14.0151
설렁	-14.0152
IG	-14.0152
▁성주	-14.0155
OC	-14.016
뱅	-14.0168
▁여단	-14.0172
▁오송	-14.0177
▁나사	-14.0179
▁다룬	-14.0183
ON	-14.0184
▁양계	-14.0186
갑상선	-14.0186
임대	-14.0196
▁2018122	-14.0202
불가	-14.0203
▁크론	-14.0203
▁서남	-14.0204
▁빈정	-14.0208
▁762	-14.0211
▁하도	-14.0221
▁피보	-14.0232
▁Ch	-14.0233
▁부귀	-14.0234
담당자	-14.0238
▁하지	-14.0243
015	-14.0245
랩	-14.0245
냅니다	-14.0249
536	-14.0251
됐	-14.0258
▁부존	-14.0264
쏙	-14.0264
▁안마	-14.0276
강화	-14.028
▁앞선다	-14.0282
▁이럴진	-14.0292
교차	-14.0293
꼐	-14.0294
▁치상	-14.0297
결혼	-14.0301
다녀	-14.0309
빈둥	-14.0312
▁솥	-14.0315
30000	-14.0317
81	-14.0321
혼자	-14.0321
▁부랑	-14.0322
▁들으	-14.0325
안정	-14.0325
펄	-14.0334
▁쫒아내	-14.0339
볶	-14.0351
할까	-14.0353
재수	-14.0359
▁정박	-14.0359
710	-14.0366
▁받아들여져	-14.0368
366	-14.0372
▁따돌	-14.0375
▁혈통	-14.0376
sl	-14.038
國	-14.039
엾	-14.039
▁대의	-14.039
시금	-14.039
▁귀기	-14.0391
▁오마	-14.0392
샌	-14.0393
▁소라	-14.0393
▁허덕여	-14.0394
▁러시	-14.0394
소비	-14.0396
멧	-14.0403
1918	-14.0403
나타	-14.0403
▁eg	-14.0405
앰	-14.0408
▁럿	-14.0409
en	-14.0411
sk	-14.0411
대륙	-14.0414
국주의	-14.0415
솥	-14.0416
토지	-14.0422
▁신격	-14.0425
친다	-14.0426
지없	-14.0431
▁568	-14.0433
과천	-14.0434
▁청개	-14.0434
▁db	-14.0437
손님	-14.0438
▁li	-14.0439
up	-14.0453
▁창제	-14.0456
▁편집국	-14.0459
청산	-14.0461
▁독차	-14.0461
아다니	-14.0461
조기	-14.0461
▁문형	-14.0471
▁급상	-14.0471
214	-14.0475
온천	-14.0475
▁돌린다	-14.0476
재석	-14.0479
▁밝힌다	-14.0479
ite	-14.048
▁구한다	-14.0486
▁저게	-14.0486
▁은둔	-14.0487
거주	-14.0488
BL	-14.049
지휘	-14.0493
973	-14.0494
▁가압	-14.0494
동호	-14.0494
▁플로	-14.0506
930	-14.0508
▁장단	-14.051
든가	-14.0513
▁283	-14.0514
▁꺼진	-14.0514
▁빌려다	-14.0518
▁je	-14.0522
617	-14.0522
여객	-14.0523
▁SB	-14.0526
를테	-14.0533
ur	-14.0541
대포	-14.0542
tn	-14.0543
공인	-14.0543
▁자포	-14.0552
녔	-14.0556
안무	-14.0562
167	-14.0567
화교	-14.057
상관	-14.0573
omin	-14.0584
불복	-14.0586
GO	-14.059
▁와이	-14.0592
완전	-14.0598
라니요	-14.0604
비슷	-14.061
노동자	-14.061
둘러	-14.0618
선동	-14.0619
▁익사	-14.0622
만족	-14.0627
라보	-14.0629
▁쯧쯧	-14.0637
▁바꿀려	-14.0638
피난	-14.065
미타	-14.0663
피스	-14.0664
▁고열	-14.0668
희망	-14.067
▁무거	-14.0671
▁날라다	-14.0672
언니	-14.068
▁020	-14.0686
불기	-14.0688
▁009	-14.0688
939	-14.0698
겨워	-14.07
사임	-14.0713
자부	-14.0723
이전	-14.0728
▁경전	-14.0729
▁원유	-14.073
못한	-14.0732
▁의외	-14.0736
사카	-14.0738
성원	-14.0741
▁베스	-14.0742
▁부주	-14.0746
254	-14.0747
근거	-14.0751
▁반민	-14.0752
필수	-14.0753
게요	-14.0758
188	-14.076
가진	-14.0761
산리	-14.0765
기록	-14.0772
기계	-14.0779
쓰레기	-14.0779
▁길음	-14.0784
대신	-14.0787
판매	-14.0787
노이	-14.0789
불편	-14.0789
▁Io	-14.0794
훨	-14.08
▁거린	-14.0806
▁대분	-14.0811
62	-14.0812
친다고	-14.0814
그나	-14.0825
▁행신	-14.0825
▁한림	-14.0827
650	-14.0829
lt	-14.0831
▁테니	-14.0831
▁준우	-14.0833
▁수뇌	-14.0835
네비	-14.0837
▁외계	-14.0844
참여	-14.0845
아갑니다	-14.0849
낸다	-14.0851
으실	-14.0853
▁유원	-14.0855
고층	-14.0863
85	-14.0866
▁인디	-14.0866
▁CO	-14.0872
▁대들	-14.0874
oo	-14.0878
▁안다면	-14.0884
시청	-14.0887
▁게으	-14.089
▁228	-14.0896
면피	-14.0899
무럭	-14.09
▁부린다	-14.0902
2016	-14.0903
▁농어	-14.0904
검토	-14.0912
이름	-14.0934
화기	-14.0935
▁Rep	-14.0936
회원	-14.0937
전체	-14.0938
면목	-14.094
▁돌려준다	-14.0944
ak	-14.0953
임자	-14.0954
모리	-14.0957
sv	-14.0958
▁일테	-14.0965
자격	-14.0967
▁자급	-14.0973
▁원창	-14.0978
▁nc	-14.098
▁366	-14.0981
▁bu	-14.0988
올립니다	-14.0993
▁들떠	-14.0995
으로써	-14.0997
▁374	-14.1001
▁그제	-14.1012
증명	-14.1012
▁유토	-14.1019
매일	-14.1019
▁샾	-14.1021
▁김철	-14.103
배당	-14.1039
▁바글	-14.1043
▁간경	-14.1049
화재	-14.1053
▁아우	-14.1054
통나	-14.1054
▁178	-14.1054
il	-14.1055
아하	-14.1056
강식	-14.1057
▁치운	-14.1058
▁알아차	-14.1059
▁넘어뜨	-14.1059
모자	-14.1061
자세	-14.1064
▁원산	-14.1065
816	-14.1068
조인	-14.107
▁Read	-14.1073
▁gs	-14.1081
어설	-14.1083
집권	-14.1086
시마	-14.1089
▁269	-14.109
반성	-14.1093
▁쑥	-14.1096
죽이	-14.1099
74	-14.1109
▁CS	-14.1113
답답	-14.1115
송사	-14.1119
tin	-14.1122
▁선교	-14.1124
▁청했	-14.1129
▁누린다	-14.1136
▁애처	-14.1138
예의	-14.1138
▁딧나	-14.1141
▁불경	-14.115
ani	-14.1158
▁시스	-14.1159
않되	-14.1159
▁바비	-14.1163
유치원	-14.1164
철저	-14.1166
티스	-14.1166
▁드실	-14.1168
소수	-14.117
▁ty	-14.1192
▁빈자	-14.1193
▁벼락	-14.1199
▁쫓아다	-14.1209
닙니다	-14.1211
▁공양	-14.1218
▁pho	-14.1219
닙니까	-14.1221
▁된단	-14.1226
든다는	-14.1231
▁깎여	-14.1235
앤	-14.1237
▁한탕	-14.1241
구먼	-14.1242
설명	-14.1243
88	-14.1251
▁끽	-14.1255
▁프라	-14.1256
할아	-14.1262
▁3750	-14.1269
IR	-14.1273
CC	-14.1274
▁메달리	-14.1274
MS	-14.1275
985	-14.1284
276	-14.1284
▁끝났으	-14.1285
태프	-14.1286
pan	-14.1288
▁미성	-14.1296
782	-14.1296
어짐	-14.1297
호남	-14.1302
523	-14.1312
com	-14.1315
5600	-14.132
자동	-14.1321
▁전사	-14.1327
▁107	-14.1329
▁터뜨	-14.1334
▁201807	-14.1341
는다	-14.1342
▁구세	-14.1344
▁452	-14.1346
봉수	-14.1347
84	-14.135
▁형무	-14.1355
▁석수	-14.1358
▁들어라	-14.1361
154	-14.1372
보디	-14.1373
▁js	-14.1378
ub	-14.1382
▁ac	-14.1385
질주	-14.139
다던지	-14.1395
▁쳣	-14.1396
▁18000	-14.1398
▁모리	-14.14
뎌	-14.1404
▁뒤흔	-14.1407
덯	-14.1414
▁윾	-14.1414
port	-14.1415
▁COPY	-14.1415
▁웟	-14.1415
docdoc	-14.1415
▁學	-14.1415
▁日	-14.1415
▁水	-14.1415
▁漢	-14.1415
▁깉	-14.1415
▁꽈	-14.1415
▁넹	-14.1415
▁떧	-14.1415
▁뜁니다	-14.1415
▁몀	-14.1415
▁뫼	-14.1415
▁부엌	-14.1415
▁뾰	-14.1415
▁욜	-14.1415
▁우국충정	-14.1415
▁웜	-14.1415
▁쳇	-14.1415
▁틔	-14.1415
▁휼륭	-14.1415
事	-14.1415
如	-14.1415
對	-14.1415
島	-14.1415
来	-14.1415
罪	-14.1415
갠	-14.1415
괌	-14.1415
녜	-14.1415
뎠	-14.1415
땃	-14.1415
뗐	-14.1415
랠	-14.1415
뵐	-14.1415
슥	-14.1415
쌰	-14.1415
얗	-14.1415
엡	-14.1415
챗	-14.1415
첵	-14.1415
쳔	-14.1415
튿	-14.1415
훤	-14.1415
▁트랜스	-14.1415
얏	-14.1415
▁밞	-14.1415
egal	-14.1415
▁꼬드겨	-14.1415
ture	-14.1415
▁으르렁	-14.1415
▁어정쩡	-14.1415
▁아메리카	-14.1415
▁짬뽕	-14.1415
▁맞닥뜨	-14.1415
▁최윤철	-14.1415
tag	-14.1415
▁센트럴	-14.1415
health	-14.1415
▁옵소서	-14.1415
▁gq	-14.1415
▁도깨비	-14.1415
▁꿀꿀	-14.1416
▁얌체	-14.1416
▁남영동	-14.1416
▁서커스	-14.1416
▁KAI	-14.1417
▁북돋	-14.1417
▁세웁니다	-14.1418
▁얽매여	-14.1418
▁팰리	-14.1419
▁1982	-14.1419
▁줫으면	-14.1419
사형	-14.142
▁림프	-14.142
▁쳐들어와	-14.1421
▁놔둔	-14.1421
제안	-14.1421
▁몆년	-14.1423
▁스탬	-14.1423
▁김관	-14.1423
조물	-14.1423
▁적십자	-14.1423
▁ma	-14.1424
▁무뎌	-14.1424
▁밪값게	-14.1424
▁즐겼	-14.1425
▁몆번	-14.1425
call	-14.1428
▁2259	-14.1428
▁또렷	-14.1428
bf	-14.1428
▁세븐	-14.1428
▁튕겨	-14.143
▁애리조	-14.1431
▁뜯어고쳐	-14.1432
▁건드려	-14.1433
▁정치성	-14.1433
ida	-14.1434
▁Gb	-14.1435
▁얘깁니다	-14.1435
▁팔립니다	-14.1438
▁월산리	-14.144
▁숨막	-14.144
5775	-14.1441
▁나뭇	-14.1441
▁약해져	-14.1442
▁1544	-14.1442
▁케이티	-14.1445
▁쓰라	-14.1446
▁떨쳐	-14.1447
▁꼬락	-14.1448
▁outli	-14.1448
▁board	-14.1448
읽	-14.1448
▁환멸	-14.1449
▁HEESCO	-14.145
▁kyeong	-14.145
▁저지릅니다	-14.145
▁꿋	-14.1451
▁저럴까	-14.1451
▁theater	-14.1452
▁program	-14.1452
▁hankooki	-14.1453
박혀	-14.1455
▁138	-14.1457
▁무서우	-14.1459
▁힘쓴	-14.146
598	-14.1462
▁홍승	-14.1464
▁향토	-14.1466
▁마지	-14.1466
ks	-14.1468
iple	-14.1468
▁침착	-14.147
▁gm	-14.1473
스틴	-14.1473
▁bul	-14.1474
▁롤러	-14.1474
▁우스워	-14.1475
▁간답니다	-14.1477
▁치렀	-14.1478
▁승하	-14.148
806	-14.1481
▁고난	-14.1482
▁접착	-14.1484
▁포스트	-14.1485
▁깝치	-14.1489
▁외로워	-14.1492
LF	-14.1494
▁미설치	-14.1495
▁ii	-14.1496
우쳐	-14.1496
▁뒤따라	-14.1496
맺	-14.1499
▁씻겨	-14.1501
▁팽개	-14.1503
▁죽여라	-14.1505
▁얘긴	-14.1508
위스	-14.1508
부자	-14.1511
▁방음	-14.1511
▁우왕	-14.1514
▁kook	-14.1517
▁289	-14.1518
▁공윤	-14.152
▁구기	-14.1523
▁시몬	-14.1528
▁셋방	-14.1531
▁엄숙	-14.1532
▁서상	-14.1534
let	-14.1534
▁메릴	-14.1535
▁브라우	-14.1535
메이크	-14.1541
▁웃긴다	-14.1543
▁시끄러워서	-14.1544
▁나뉜다	-14.1544
▁맹세	-14.1545
원금	-14.1545
▁어쩐다	-14.1546
▁카디	-14.1548
문의	-14.1551
cho	-14.1552
루즈	-14.1553
▁온겁니다	-14.1557
호락	-14.1562
▁백승	-14.1564
▁외람	-14.1572
▁김응	-14.1573
▁사이코	-14.1573
강병	-14.1574
▁경마	-14.1577
동연	-14.1582
줍시다	-14.1589
▁커진다	-14.159
▁퓰리	-14.1591
▁밤새워	-14.1591
▁꼼	-14.1593
된다는	-14.1596
▁허투	-14.1598
▁2060	-14.1599
▁chin	-14.1601
▁쫒는	-14.1604
▁츄	-14.1611
▁김은	-14.1614
▁무주	-14.1616
431	-14.1634
▁저당	-14.1641
▁움푹	-14.1642
▁생김	-14.1642
▁애걸	-14.1643
▁섬뜩	-14.1643
994	-14.1645
▁꾸려진	-14.1645
2800	-14.1648
바뀔	-14.1648
923	-14.1652
집단	-14.1652
▁SH	-14.1653
만든	-14.1655
▁증평	-14.1655
▁복숭아	-14.1656
▁쓰레	-14.1657
▁287	-14.166
▁doctors	-14.1662
링크	-14.1665
▁중략	-14.1666
664	-14.1668
▁솔로	-14.167
▁팔릴	-14.1671
▁pp	-14.1678
▁원동	-14.1679
0715	-14.1682
로울	-14.1686
▁돋보	-14.1688
▁돌아선	-14.1689
▁바주	-14.1693
젊	-14.1694
081	-14.1694
▁박장	-14.1695
▁캐치	-14.1699
▁잘랐	-14.1699
▁클린	-14.17
▁424	-14.1703
▁12000	-14.1706
▁폭풍	-14.1709
▁00034	-14.171
▁니스	-14.1712
▁자아	-14.1712
▁탈의	-14.172
날로	-14.172
▁솟구	-14.1722
어버린	-14.1728
빽	-14.1729
다닙니다	-14.1729
▁보여질	-14.1731
어난	-14.1731
▁다이	-14.1737
▁아십니다	-14.1739
▁들춰	-14.174
▁김규	-14.1742
▁병리	-14.1745
▁235	-14.175
▁천인	-14.1766
▁다마스	-14.1767
유기	-14.177
▁ib	-14.1773
▁급매	-14.1776
검색	-14.1778
유라	-14.1783
▁석적	-14.1784
▁게이	-14.1787
▁노림	-14.1787
위원	-14.1789
▁소기	-14.1791
637	-14.1791
낭비	-14.1794
신속	-14.1795
2570	-14.1799
▁군소	-14.1801
945	-14.1805
의문	-14.1811
불안	-14.1812
▁851	-14.1813
ede	-14.1816
1127	-14.1817
5934	-14.1821
▁꼬인	-14.1821
▁호언	-14.1822
교수	-14.1823
달려	-14.1824
역자	-14.1827
▁정교	-14.1834
▁쵸	-14.1835
▁라서요	-14.1838
381	-14.184
▁부단	-14.1842
▁어려운지	-14.1848
각자	-14.185
▁외동	-14.1852
fil	-14.1853
871	-14.1857
주도	-14.1857
▁183	-14.1858
채권	-14.186
연자	-14.1861
▁독산	-14.1863
▁기회주의	-14.1863
당한	-14.1867
▁기공	-14.1869
▁627	-14.1878
지정	-14.1881
913	-14.1881
▁526	-14.1881
▁너그	-14.1882
956	-14.1882
▁전지	-14.1884
▁임학	-14.1885
▁151	-14.1887
▁서원	-14.1889
어낸	-14.189
성병	-14.1891
▁라이	-14.1903
▁통고	-14.1903
▁now	-14.1904
▁보탠다	-14.191
돌려	-14.1911
내린	-14.1916
▁십시	-14.1924
▁at	-14.1926
▁후레	-14.1932
▁VI	-14.1937
멀	-14.1938
▁베트	-14.194
▁이영	-14.1941
▁퇴계	-14.1942
▁신곡	-14.1945
▁ye	-14.1945
▁헤어나	-14.1946
094	-14.1948
est	-14.1948
▁상암	-14.1952
197	-14.1955
대전	-14.197
470	-14.1971
▁메모리	-14.1972
TS	-14.1972
▁변양	-14.1973
▁경락	-14.1974
공급	-14.1977
672	-14.198
743	-14.1981
▁535	-14.1982
▁2016051	-14.199
▁머뭇거	-14.1992
당제	-14.1994
기울여	-14.1998
▁노포	-14.1999
▁생식	-14.2
▁허니	-14.2003
국제	-14.2004
4505	-14.2006
으니까	-14.2017
▁넬	-14.2019
뭉	-14.202
▁가져라	-14.2021
and	-14.2021
맞춰	-14.2021
▁불러다	-14.2033
EL	-14.2038
102	-14.2038
▁384	-14.2043
가치	-14.2046
▁홍성	-14.205
▁뺀다	-14.2051
▁석회	-14.2054
▁푼다	-14.2056
▁mc	-14.2059
블로	-14.2061
▁ML	-14.2068
청소년	-14.207
▁5100	-14.2071
잉	-14.2083
▁굳어	-14.2084
▁무정부	-14.2092
전동	-14.2096
▁바란	-14.2112
▁000407	-14.2112
▁현격	-14.2113
만드	-14.2115
▁눈부	-14.2115
▁초가	-14.212
▁인부	-14.2123
te	-14.2129
과중	-14.2132
▁토닥	-14.2136
▁232	-14.2137
▁날라와	-14.2139
성폭행	-14.2148
ller	-14.2148
아라	-14.2149
▁낮춘다	-14.215
상담	-14.215
기재	-14.2152
bil	-14.2153
정민	-14.2157
▁2018091	-14.2157
903	-14.2158
시오	-14.216
eb	-14.216
봅시다	-14.2176
▁패해	-14.2183
연실	-14.2188
▁피스	-14.2189
▁찾아올	-14.2198
NR	-14.2201
▁짓눌	-14.2202
▁온양	-14.2203
무성	-14.2211
▁명부	-14.2212
탔	-14.2213
083	-14.2217
▁239	-14.2219
▁인빈	-14.2222
43	-14.2224
▁재소	-14.2226
▁드세요	-14.2228
마치	-14.223
56	-14.2233
91	-14.2238
▁방배	-14.2244
여운	-14.2247
sta	-14.2248
▁간선	-14.2256
▁경조	-14.226
지배	-14.226
돌아왔	-14.2263
gp	-14.2264
▁더듬	-14.2268
286	-14.2269
463	-14.2269
떨어	-14.227
▁940	-14.2272
▁전근	-14.2273
▁께요	-14.2279
▁그른	-14.229
흠	-14.2292
▁깅	-14.2293
▁촘	-14.2293
종합	-14.2297
바퀴	-14.23
2075	-14.2306
or	-14.2312
▁청담	-14.2325
▁자화	-14.2326
신전	-14.2328
낭	-14.233
허위	-14.2332
1121	-14.2336
58	-14.234
▁변종	-14.234
623	-14.2353
▁자그만	-14.2355
캡	-14.2357
공장	-14.2358
▁양재	-14.236
▁3800	-14.236
ra	-14.2362
423	-14.2363
511	-14.2373
▁박태	-14.2374
어사	-14.2379
의심	-14.24
으려는	-14.2403
▁TN	-14.2404
첫	-14.2405
▁머지	-14.2405
시절	-14.2423
▁3900	-14.2423
타협	-14.2426
ue	-14.2427
부유	-14.243
▁쾅	-14.2431
정치인	-14.2435
igi	-14.2436
▁유한	-14.2441
▁아테	-14.2446
▁양정	-14.2448
영부	-14.2455
ik	-14.2456
빠져	-14.2459
프로	-14.2462
▁302	-14.2464
▁비양	-14.2464
물질	-14.2464
▁안치	-14.2469
▁역차	-14.247
유도	-14.247
▁반동	-14.2472
아낼	-14.2474
거부	-14.2475
▁엿보	-14.2476
▁ci	-14.2483
일까	-14.2487
▁들으려고	-14.2495
076	-14.2495
961	-14.25
▁박아	-14.2501
IS	-14.2502
▁기어	-14.2503
중화	-14.2503
▁나불	-14.2505
▁최남	-14.2507
▁사각	-14.2515
73	-14.2519
▁347	-14.2522
기존	-14.2522
▁러서	-14.2523
파이	-14.2528
▁송원	-14.2533
얼음	-14.2537
등기	-14.2539
▁탱자	-14.2541
식사	-14.2543
변호사	-14.2547
▁약소	-14.255
질병	-14.2556
▁부의	-14.2556
제기	-14.2558
저런	-14.2559
아대	-14.2559
강대	-14.2567
▁나부	-14.2572
▁강태	-14.2573
▁곧이	-14.2575
▁온정	-14.2576
▁are	-14.2577
봐라	-14.2579
▁화약	-14.258
8495	-14.2581
▁페로	-14.2581
▁해줘야	-14.2583
▁오매	-14.2584
뭇	-14.2586
풀렸	-14.2591
▁중기	-14.2595
자손	-14.2604
962	-14.261
▁inf	-14.261
덩	-14.2612
▁화강	-14.2619
▁제철	-14.2622
푸드	-14.2626
649	-14.2629
러서	-14.263
인하	-14.2636
▁정류	-14.2638
89	-14.264
비우	-14.2642
▁들여와	-14.2646
밀양	-14.2649
둬야	-14.2653
학대	-14.2657
▁온산	-14.266
▁빠진다	-14.2661
▁노하	-14.2662
oh	-14.2665
▁히죽	-14.2666
랩니다	-14.2667
▁KG	-14.2672
599	-14.2673
키오	-14.2676
두둑	-14.268
바꿔	-14.2683
MC	-14.2684
썬	-14.2688
씹	-14.2688
▁용도지	-14.2688
▁김신	-14.2689
▁415	-14.2689
▁장암	-14.269
▁206	-14.2692
국정	-14.2694
믹	-14.2695
▁출납	-14.2697
쌩	-14.2701
▁병자	-14.2705
가오	-14.2706
▁마마	-14.2708
▁불시	-14.2708
▁건드린	-14.2709
▁남해	-14.271
▁AB	-14.2712
어두	-14.2712
인력	-14.2713
▁합디	-14.2714
치도	-14.2717
▁상소	-14.2719
동일	-14.2723
동아	-14.2724
list	-14.273
▁지낸다	-14.2731
▁박동	-14.2738
hin	-14.2741
▁밝혀진다	-14.2744
쾅	-14.2746
아실	-14.2747
수천	-14.2747
라던가	-14.275
분석	-14.2751
▁놨으니	-14.2753
▁해아	-14.2755
의혹	-14.2756
다더군요	-14.276
비정규직	-14.2761
읍니다	-14.2761
▁양지	-14.2764
빤	-14.2765
▁CE	-14.2766
병기	-14.2771
▁노부	-14.2771
▁바꿔치	-14.2771
▁그럭	-14.2775
▁청량	-14.2775
▁개포	-14.2775
▁지른	-14.2785
94	-14.2787
mf	-14.2796
MI	-14.2797
단다	-14.2811
249	-14.2811
▁484	-14.2811
비자	-14.2812
강사	-14.2819
중얼	-14.2825
남아	-14.2825
슬라	-14.2829
▁심해진다	-14.283
▁mail	-14.2831
댄다	-14.2835
ian	-14.2836
▁그니까	-14.2843
하얀	-14.2843
그래	-14.2856
떨어져	-14.2858
▁신학	-14.2861
▁790	-14.2863
▁금기	-14.2863
1596	-14.2866
人	-14.2869
주저리	-14.2873
▁us	-14.2873
▁구대	-14.2875
뻣	-14.2878
61	-14.2878
▁영동	-14.2879
eo	-14.288
684	-14.2881
둣	-14.2884
자치단	-14.2888
꽝	-14.2889
깅	-14.289
촘	-14.289
단서	-14.2895
456	-14.2903
▁큰데	-14.2904
▁냐구	-14.2906
썹	-14.2906
▁월간	-14.2911
조두	-14.2913
▁하이	-14.2918
▁알려준다	-14.2927
983	-14.2931
▁관상	-14.2937
640	-14.2939
596	-14.2939
▁가립니다	-14.2942
실시	-14.2953
합시다	-14.2965
본디	-14.2971
소음	-14.2972
▁FI	-14.2977
ju	-14.2988
▁부드러	-14.2988
니까요	-14.2992
강남	-14.2992
2015	-14.2993
▁258	-14.2997
mpa	-14.2997
노선	-14.2998
▁친다	-14.3
이루	-14.3011
▁함유	-14.3011
▁끈다	-14.3013
▁시킬까	-14.3015
▁나빠진	-14.3019
▁di	-14.3023
슈퍼	-14.3024
446	-14.3028
어드	-14.3029
비아	-14.3032
▁동인	-14.3033
▁아나	-14.3036
▁채워져	-14.3038
ld	-14.3046
969	-14.3049
▁연두	-14.305
대망	-14.3059
시스	-14.3059
드러	-14.3062
▁경합	-14.3063
흘러	-14.3065
BG	-14.3065
▁모자란다	-14.3072
▁불치	-14.3077
수고	-14.3078
▁bl	-14.308
▁SO	-14.3081
▁흘러내	-14.3083
발표	-14.3083
▁을려	-14.3085
초등	-14.3087
기도	-14.3087
▁곘	-14.3098
▁안구	-14.3102
새로	-14.3106
▁두터	-14.3107
▁낮춘	-14.3108
▁한경	-14.3112
ph	-14.3118
354	-14.3121
징역	-14.3137
버거	-14.3138
사유	-14.3139
▁기세	-14.3148
에선	-14.3153
탱자	-14.3154
▁연해	-14.3155
▁끝난다	-14.3155
거양	-14.3158
확실	-14.3162
합의	-14.3162
불통	-14.3163
▁그런다	-14.3164
고두	-14.3173
EE	-14.3174
열사	-14.3174
▁따라간다	-14.3185
▁준다던	-14.319
7294	-14.3193
385	-14.3193
쇼핑	-14.3194
▁다쳤으	-14.3211
▁열대	-14.3212
차이	-14.3212
행선	-14.3216
살려	-14.3218
▁붙인	-14.3223
199	-14.3242
종사	-14.3243
감금	-14.3248
▁외가	-14.325
▁친선	-14.325
▁수전	-14.3255
▁사필	-14.3261
려치	-14.327
▁newsi	-14.3272
된다면	-14.3276
중독	-14.3278
▁제국	-14.3284
▁490	-14.3286
mr	-14.3288
원전	-14.3288
▁랄까	-14.329
2045	-14.3292
수많	-14.33
개미	-14.3315
▁산자	-14.3316
▁이목	-14.3316
지연	-14.3316
차림	-14.3318
▁ct	-14.3329
산화	-14.3334
여부	-14.3338
▁2028	-14.3338
노조	-14.3338
▁1399	-14.3339
▁스리	-14.3341
조망	-14.3347
서요	-14.3349
▁한다니까	-14.335
두환	-14.3354
르크	-14.3368
▁It	-14.3371
홈	-14.3376
평화	-14.338
▁한건	-14.3381
▁리플	-14.3389
344	-14.339
IGH	-14.339
경기도	-14.3401
발행	-14.3402
▁줄서	-14.341
▁펼친다	-14.3422
▁불린	-14.3424
48	-14.3426
▁라니까	-14.3426
▁렸	-14.3427
이디	-14.3431
▁까짓	-14.3431
▁자구	-14.3437
▁히로	-14.3441
▁528	-14.3447
공약	-14.3452
도입	-14.3452
낸다는	-14.3459
명부	-14.3462
▁라라	-14.3464
▁신동	-14.3469
전세	-14.3469
051	-14.3476
어라	-14.3478
협박	-14.3489
통화	-14.3492
▁사제	-14.3497
tT	-14.3502
고분	-14.3502
▁불나	-14.3503
od	-14.3503
▁날아간	-14.3509
▁학적	-14.3511
▁DS	-14.3518
모니	-14.3519
▁봉수	-14.3521
전면	-14.3527
MU	-14.353
군데	-14.3531
▁가린	-14.3538
029	-14.3539
▁ad	-14.354
206	-14.3545
▁이불	-14.3549
대원	-14.3552
화가	-14.3558
남북	-14.356
070	-14.3566
대리	-14.3568
더라구요	-14.3571
▁가르친	-14.3578
358	-14.3582
kr	-14.3586
얀	-14.359
하우	-14.36
▁물린	-14.3603
파업	-14.3605
▁기온	-14.3606
▁스트	-14.3607
4074	-14.3608
▁클리	-14.3615
▁우체	-14.3619
▁쓰인다	-14.3621
으르	-14.3622
urr	-14.3625
883	-14.3628
▁장위	-14.3628
▁MT	-14.363
투표	-14.3634
망친	-14.3635
▁고아	-14.3637
대비	-14.3637
▁동그	-14.3643
▁doctor	-14.3652
her	-14.3652
▁시너	-14.3654
▁065	-14.3661
▁257	-14.3669
낀	-14.367
0300	-14.3675
▁차인	-14.3683
▁산화	-14.3684
▁때려부	-14.3685
사지	-14.3688
258	-14.369
011	-14.369
레인	-14.3696
ei	-14.3698
▁버틴	-14.3704
페이스	-14.3712
틀어	-14.3713
▁말레	-14.3727
▁일회	-14.3728
▁cb	-14.3728
▁cont	-14.3732
더불	-14.3735
▁지저	-14.3737
▁FM	-14.3745
테네	-14.3747
중성	-14.3749
▁00040	-14.3752
속기	-14.3757
▁옳바	-14.376
940	-14.3762
▁이뤄진다	-14.3762
상당	-14.3766
정진	-14.3771
취소	-14.3778
기세	-14.3782
734	-14.3784
93	-14.3785
구미	-14.3785
▁손사	-14.3788
려온	-14.3796
▁지운다	-14.3797
▁유태	-14.3806
어떠	-14.381
보건	-14.3811
ch	-14.3812
wp	-14.3813
▁7800	-14.3815
582	-14.3816
▁총독	-14.3816
king	-14.3816
▁pan	-14.3818
▁lp	-14.3819
▁두려워한	-14.3824
증가	-14.3826
▁부추긴	-14.3826
취지	-14.3829
▁달려와	-14.3831
▁284	-14.3839
▁빚어	-14.3841
▁한국자산	-14.385
AR	-14.3853
메달	-14.3858
▁방석	-14.3858
혁기	-14.3859
ines	-14.3861
우유	-14.3865
▁all	-14.3871
▁상이	-14.3871
iz	-14.3872
떻	-14.3881
외교	-14.3882
쁩니다	-14.3886
형태	-14.3887
▁1401	-14.389
음료	-14.3893
▁갓난	-14.3893
▁밷	-14.3893
▁br	-14.3894
토론	-14.3895
▁주고	-14.39
▁밪값	-14.3903
▁엊	-14.3905
힙니다	-14.391
▁밧	-14.3912
▁멤	-14.3914
▁킁	-14.3915
▁伊	-14.3915
▁xFZGIk	-14.3915
▁我	-14.3915
▁檢	-14.3915
▁깼	-14.3915
▁냬	-14.3915
▁땍	-14.3915
▁먄	-14.3915
▁뭅니다	-14.3915
▁얍	-14.3915
▁우쭐	-14.3915
▁죕니	-14.3915
▁짒	-14.3915
▁햔	-14.3915
▁횐	-14.3915
▁흫	-14.3915
之	-14.3915
位	-14.3915
尊	-14.3915
年	-14.3915
是	-14.3915
欺	-14.3915
義	-14.3915
詐	-14.3915
궜	-14.3915
넸	-14.3915
놉	-14.3915
눅	-14.3915
딕	-14.3915
몄	-14.3915
뭏	-14.3915
밈	-14.3915
밬에	-14.3915
삷	-14.3915
샙	-14.3915
쪄	-14.3915
쪘	-14.3915
콱	-14.3915
큘	-14.3915
퉤	-14.3915
훑	-14.3915
▁123531	-14.3915
▁핬	-14.3915
▁Comm	-14.3915
飞	-14.3915
gram	-14.3915
▁뒤엉켜	-14.3915
▁낄낄	-14.3915
▁보디빌	-14.3915
▁지킵니다	-14.3915
▁줄입시다	-14.3915
▁201809051	-14.3915
▁with	-14.3915
▁김련희	-14.3915
▁덜컹	-14.3915
▁SBSNEWS	-14.3915
kyong	-14.3915
▁테마파크	-14.3915
▁까말까	-14.3915
▁nav	-14.3915
lic	-14.3915
▁휩니다	-14.3915
▁닌깐	-14.3915
▁느꼈으리라	-14.3916
▁펼칩니다	-14.3916
▁걍쥐	-14.3916
lte	-14.3916
▁차범근	-14.3916
▁윤락녀	-14.3916
▁미끄러져	-14.3916
egr	-14.3916
▁찌릅니다	-14.3916
▁버지니아	-14.3916
▁옜날	-14.3916
▁크리스토	-14.3916
▁스냅	-14.3917
▁밣혀	-14.3917
▁우크라	-14.3917
▁RF	-14.3917
▁가르칩니다	-14.3917
▁cre	-14.3917
▁쟎아요	-14.3917
▁프렌	-14.3917
▁페널티	-14.3917
▁억눌려	-14.3917
▁내팽개	-14.3917
xc	-14.3918
▁찮가지	-14.3918
▁남상철	-14.3918
ment	-14.3918
▁두려웠	-14.3918
led	-14.3918
▁히어로	-14.3918
▁씀니다	-14.3919
▁모른답니다	-14.3919
▁깔깔	-14.392
▁9276	-14.392
▁JL	-14.392
▁맞물	-14.3921
kim	-14.3921
▁짝짝	-14.3921
▁안식교	-14.3921
▁신현	-14.3921
▁버벅	-14.3922
웅얼	-14.3923
▁웬걸	-14.3923
▁배울까	-14.3923
▁훔처	-14.3924
▁도요타	-14.3924
▁뜯어고쳐야	-14.3924
▁겹친다	-14.3925
▁찢어졌	-14.3925
▁포르투	-14.3925
▁까다로워	-14.3926
▁깨뜨	-14.3927
▁뺏겨	-14.3929
▁MSD	-14.393
▁프로그래	-14.393
▁clo	-14.3931
▁계실까	-14.3932
▁갖춰져야	-14.3933
소비자	-14.3933
▁호구포	-14.3933
▁끄덕	-14.3935
▁밷는	-14.3936
▁1976	-14.3938
▁느낄까	-14.3939
hs	-14.3939
▁도와줘	-14.394
gM	-14.3941
▁나갑시다	-14.3941
▁예사로	-14.3942
마칠	-14.3942
▁1548	-14.3943
▁봉급생활	-14.3945
▁굴곡	-14.3945
▁1978	-14.3945
▁칭함	-14.3946
boo	-14.3946
▁둬라	-14.3947
▁문질러	-14.395
▁소꼽	-14.3951
▁안쓰러워	-14.3952
보였	-14.3952
▁미심	-14.3952
tar	-14.3954
▁열립니다	-14.3954
10226	-14.3955
▁어루만	-14.3955
▁벌떼	-14.3956
▁두드렸	-14.3957
▁헙화	-14.3959
▁잏는	-14.3961
▁환산율	-14.3961
vT	-14.3961
▁흩뿌	-14.3962
▁배불러	-14.3964
▁나아갑니다	-14.3964
▁쫒겨날	-14.3964
▁계룡	-14.3965
▁마두	-14.3968
▁어울린다	-14.3969
▁김윤	-14.3969
▁HE	-14.3969
▁ko	-14.397
▁부엉	-14.397
▁박철	-14.397
▁msi	-14.397
과수	-14.3974
DD	-14.398
xi	-14.3981
▁MC	-14.3982
▁극좌	-14.3982
▁무지개	-14.3983
▁횡성	-14.3984
▁한답니까	-14.3995
무식	-14.3995
▁더해져	-14.3997
졸업	-14.3999
▁생떼	-14.4001
▁Bus	-14.4001
트렌	-14.4003
▁열렬	-14.4004
▁내리막	-14.4005
프리드	-14.4005
▁화양	-14.4006
ream	-14.4016
▁무거워	-14.4019
▁진해	-14.4021
▁카카	-14.4022
▁육탄	-14.4028
▁구렁	-14.4031
▁사그라	-14.4032
53	-14.4032
▁오이도	-14.4033
▁329	-14.4035
▁마스터	-14.404
교환	-14.404
fs	-14.4041
▁퍼뜨린	-14.4042
▁기념사	-14.4043
825	-14.4043
▁메워	-14.4043
▁틴	-14.4043
▁뺏긴	-14.4043
▁흘릴	-14.4044
▁매듭	-14.4044
▁철갑	-14.4046
▁645	-14.4047
▁풍향	-14.4048
트롤	-14.4049
▁송강	-14.4049
끄러	-14.4052
▁면피	-14.4054
너덜	-14.4054
▁박찬	-14.4056
▁살아간	-14.4058
▁철창	-14.4058
4076	-14.4062
HG	-14.4064
▁김덕	-14.4065
▁공공사업	-14.4066
egu	-14.4066
아닌가	-14.4066
▁으랍니다	-14.4069
양각	-14.4069
▁453	-14.4071
살림	-14.4071
현대	-14.4072
▁빼곡	-14.4076
▁421	-14.4077
▁서글퍼	-14.4077
▁해버릴	-14.4079
▁834	-14.4081
▁헙자	-14.4082
▁버립시다	-14.4083
▁166	-14.4086
▁468	-14.4088
▁방위성	-14.4091
▁937	-14.4095
2456	-14.4096
▁숙여야	-14.4097
▁쓸데	-14.4101
▁훔쳐서	-14.4101
▁묻힌	-14.4101
▁too	-14.4108
▁대명	-14.4109
▁생뚱	-14.4111
▁홉	-14.4116
vac	-14.4117
▁홍반	-14.4118
▁포열	-14.4119
털레	-14.4121
07003	-14.4128
▁찾아본	-14.413
▁stat	-14.4131
▁빼았	-14.4133
▁080	-14.4133
▁자빠져	-14.4135
795	-14.4136
▁겉치	-14.4143
ard	-14.415
▁심리학	-14.4153
▁붕어	-14.4156
현역	-14.4156
사례	-14.4157
▁25000	-14.4158
▁在	-14.4158
▁本	-14.4158
▁샹	-14.4158
중심	-14.4161
1152	-14.4161
▁봉건	-14.4163
▁대갈	-14.4166
▁시답	-14.4167
▁439	-14.4169
▁245	-14.4172
랏	-14.4172
커먼	-14.4173
▁계십시오	-14.4178
라질	-14.4179
▁일러	-14.4179
gi	-14.4183
부디	-14.4196
▁227	-14.4197
▁갈테	-14.4207
연봉	-14.4209
▁607	-14.4211
▁169	-14.4211
▁way	-14.4211
1928	-14.4213
▁20190129	-14.4215
그동안	-14.4218
ct	-14.422
아나	-14.4221
▁핍니다	-14.4223
▁people	-14.4225
▁이달	-14.4225
▁새까	-14.4228
▁강창	-14.4231
▁뿜어	-14.4231
▁별정	-14.4242
9600	-14.4242
수성	-14.4248
▁발맞	-14.4249
리라	-14.4251
▁단군	-14.4251
밝혀	-14.4257
▁이태리	-14.4262
▁시달린다	-14.4262
▁돌려보낸	-14.4266
▁수화	-14.4266
부서	-14.4266
연장	-14.4276
▁김봉	-14.4277
▁dic	-14.4278
0002908	-14.4279
양심	-14.428
▁우치	-14.4282
▁무너뜨린	-14.4285
닌지	-14.4286
talk	-14.4286
▁서랍	-14.4293
▁유실	-14.4293
줄기	-14.4294
나올	-14.4299
▁정거	-14.4301
la	-14.4302
▁여고	-14.4308
변기	-14.4308
▁Pro	-14.4308
마지막	-14.4313
▁pd	-14.4314
691	-14.4314
린다는	-14.4321
050	-14.4329
ye	-14.4333
아왔	-14.4339
싫	-14.434
▁으셨으	-14.4344
▁노승	-14.4344
▁ec	-14.4348
▁문경	-14.435
▁상영	-14.4354
회복	-14.4358
nt	-14.436
▁수차	-14.4366
ntro	-14.4368
san	-14.437
압박	-14.4371
화장	-14.4373
ica	-14.4374
▁날아간다	-14.4374
옆	-14.438
IE	-14.4381
빌라	-14.4382
IC	-14.4386
▁133	-14.4388
▁334	-14.44
포크	-14.4401
746	-14.4402
CAT	-14.4402
▁허드	-14.4408
▁보현	-14.4419
핸드	-14.4423
▁눌러야	-14.4425
김정	-14.4425
▁마주쳐	-14.4425
▁256	-14.4436
▁삼양	-14.4441
▁번쩍	-14.4441
▁이어짐	-14.4441
깡	-14.4442
▁때려죽	-14.4443
공시	-14.4445
▁죽림	-14.4453
상근	-14.4456
990	-14.4461
▁1229	-14.4462
▁하수	-14.447
rom	-14.4474
▁달려간	-14.4484
수면	-14.4489
주국	-14.4492
380	-14.4494
▁도마	-14.4495
▁쿵쾅	-14.4504
▁뚜벅	-14.4504
▁쌓일	-14.4507
▁검정고	-14.451
▁경축	-14.4512
하늘	-14.452
럼프	-14.4521
에요	-14.4524
▁멀뚱	-14.4524
▁비뚤어	-14.4528
IO	-14.4532
새벽	-14.4533
900	-14.4534
▁채석	-14.4534
마찬가지	-14.4535
▁도와서	-14.4538
간단	-14.4538
스퍼	-14.4538
▁전할	-14.4541
▁유유	-14.4545
388	-14.4552
▁통찰	-14.4564
▁163	-14.4565
▁벌떡	-14.4571
▁유창	-14.4576
▁유별	-14.4577
▁건드	-14.4577
국토	-14.4581
▁503	-14.4582
▁초강	-14.4585
수법	-14.4594
▁수성	-14.4599
▁거둔다	-14.46
▁권혁	-14.4602
구청	-14.4603
수지	-14.4605
협상	-14.4606
깍	-14.4607
일까요	-14.4608
LO	-14.4608
▁외숙	-14.4608
게시	-14.461
▁죽변	-14.4617
스럼	-14.4621
▁IB	-14.4624
▁으니라고	-14.463
▁애드	-14.4632
▁우성	-14.4642
150000	-14.4649
망측	-14.4657
▁흘러들	-14.4658
▁878	-14.4662
▁조련	-14.4673
▁났으	-14.4676
▁사셔	-14.4678
DI	-14.4688
일정	-14.469
▁282	-14.4696
▁윽	-14.4698
▁배운다	-14.4705
항공사	-14.4713
뿌	-14.4716
까운	-14.4719
▁스쿨	-14.4726
년전	-14.4728
▁김남	-14.4728
▁제자	-14.4729
일치	-14.473
으실까	-14.4742
▁261	-14.4743
▁다가온다	-14.4751
예비	-14.4751
▁cs	-14.4751
무신	-14.4751
▁윙	-14.4756
▁띤	-14.4756
303	-14.4757
▁능곡	-14.4758
▁셀러	-14.4765
201	-14.4772
oc	-14.4773
▁요술	-14.4776
▁담수	-14.4779
▁잠근	-14.4786
▁허심	-14.4793
▁208	-14.4797
▁무난	-14.4797
▁387	-14.4799
077	-14.48
미니	-14.4801
▁놔라	-14.4802
▁세련	-14.4804
▁사회상	-14.4806
▁전조	-14.4806
▁847	-14.481
결정권	-14.4815
sh	-14.4825
▁독후	-14.4827
▁014	-14.4831
명백	-14.4831
ou	-14.4837
반의	-14.4844
선진	-14.4846
▁월요	-14.485
▁견마	-14.485
효자	-14.4852
조용	-14.4855
▁mi	-14.4855
BN	-14.4856
▁넓힌	-14.4859
아침	-14.4863
▁OF	-14.4867
▁에밀	-14.4879
855	-14.4883
앵	-14.4889
얻	-14.4907
▁뷔	-14.4911
▁난입	-14.4912
애물	-14.4912
지시	-14.4917
실업	-14.4917
▁un	-14.4917
그라	-14.4921
수없	-14.4921
▁시끌	-14.4927
▁410	-14.4927
려울	-14.4935
▁의열	-14.4936
▁gu	-14.4937
▁CG	-14.4945
벌금	-14.4949
▁non	-14.4949
▁속지	-14.495
드림	-14.4951
▁1228	-14.4956
644	-14.4964
,,,	-14.4965
단순	-14.4972
▁장마	-14.4973
▁청송	-14.4976
▁박순	-14.4977
▁으신다	-14.4977
약속	-14.4978
▁어획	-14.4984
▁쫓아와	-14.4989
노무	-14.4989
음주운전	-14.4993
▁날름	-14.5
목숨	-14.5005
▁뒷골	-14.5006
공동	-14.5013
회생	-14.5016
들어와	-14.5021
▁arc	-14.5027
▁마세	-14.5028
빠른	-14.5028
목포	-14.5031
5831	-14.5037
739	-14.504
맥상	-14.5041
성웅	-14.5042
▁암것	-14.5044
음악	-14.5047
PL	-14.5053
예술	-14.5054
잃	-14.5055
▁물어봅	-14.5056
▁나아간	-14.506
해온	-14.5063
▁둣	-14.5064
기능	-14.5064
카이	-14.507
▁됍	-14.507
st	-14.5071
수갑	-14.5073
▁강습	-14.5073
▁퀴	-14.5076
맞이	-14.5081
수십	-14.5085
yun	-14.5105
2900	-14.5106
깎	-14.5122
무상	-14.5135
시원	-14.5141
▁식자	-14.5144
ts	-14.5144
창출	-14.5146
▁차이나	-14.5151
▁굼	-14.5154
▁준답	-14.5156
▁820	-14.5159
남용	-14.516
▁만난다	-14.5164
문희	-14.5165
▁피운다	-14.5165
드라	-14.517
▁의자	-14.5174
배달	-14.5176
▁333	-14.5182
민간	-14.5184
완성	-14.5186
공직	-14.5205
906	-14.5208
wor	-14.5209
경력	-14.5213
KB	-14.5213
교부	-14.5213
92	-14.5214
▁폴리	-14.5218
▁행해진	-14.523
693	-14.5233
▁000070	-14.5235
는다면	-14.5237
001	-14.5238
▁필라	-14.5238
▁조져	-14.5241
▁990	-14.5242
▁허경	-14.5245
▁통틀	-14.5246
▁루즈	-14.5247
▁통사	-14.5249
이면	-14.525
▁자린	-14.5253
▁달한	-14.5254
▁중환	-14.5256
▁콤	-14.5266
▁우선주	-14.5269
▁2017072	-14.5269
▁납시	-14.5273
드린	-14.5279
614	-14.528
상임	-14.5291
FA	-14.5295
▁장정	-14.5297
▁이산	-14.5302
365	-14.5303
483	-14.5305
▁흔든	-14.5312
▁사사	-14.5313
▁불자	-14.5313
울러	-14.5317
▁문대	-14.532
905	-14.532
▁성수	-14.5323
▁교습	-14.5332
▁마려	-14.5333
도읍	-14.5339
▁따라다닌	-14.5343
▁730	-14.5349
714	-14.5352
▁뿌린다	-14.5354
▁흐른다	-14.5358
▁행선	-14.5368
ls	-14.5373
달성	-14.5374
▁앰	-14.5374
닙	-14.5378
▁십상	-14.5391
01086	-14.5395
했으니	-14.5402
▁네이	-14.5406
아마	-14.5407
534	-14.5408
간곡	-14.5408
웅성	-14.5408
▁포트	-14.5411
가졌	-14.5411
▁걸립니	-14.5412
양대	-14.5414
10100	-14.5414
▁방정	-14.5422
▁기출	-14.5424
▁시퍼	-14.5425
성복	-14.5428
제일	-14.5429
▁젠트	-14.5433
너스	-14.5435
간다면	-14.5437
946	-14.5438
▁개막	-14.5445
657	-14.5447
돌아올	-14.5449
겨나	-14.545
▁최용	-14.5469
572	-14.5473
마당	-14.5476
삽	-14.5481
▁돈독	-14.5482
▁전성	-14.5484
2001	-14.5486
▁이언	-14.5496
확대	-14.5497
발언	-14.5506
자라	-14.5511
▁우세	-14.5517
▁318	-14.5517
냅시다	-14.5518
관계자	-14.5523
▁사교	-14.5526
▁지켜져	-14.5528
101	-14.553
▁292	-14.553
말리	-14.5538
조문	-14.5538
etin	-14.5545
▁잠금	-14.555
061	-14.555
인생	-14.5553
▁et	-14.5558
부글	-14.556
▁살라	-14.5563
636	-14.5563
▁fi	-14.5565
양도	-14.5572
▁식음	-14.5578
동작	-14.5581
▁남인	-14.5582
▁쳐들	-14.5587
▁dat	-14.5595
▁여주	-14.5596
차인	-14.5599
성공	-14.5602
건조	-14.5613
▁페리	-14.5615
434	-14.5616
3400	-14.5621
▁되살	-14.5622
얼굴	-14.5623
▁정병	-14.5626
▁바라본	-14.563
llet	-14.5634
000413	-14.5635
obal	-14.5637
▁과로	-14.5638
▁나주	-14.5641
깁	-14.5644
▁토일	-14.5651
▁순시	-14.5664
파시	-14.5674
나쁜	-14.5675
여론	-14.568
843	-14.5684
▁통했	-14.5684
리낌	-14.5691
▁we	-14.5691
TO	-14.5693
고려	-14.5697
양육	-14.5698
▁서창	-14.5703
472	-14.5705
eserv	-14.5711
반영	-14.5712
드셨	-14.5714
배기	-14.5716
▁개점	-14.5723
화주	-14.5723
매달	-14.5728
▁남원	-14.573
꾀	-14.5731
▁ha	-14.5731
▁갔으	-14.5732
1782	-14.5734
지랄	-14.5735
읍시다	-14.5737
▁기체	-14.5737
위태	-14.5738
꾹	-14.5743
▁뒤섞	-14.5749
NC	-14.5753
▁흘러간	-14.5762
독립군	-14.5765
ulle	-14.5769
ky	-14.5773
감소	-14.5774
라장	-14.5775
트립	-14.5783
한국인	-14.5786
네이	-14.5787
화합	-14.5788
▁남중	-14.5789
궁금	-14.5798
▁누른	-14.5805
▁생화	-14.5806
▁ilyo	-14.5806
▁212	-14.5809
이혼	-14.5811
곰	-14.5815
입학	-14.5817
손가락	-14.5818
▁김무	-14.5819
클러	-14.5821
▁립	-14.5822
단위	-14.583
활용	-14.584
▁김인	-14.5842
핏	-14.5844
노후	-14.5844
러야	-14.5848
반신	-14.5857
gl	-14.5867
부러져	-14.5874
▁154	-14.5874
▁573	-14.5874
갈라	-14.5876
카오	-14.5881
누군가	-14.5886
▁졸지	-14.5899
브라	-14.59
▁장세	-14.5904
방해	-14.5916
식품	-14.5917
tc	-14.5918
엉	-14.5922
끊	-14.5923
회신	-14.5931
▁입신	-14.5935
잔디	-14.5938
요양	-14.594
▁ra	-14.5966
▁양당	-14.5967
최대	-14.5968
행시	-14.5969
0090	-14.5973
▁ml	-14.5976
▁옯	-14.5978
▁벌일	-14.5978
▁진두	-14.5979
찐	-14.5979
▁원세	-14.5988
▁779	-14.5994
퍽	-14.5997
▁퐁	-14.6001
▁權	-14.6001
vol	-14.6003
뻘	-14.6004
▁303	-14.6004
국적	-14.6005
찔끔	-14.6009
ner	-14.6015
▁대곡	-14.6015
제목	-14.6019
▁무조	-14.6022
월동	-14.6024
리퍼	-14.6031
반려	-14.6033
떠나	-14.6037
고속철	-14.6042
▁1175	-14.6046
▁595	-14.6047
혀져	-14.6048
스트리	-14.6054
▁승전	-14.6062
할멈	-14.6063
▁아낍	-14.6065
굵직	-14.6066
눕	-14.6067
탤	-14.6067
981	-14.6072
▁매운	-14.6073
▁다중	-14.6073
리학	-14.6081
▁673	-14.609
공유	-14.6094
▁바친다	-14.61
슐	-14.61
횡령	-14.6101
▁조억	-14.6109
트레	-14.6111
수령	-14.6112
▁크루	-14.6115
▁어물	-14.6121
▁201901	-14.6123
까짓	-14.6123
▁증기	-14.6124
토닥	-14.6126
▁모병	-14.613
김천	-14.6131
꿍	-14.6132
젠트	-14.6134
주운	-14.6136
더듬	-14.6139
▁난소	-14.6139
줄께	-14.6149
신재	-14.6151
▁00009	-14.6159
후보	-14.616
韓	-14.6161
휙	-14.6161
▁EP	-14.6163
짢	-14.6163
조원	-14.6165
▁화류	-14.6165
아차	-14.6165
매년	-14.6169
445	-14.6171
42	-14.6175
8745	-14.6175
모략	-14.6179
띤	-14.6183
윙	-14.6183
주차	-14.6183
마쳤	-14.6184
▁밑바	-14.6184
228	-14.6185
▁필리	-14.6186
▁보험증	-14.6186
개소	-14.62
▁jo	-14.62
▁진흙	-14.6214
ope	-14.6215
▁구명	-14.6218
▁준강	-14.6221
▁망친다	-14.6223
▁통한다	-14.6224
최고	-14.623
▁녹아	-14.6234
▁ST	-14.6236
줄어	-14.6237
대우	-14.6237
▁국전	-14.6243
윽	-14.6248
오로	-14.6252
산청	-14.6255
▁ins	-14.6265
450	-14.6266
▁조연	-14.6268
▁력	-14.6269
지경	-14.6269
쇼쇼	-14.6275
대도	-14.6281
▁구장	-14.6282
GM	-14.6285
▁머뭇	-14.6294
▁성황	-14.6302
DR	-14.6306
▁올린다면	-14.6306
침해	-14.6317
▁군용	-14.6319
여져	-14.632
▁두드	-14.6321
▁FO	-14.6321
두루	-14.6325
그저	-14.6333
▁어퍼	-14.6335
▁들으셨	-14.6337
▁OR	-14.6341
▁욕지	-14.6341
▁하여	-14.6343
하수	-14.6344
▁심부	-14.6349
▁원시	-14.6357
특기	-14.6359
구원	-14.636
▁cg	-14.6361
식업	-14.6363
타부	-14.6364
▁또박	-14.6366
▁ki	-14.6369
내부	-14.6375
▁1004	-14.6377
▁비관	-14.6382
부끄	-14.6385
우려	-14.6385
토바	-14.6389
진단	-14.6393
543	-14.6395
PO	-14.6417
기억	-14.6417
씁니다	-14.6423
유자	-14.6428
지원금	-14.6429
지라	-14.6432
▁떠오른다	-14.6433
으려	-14.6437
▁일차	-14.644
당사	-14.6441
정대	-14.6443
014	-14.6444
국채	-14.6446
▁허우적	-14.6449
▁국민주	-14.6465
창원	-14.6465
▁릅니다	-14.6469
혹은	-14.6469
제약	-14.6479
오토	-14.648
비지	-14.6482
▁칭한	-14.6487
▁반유	-14.6494
신혜	-14.6501
명목	-14.6507
정산	-14.6507
▁넘긴다	-14.6514
▁026	-14.6519
2600	-14.6522
▁까내	-14.6523
려요	-14.6526
NP	-14.6526
출발	-14.6526
▁cur	-14.6533
기증	-14.6534
복지부	-14.6535
▁005	-14.6535
▁사야	-14.6537
근대	-14.6541
▁질산	-14.6543
186	-14.6544
332	-14.6547
▁4663	-14.6551
702	-14.6551
아려	-14.6552
▁성층	-14.6558
XQ	-14.6564
▁en	-14.6569
▁818	-14.6577
신다	-14.6582
국어	-14.6586
▁박기	-14.6588
367	-14.6602
▁습디	-14.6604
몰라	-14.6604
희생	-14.6604
뒷	-14.6609
이르	-14.6611
▁인건	-14.6614
1566	-14.6615
채무	-14.6615
이사	-14.6615
▁xxxx	-14.6616
▁젔	-14.6621
원진	-14.6623
첨부	-14.6632
▁wo	-14.664
소속	-14.6648
▁뚫린	-14.665
그러면	-14.6652
존경	-14.6655
기적	-14.6657
ab	-14.6658
▁예사	-14.6659
722	-14.6661
백정	-14.6665
병역	-14.6667
▁괄	-14.6667
292	-14.6667
▁355	-14.6672
에스	-14.6672
설사	-14.668
차려	-14.6681
가져	-14.6685
▁지켜준다	-14.6687
▁요식	-14.6694
예금	-14.6695
티머	-14.6701
▁소리쳐	-14.6704
789	-14.6707
▁불이	-14.671
표현	-14.6712
▁으르	-14.6716
▁056	-14.6718
▁팔린	-14.6721
▁안쓰러	-14.6733
▁371	-14.6733
장단	-14.6744
ma	-14.6744
AI	-14.6765
0007	-14.6768
폴리	-14.6775
▁NP	-14.678
▁나아져	-14.6783
리친	-14.6786
특례	-14.6797
행법	-14.6797
EX	-14.6809
▁악력	-14.681
겸사	-14.681
▁번화	-14.6815
▁김희	-14.6817
허세	-14.6823
수행	-14.6824
▁희소	-14.6828
스럼없	-14.6828
nd	-14.6831
▁끼인	-14.6831
협의	-14.6833
갑자	-14.6833
됨	-14.6839
▁대도	-14.684
▁나갈까	-14.6846
일자	-14.6849
▁즌	-14.685
철물	-14.6853
895	-14.6855
진료	-14.6859
▁쉬웠	-14.6861
343	-14.6867
솔직	-14.6875
▁454	-14.6875
ys	-14.688
li	-14.6883
▁장호	-14.6884
존중	-14.6889
비서	-14.689
943	-14.6893
▁시달린	-14.6894
크린	-14.6899
524	-14.6902
▁줫다	-14.6903
일어났	-14.6911
sti	-14.6911
취해	-14.6911
아귀	-14.6914
올렸	-14.6915
취득	-14.6928
예정	-14.6937
▁093	-14.694
▁wh	-14.694
▁조물	-14.695
ors	-14.695
▁재작	-14.6957
다닌	-14.6965
연고	-14.6966
▁패전	-14.6977
소형	-14.698
▁흩	-14.6981
▁떠다	-14.6983
신다고	-14.6985
▁쓸어	-14.6986
▁했잖아	-14.6994
▁돌대	-14.6994
eak	-14.6998
PE	-14.7006
▁드셔	-14.7007
▁나뉜	-14.7021
he	-14.7026
용도	-14.7031
▁Ad	-14.7039
▁259	-14.7042
흙탕	-14.7045
ci	-14.7047
▁344	-14.7048
스패	-14.7048
WE	-14.7051
ver	-14.7052
경비	-14.7059
다행	-14.7061
▁먹인	-14.7061
▁사로	-14.707
me	-14.707
387	-14.7073
▁Pr	-14.7075
여진	-14.7081
▁Go	-14.7092
▁뜬금	-14.7094
냄새	-14.7099
50000	-14.7103
322	-14.7103
▁됏다	-14.7106
▁fr	-14.7111
NK	-14.7113
어제	-14.7117
▁wr	-14.7122
수저	-14.7127
son	-14.7138
무반	-14.7144
▁행해져	-14.7148
부조	-14.7149
영식	-14.7151
세탁	-14.7152
min	-14.7154
탄핵	-14.7156
▁185	-14.7156
직무	-14.7157
▁어쩐	-14.7163
3269	-14.717
OE	-14.7171
▁Au	-14.7176
▁조수	-14.7176
▁신혜	-14.7183
ber	-14.7188
적법	-14.7197
Ev	-14.7198
ree	-14.7199
▁백일	-14.7204
▁뽄	-14.7205
바꿀	-14.7209
▁옐	-14.7219
119	-14.7221
▁김도	-14.7224
▁빙하	-14.7228
▁내구	-14.7228
학력	-14.7232
연말	-14.7234
▁르노	-14.7234
크래	-14.7234
▁아픕니	-14.7235
원동	-14.7236
2013	-14.7237
래라	-14.7238
버린다	-14.7238
▁뒈	-14.724
▁FC	-14.724
인삼공사	-14.7241
▁굵	-14.7242
▁쟎	-14.7242
▁밣	-14.7246
[...]
